{
  "version": "1.0",
  "truncation": null,
  "padding": null,
  "added_tokens": [
    {
      "id": 0,
      "content": "[PAD]",
      "single_word": false,
      "lstrip": false,
      "rstrip": false,
      "normalized": false,
      "special": true
    },
    {
      "id": 1,
      "content": "[UNK]",
      "single_word": false,
      "lstrip": false,
      "rstrip": false,
      "normalized": false,
      "special": true
    },
    {
      "id": 2,
      "content": "[CLS]",
      "single_word": false,
      "lstrip": false,
      "rstrip": false,
      "normalized": false,
      "special": true
    },
    {
      "id": 3,
      "content": "[SEP]",
      "single_word": false,
      "lstrip": false,
      "rstrip": false,
      "normalized": false,
      "special": true
    },
    {
      "id": 4,
      "content": "[MASK]",
      "single_word": false,
      "lstrip": false,
      "rstrip": false,
      "normalized": false,
      "special": true
    }
  ],
  "normalizer": {
    "type": "Sequence",
    "normalizers": [
      {
        "type": "NFKC"
      }
    ]
  },
  "pre_tokenizer": {
    "type": "Metaspace",
    "replacement": "_",
    "prepend_scheme": "always",
    "split": true
  },
  "post_processor": null,
  "decoder": {
    "type": "Metaspace",
    "replacement": "_",
    "prepend_scheme": "always",
    "split": true
  },
  "model": {
    "type": "Unigram",
    "unk_id": 1,
    "vocab": [
      [
        "[PAD]",
        0.0
      ],
      [
        "[UNK]",
        0.0
      ],
      [
        "[CLS]",
        0.0
      ],
      [
        "[SEP]",
        0.0
      ],
      [
        "[MASK]",
        0.0
      ],
      [
        "_",
        -2.561159179812197
      ],
      [
        ",",
        -3.8990454883404695
      ],
      [
        ".",
        -4.5063100795016044
      ],
      [
        "లో",
        -4.737689787726101
      ],
      [
        "ను",
        -4.970903681074699
      ],
      [
        "కు",
        -5.097061020682684
      ],
      [
        "ని",
        -5.100294724349569
      ],
      [
        "_ఈ",
        -5.108132061063536
      ],
      [
        "గా",
        -5.191234145818136
      ],
      [
        "ం",
        -5.266256588815159
      ],
      [
        "లు",
        -5.371278122049693
      ],
      [
        "తో",
        -5.380172312928087
      ],
      [
        "కి",
        -5.454045015772435
      ],
      [
        "ల",
        -5.456118581715273
      ],
      [
        "న",
        -5.4924687343479395
      ],
      [
        "\n",
        -5.496287293680556
      ],
      [
        "_ఆ",
        -5.685852056718446
      ],
      [
        "స్",
        -5.754456767010499
      ],
      [
        "ి",
        -5.771987960158878
      ],
      [
        "_నుండి",
        -5.797138604660692
      ],
      [
        "ా",
        -5.821430124087609
      ],
      [
        "ు",
        -5.896462982636789
      ],
      [
        "_కూడా",
        -5.9047087962717
      ],
      [
        "ే",
        -5.94906038196334
      ],
      [
        "క",
        -5.999418642206031
      ],
      [
        "పై",
        -6.103608806099912
      ],
      [
        "_ఒక",
        -6.118795658307956
      ],
      [
        "_ఉంది.",
        -6.155413903130452
      ],
      [
        ":",
        -6.203767819809071
      ],
      [
        "వ",
        -6.219967200483108
      ],
      [
        "_ఉన్నాయి.",
        -6.240411284455618
      ],
      [
        "_(",
        -6.317522917823499
      ],
      [
        "నే",
        -6.322359889438761
      ],
      [
        "_గ్రామం",
        -6.3283977783166065
      ],
      [
        "_దూరంలో",
        -6.338134442937736
      ],
      [
        ")",
        -6.344690537027207
      ],
      [
        "_10",
        -6.349042106559271
      ],
      [
        "-",
        -6.392272634597733
      ],
      [
        "ారు.",
        -6.399497944608031
      ],
      [
        "_కి.మీ.",
        -6.421715332599577
      ],
      [
        "_\"",
        -6.425903502792659
      ],
      [
        "త",
        -6.4288435197822835
      ],
      [
        ".\n",
        -6.434803730288156
      ],
      [
        "_అని",
        -6.456064719559178
      ],
      [
        "_మరియు",
        -6.466521498302297
      ],
      [
        "_తన",
        -6.472062274882159
      ],
      [
        "_అ",
        -6.474742888831255
      ],
      [
        "_\n",
        -6.4813545811019075
      ],
      [
        "\"",
        -6.484241363217423
      ],
      [
        "ము",
        -6.48477593924796
      ],
      [
        "్",
        -6.505546022395347
      ],
      [
        "లా",
        -6.52568677895929
      ],
      [
        "_నుంచి",
        -6.533811327291639
      ],
      [
        "ర",
        -6.540555795618319
      ],
      [
        "ర్",
        -6.546880413527992
      ],
      [
        "_-",
        -6.548738097329007
      ],
      [
        "\n\n",
        -6.553096160166932
      ],
      [
        "లను",
        -6.606438531879457
      ],
      [
        "'",
        -6.623085808901511
      ],
      [
        "_ఉన్న",
        -6.627124380060149
      ],
      [
        "_5",
        -6.657054925591401
      ],
      [
        "న్",
        -6.6632653733567295
      ],
      [
        "ాన్ని",
        -6.691287030317666
      ],
      [
        "..",
        -6.694960900974964
      ],
      [
        "నా",
        -6.725825304909437
      ],
      [
        "ంగా",
        -6.728637962038146
      ],
      [
        "_సినిమా",
        -6.729906478505768
      ],
      [
        "_ఆయన",
        -6.738687612078378
      ],
      [
        "క్",
        -6.770010929761094
      ],
      [
        "ిన",
        -6.771271784595266
      ],
      [
        "!",
        -6.785892584692178
      ],
      [
        "_ద్వారా",
        -6.791209436260116
      ],
      [
        "_కోసం",
        -6.792268584317281
      ],
      [
        "ట్",
        -6.819768929774003
      ],
      [
        "మ",
        -6.820088886635656
      ],
      [
        "ాడు.",
        -6.836913353482322
      ],
      [
        "_లో",
        -6.846422589214615
      ],
      [
        "య",
        -6.8467879176826525
      ],
      [
        "రా",
        -6.860506331295596
      ],
      [
        "వి",
        -6.867680282122837
      ],
      [
        "ది",
        -6.873528729485967
      ],
      [
        "_ఓ",
        -6.8822706551911725
      ],
      [
        "ట",
        -6.890861488179171
      ],
      [
        "ాలు",
        -6.892887044119037
      ],
      [
        "_ఇది",
        -6.903225567142387
      ],
      [
        "ల్",
        -6.903473500556771
      ],
      [
        "_గ్రామంలో",
        -6.911082357777088
      ],
      [
        "_ఏ",
        -6.9126548574734645
      ],
      [
        "_చాలా",
        -6.91706528176689
      ],
      [
        "ానికి",
        -6.920698423896065
      ],
      [
        "డ్",
        -6.924319607070588
      ],
      [
        "_ఆమె",
        -6.982568260421802
      ],
      [
        "_నా",
        -6.996594805193304
      ],
      [
        "గ",
        -7.0052566790626205
      ],
      [
        "_'",
        -7.032337207953571
      ],
      [
        "లోని",
        -7.035966966239743
      ],
      [
        "స",
        -7.038499535991299
      ],
      [
        "మైన",
        -7.041508395655848
      ],
      [
        "డం",
        -7.049629119243207
      ],
      [
        "డ",
        -7.0584352616511
      ],
      [
        "డి",
        -7.059599472775316
      ],
      [
        "రి",
        -7.067234870989747
      ],
      [
        "రు",
        -7.069288484924517
      ],
      [
        "ప",
        -7.07214180279529
      ],
      [
        "లకు",
        -7.075728454594641
      ],
      [
        "పు",
        -7.084179023108716
      ],
      [
        "ింది.",
        -7.084716448250688
      ],
      [
        "_జిల్లా",
        -7.088138070093526
      ],
      [
        "_సౌకర్యం",
        -7.100407262188272
      ],
      [
        "లి",
        -7.10280382069884
      ],
      [
        "సి",
        -7.105444212202041
      ],
      [
        "_చేశారు.",
        -7.126154779954387
      ],
      [
        "ూ",
        -7.128021874269171
      ],
      [
        "టి",
        -7.147589776555815
      ],
      [
        "_చేసిన",
        -7.152352624407882
      ],
      [
        "_అయితే",
        -7.156833037343393
      ],
      [
        "_రెండు",
        -7.15978186190663
      ],
      [
        "_మీ",
        -7.168361410058967
      ],
      [
        "_మా",
        -7.181750324545876
      ],
      [
        "_ప్రభుత్వ",
        -7.190009458060242
      ],
      [
        "_తర్వాత",
        -7.204770128151516
      ],
      [
        "...",
        -7.205528149770549
      ],
      [
        "_లేదు.",
        -7.206744906028657
      ],
      [
        "ద",
        -7.220672470708081
      ],
      [
        "_యొక్క",
        -7.221629516840906
      ],
      [
        "లు,",
        -7.225408637455976
      ],
      [
        "కే",
        -7.229173295595961
      ],
      [
        "_పాటు",
        -7.238434631202832
      ],
      [
        "_సమీప",
        -7.2401811889270675
      ],
      [
        "ాయి.",
        -7.24803114758423
      ],
      [
        "మా",
        -7.254165088604598
      ],
      [
        "_కానీ",
        -7.25872136926397
      ],
      [
        "కా",
        -7.259458680537291
      ],
      [
        ".\n\n",
        -7.261253894865108
      ],
      [
        "మ్",
        -7.271186475767532
      ],
      [
        "s",
        -7.278184334504413
      ],
      [
        "ప్",
        -7.301617780506506
      ],
      [
        "_మంది",
        -7.304712764498255
      ],
      [
        "_ప్రభుత్వం",
        -7.3222253458234015
      ],
      [
        "డు",
        -7.334709250429288
      ],
      [
        "_చెందిన",
        -7.343933492225927
      ],
      [
        "_వి",
        -7.358167548398374
      ],
      [
        "_సంఖ్య",
        -7.3628488804508585
      ],
      [
        "_క",
        -7.36351285575919
      ],
      [
        "డానికి",
        -7.369130124099881
      ],
      [
        "_మీరు",
        -7.372821718517105
      ],
      [
        "?",
        -7.375534636573381
      ],
      [
        "ల్లో",
        -7.380665890425131
      ],
      [
        "ః",
        -7.382291358227947
      ],
      [
        "మి",
        -7.384731146955557
      ],
      [
        "న్న",
        -7.385970001450723
      ],
      [
        "_అనే",
        -7.386064562125535
      ],
      [
        "నీ",
        -7.3861236021337415
      ],
      [
        "_తమ",
        -7.39747175201504
      ],
      [
        "_పెద్ద",
        -7.41696850076012
      ],
      [
        "_పార్టీ",
        -7.4180166697654055
      ],
      [
        "జ్",
        -7.42275172016442
      ],
      [
        "_వారి",
        -7.427218076511188
      ],
      [
        "రీ",
        -7.428430214160478
      ],
      [
        "_రాష్ట్ర",
        -7.436453423290354
      ],
      [
        "_అది",
        -7.439647935547832
      ],
      [
        "ాలని",
        -7.442641444627677
      ],
      [
        "తి",
        -7.461631985071952
      ],
      [
        "ో",
        -7.468501300973109
      ],
      [
        "_వరకు",
        -7.468957662512944
      ],
      [
        "_లేదా",
        -7.479855802948025
      ],
      [
        "_పైబడిన",
        -7.485891763809443
      ],
      [
        "_గురించి",
        -7.488311895532407
      ],
      [
        "వా",
        -7.488961265874067
      ],
      [
        "ుడు",
        -7.489819172081976
      ],
      [
        "మే",
        -7.489884949553787
      ],
      [
        "_కేంద్రం,",
        -7.491218935123918
      ],
      [
        "_వ్యవస్థ",
        -7.492042292396571
      ],
      [
        "_మధ్య",
        -7.497339214857844
      ],
      [
        "_కేంద్రం",
        -7.503760899856411
      ],
      [
        "_తెలంగాణ",
        -7.510555064332111
      ],
      [
        "_ఇ",
        -7.511605690589041
      ],
      [
        "ీ",
        -7.513524252530068
      ],
      [
        "ేందుకు",
        -7.513719380749034
      ],
      [
        "_వారు",
        -7.518939681119097
      ],
      [
        "_ఎక్కువ",
        -7.519785812865642
      ],
      [
        "_19",
        -7.521603781332805
      ],
      [
        "_\n\n",
        -7.522511855513262
      ],
      [
        "ాల",
        -7.5239180404488195
      ],
      [
        "_నేను",
        -7.533283427376851
      ],
      [
        "జ",
        -7.542743736314167
      ],
      [
        "_మన",
        -7.5442404841906825
      ],
      [
        "\\n",
        -7.5475026912383285
      ],
      [
        "_చేసి",
        -7.553724149320837
      ],
      [
        "_కొన్ని",
        -7.561403715813665
      ],
      [
        "యా",
        -7.566258561523705
      ],
      [
        "_వైద్య",
        -7.567339572935586
      ],
      [
        "_ప్రతి",
        -7.568889134470677
      ],
      [
        "సు",
        -7.5760802288919
      ],
      [
        "ారు",
        -7.580811692294612
      ],
      [
        "చ",
        -7.583068780833585
      ],
      [
        "_ముందు",
        -7.584555478645431
      ],
      [
        "లే",
        -7.587302391518476
      ],
      [
        "లీ",
        -7.596463704370629
      ],
      [
        "_మీద",
        -7.597424292658722
      ],
      [
        "దు",
        -7.597706235554941
      ],
      [
        "లేదు.",
        -7.609563124071956
      ],
      [
        "_రూ.",
        -7.611733775544677
      ],
      [
        "_ఆరోగ్య",
        -7.624972799725207
      ],
      [
        "_కొత్త",
        -7.626424607217867
      ],
      [
        "_కా",
        -7.6289472195244485
      ],
      [
        "_మరో",
        -7.637128131450805
      ],
      [
        "_ఇప్పుడు",
        -7.643621273374865
      ],
      [
        "_ఇతర",
        -7.643875439910229
      ],
      [
        "_పాఠశాల",
        -7.656108644744851
      ],
      [
        "కో",
        -7.660872079021416
      ],
      [
        "లతో",
        -7.660961457107643
      ],
      [
        "_మంత్రి",
        -7.660980627911016
      ],
      [
        "_అన్ని",
        -7.662466719542403
      ],
      [
        "_మంచి",
        -7.662710850841943
      ],
      [
        "_ఎ",
        -7.674344620731855
      ],
      [
        "టీ",
        -7.67819929729508
      ],
      [
        "లలో",
        -7.679381508217109
      ],
      [
        "_నీ",
        -7.680564481983458
      ],
      [
        "_ఫోన్",
        -7.685566856680131
      ],
      [
        "_రహదారి",
        -7.687442904319543
      ],
      [
        "_చెప్ప",
        -7.689407186948303
      ],
      [
        "_సరఫరా",
        -7.692599273881873
      ],
      [
        "_స",
        -7.693467054560189
      ],
      [
        "_చేయ",
        -7.694369331030973
      ],
      [
        "_రా",
        -7.699680560903282
      ],
      [
        "లోనూ",
        -7.702510709716725
      ],
      [
        "_భూమి",
        -7.707414219358336
      ],
      [
        "జీ",
        -7.708411945734108
      ],
      [
        "_ప్రధాన",
        -7.709069994127143
      ],
      [
        "త్",
        -7.7139689786875785
      ],
      [
        "_సంస్థ",
        -7.71624207121989
      ],
      [
        "_పని",
        -7.726282830142411
      ],
      [
        "_తెలిపారు.",
        -7.727085384082137
      ],
      [
        "_చిన్న",
        -7.730386590594099
      ],
      [
        "య్య",
        -7.7309892366659305
      ],
      [
        "పి",
        -7.73160712743168
      ],
      [
        "_మ",
        -7.734656191111824
      ],
      [
        "_ఇక",
        -7.734821298789884
      ],
      [
        "_గ్రామానికి",
        -7.741248311471356
      ],
      [
        "వు",
        -7.742129184323693
      ],
      [
        "ులు",
        -7.749423072893437
      ],
      [
        "ాడు",
        -7.749807807164752
      ],
      [
        "వే",
        -7.7534804037638825
      ],
      [
        "యి",
        -7.75979911685668
      ],
      [
        "_ప",
        -7.761246973486552
      ],
      [
        "కీ",
        -7.7635258356423495
      ],
      [
        "_తెలుగు",
        -7.769118319425841
      ],
      [
        "_ఉంటుంది.",
        -7.770530458204124
      ],
      [
        "_సమయంలో",
        -7.7717799292067085
      ],
      [
        "మ్మ",
        -7.773800500254643
      ],
      [
        "గు",
        -7.782382059148741
      ],
      [
        "_సామాజిక",
        -7.7837056105968845
      ],
      [
        "ట్లు",
        -7.7899671976709755
      ],
      [
        "_తరువాత",
        -7.7906148316723005
      ],
      [
        "_విషయం",
        -7.791644015772135
      ],
      [
        "_భారత",
        -7.793518377972868
      ],
      [
        "లోను,",
        -7.802350772616075
      ],
      [
        "_కేంద్ర",
        -7.802866024235497
      ],
      [
        "గ్",
        -7.805899581090705
      ],
      [
        "_పేరు",
        -7.806244067085716
      ],
      [
        "_మాత్రం",
        -7.811398628587872
      ],
      [
        "_అతని",
        -7.815972489218673
      ],
      [
        "_ఎలా",
        -7.824984093573811
      ],
      [
        "సీ",
        -7.829488420701196
      ],
      [
        "_2",
        -7.829861339233123
      ],
      [
        "_ఏర్పాటు",
        -7.83129919569167
      ],
      [
        "లోకి",
        -7.836142060495817
      ],
      [
        "ంత",
        -7.839873859680795
      ],
      [
        "_వద్ద",
        -7.8422692921324355
      ],
      [
        "_దీంతో",
        -7.844472275303108
      ],
      [
        "_నీరు",
        -7.8458248260648205
      ],
      [
        "_కంటే",
        -7.846226158374856
      ],
      [
        "ారని",
        -7.846470045402823
      ],
      [
        "_వంటి",
        -7.852856288853308
      ],
      [
        "_ప్రాథమిక",
        -7.856622586290985
      ],
      [
        "_మాత్రమే",
        -7.860451021600056
      ],
      [
        "ంలో",
        -7.864290423745331
      ],
      [
        "_వచ్చిన",
        -7.864291050973199
      ],
      [
        "_హెక్టార్లు\n",
        -7.864964004383545
      ],
      [
        "_ప్రకారం",
        -7.865271032998425
      ],
      [
        "_తిరిగి",
        -7.865633268365157
      ],
      [
        "_ప్రత్యేక",
        -7.869228994286871
      ],
      [
        "తా",
        -7.869447990365618
      ],
      [
        "_మూడు",
        -7.873996541698469
      ],
      [
        "_వల్ల",
        -7.877633708876555
      ],
      [
        "ాను.",
        -7.878067651130387
      ],
      [
        "_వచ్చే",
        -7.879211975289449
      ],
      [
        "వీ",
        -7.879605037645884
      ],
      [
        "_వ",
        -7.880384092688502
      ],
      [
        "నూ",
        -7.886081376962007
      ],
      [
        "_కాంగ్రెస్",
        -7.896786253731296
      ],
      [
        "సా",
        -7.897379078921656
      ],
      [
        "(",
        -7.905407742947499
      ],
      [
        "బ్",
        -7.905978469225477
      ],
      [
        "_బ",
        -7.906955485598795
      ],
      [
        "_జరిగిన",
        -7.910461473486485
      ],
      [
        "_అభివృద్ధి",
        -7.913405027083352
      ],
      [
        "_అంటూ",
        -7.92278309516246
      ],
      [
        "_కలిసి",
        -7.922819864027614
      ],
      [
        "_అంటే",
        -7.9229471541856675
      ],
      [
        "_ప్రస్తుతం",
        -7.9271371947661375
      ],
      [
        "_అదే",
        -7.927457708120318
      ],
      [
        "ష్",
        -7.929199372457578
      ],
      [
        "_3",
        -7.931732714441594
      ],
      [
        "దా",
        -7.935784368546116
      ],
      [
        "యు",
        -7.938785863901074
      ],
      [
        "ుల",
        -7.942689323485368
      ],
      [
        "రే",
        -7.9428252147203064
      ],
      [
        "_రోజు",
        -7.943007105676344
      ],
      [
        "_బి",
        -7.943132273349752
      ],
      [
        "శ",
        -7.944437021973062
      ],
      [
        "_ఏడాది",
        -7.945770626846988
      ],
      [
        "హ",
        -7.9544232576743354
      ],
      [
        "టం",
        -7.955237579519638
      ],
      [
        "రో",
        -7.957331299875019
      ],
      [
        "టు",
        -7.959886229648486
      ],
      [
        "_సీఎం",
        -7.960925260411006
      ],
      [
        "_పోలీసులు",
        -7.961760797103057
      ],
      [
        "_శ్రీ",
        -7.9635784262990565
      ],
      [
        "మీ",
        -7.966087806529659
      ],
      [
        "_మొత్తం",
        -7.971053949807107
      ],
      [
        "_పూర్తి",
        -7.972300115985563
      ],
      [
        "జి",
        -7.973304956812868
      ],
      [
        "_చేసింది.",
        -7.975632645988453
      ],
      [
        "_చేసే",
        -7.97581762546657
      ],
      [
        "ాలను",
        -7.977233447406343
      ],
      [
        "_విడుదల",
        -7.979772641765514
      ],
      [
        "_అన్నారు.",
        -7.981190776980926
      ],
      [
        "_విద్యా",
        -7.9840344578704965
      ],
      [
        "_జాతీయ",
        -7.988605800492774
      ],
      [
        "_దాని",
        -7.99755321941522
      ],
      [
        "_సౌకర్యాలు",
        -7.997580132584947
      ],
      [
        "/",
        -8.000399708000376
      ],
      [
        "్లో",
        -8.002256270209092
      ],
      [
        "_అతను",
        -8.003991018755402
      ],
      [
        "ంది.",
        -8.005114966013085
      ],
      [
        "_అనేక",
        -8.009328254460877
      ],
      [
        "చి",
        -8.011751976333876
      ],
      [
        "ఫ్",
        -8.019521140780336
      ],
      [
        "_ప్ర",
        -8.020120583133318
      ],
      [
        "మని",
        -8.02062204238958
      ],
      [
        "_ఉన్నారు.",
        -8.021477513299171
      ],
      [
        "_గంటల",
        -8.022739102848696
      ],
      [
        "_ప్రైవేటు",
        -8.028227216901739
      ],
      [
        "_ఇలా",
        -8.02884570554063
      ],
      [
        "y",
        -8.030589933725453
      ],
      [
        "_ఎంత",
        -8.033274848309562
      ],
      [
        "_వ్యవసాయ",
        -8.03417903849435
      ],
      [
        "_కళాశాల",
        -8.035246257722411
      ],
      [
        "పో",
        -8.036110272010413
      ],
      [
        "కుండా",
        -8.040079901842237
      ],
      [
        "_అవకాశం",
        -8.043525638406372
      ],
      [
        "_చిత్రం",
        -8.045689140428761
      ],
      [
        "_ఉ",
        -8.051462222752082
      ],
      [
        "_కింది",
        -8.051835639551054
      ],
      [
        "_మొదటి",
        -8.05532370637866
      ],
      [
        "ారు.\n",
        -8.059295755941358
      ],
      [
        "మో",
        -8.06323661033355
      ],
      [
        "_1",
        -8.063701358809666
      ],
      [
        "ది.",
        -8.067280810814234
      ],
      [
        "_అలాగే",
        -8.068650908813625
      ],
      [
        "బా",
        -8.073355053244658
      ],
      [
        "_కలిగి",
        -8.073697563919668
      ],
      [
        "ాలి.",
        -8.073950301506429
      ],
      [
        "ండి",
        -8.077505154263314
      ],
      [
        "_చెప్పారు.",
        -8.077841528661382
      ],
      [
        "టా",
        -8.079595778074644
      ],
      [
        "_శాఖ",
        -8.07961485578992
      ],
      [
        "_ఒకటి",
        -8.08580982662521
      ],
      [
        "_బీజేపీ",
        -8.087793791366181
      ],
      [
        "_లోపు",
        -8.08847503420224
      ],
      [
        "_విద్యుత్",
        -8.091280363344389
      ],
      [
        "e",
        -8.092493121217952
      ],
      [
        "_సం",
        -8.09312575394321
      ],
      [
        "ంటే",
        -8.093981121617508
      ],
      [
        "_విధంగా",
        -8.096588209162334
      ],
      [
        "యం",
        -8.098811673286782
      ],
      [
        "దే",
        -8.101155064376925
      ],
      [
        "_ఉప",
        -8.103976393554122
      ],
      [
        "_\nగ్రామంలో",
        -8.107258883829816
      ],
      [
        "_కొ",
        -8.108707685142177
      ],
      [
        "_వారం",
        -8.112472084674904
      ],
      [
        "_నాకు",
        -8.113097957793585
      ],
      [
        "_7",
        -8.113913026783685
      ],
      [
        "తు",
        -8.116378302171878
      ],
      [
        "క్ష",
        -8.127256490185705
      ],
      [
        "_సా",
        -8.12731814782932
      ],
      [
        "ష",
        -8.127783831330525
      ],
      [
        "_అధికారులు",
        -8.12840159821414
      ],
      [
        "అ",
        -8.128967574999987
      ],
      [
        "పా",
        -8.133560044278775
      ],
      [
        "_4",
        -8.134189424180747
      ],
      [
        "_శాతం",
        -8.13548304186161
      ],
      [
        "_\n\n\n\n",
        -8.135912095428386
      ],
      [
        "నో",
        -8.140611685383648
      ],
      [
        "_నీటి",
        -8.142656396542757
      ],
      [
        "ంది",
        -8.143467542758298
      ],
      [
        "_సు",
        -8.14366811933103
      ],
      [
        "_స్టేషన్",
        -8.14428974837385
      ],
      [
        "ింది",
        -8.147457224994866
      ],
      [
        "_పథకం",
        -8.148407945393522
      ],
      [
        "డీ",
        -8.148643072248897
      ],
      [
        "ట్టు",
        -8.148675264265638
      ],
      [
        "వ్",
        -8.16351467215283
      ],
      [
        "_సందర్భంగా",
        -8.165114128291156
      ],
      [
        "_కథ",
        -8.167351506845435
      ],
      [
        "_చేస్తున్న",
        -8.17313980222377
      ],
      [
        "_గత",
        -8.174317791836893
      ],
      [
        "_లేని",
        -8.18241960894509
      ],
      [
        "_వివిధ",
        -8.183129321934723
      ],
      [
        "_రెడ్డి",
        -8.183151192237125
      ],
      [
        "_జగన్",
        -8.183671825583993
      ],
      [
        "మీద",
        -8.18430519182374
      ],
      [
        "_నమోదు",
        -8.184957596004372
      ],
      [
        "_కోట్ల",
        -8.188470143367717
      ],
      [
        "_అంత",
        -8.188511975712958
      ],
      [
        "లోనే",
        -8.18901979746902
      ],
      [
        ";",
        -8.189848185105243
      ],
      [
        "_కేసీఆర్",
        -8.196123972765823
      ],
      [
        "జా",
        -8.198338436823832
      ],
      [
        "ద్",
        -8.198911118960769
      ],
      [
        "_ఉండ",
        -8.200712477742938
      ],
      [
        "ం.",
        -8.201557456526187
      ],
      [
        "బి",
        -8.20485384710825
      ],
      [
        "_మరింత",
        -8.207475455483536
      ],
      [
        "_జనాభా",
        -8.211728379280594
      ],
      [
        "ఁ",
        -8.212826942680934
      ],
      [
        "_అక్కడ",
        -8.213188679015838
      ],
      [
        "_పెట్ట",
        -8.214747244581282
      ],
      [
        "_వచ్చి",
        -8.216793355023556
      ],
      [
        "_6",
        -8.220937312187383
      ],
      [
        "_the",
        -8.226049073330982
      ],
      [
        "గల",
        -8.227867129688773
      ],
      [
        "_తప్ప",
        -8.228669662676737
      ],
      [
        "_అన్న",
        -8.229759305046926
      ],
      [
        "_చేయడం",
        -8.232609852566815
      ],
      [
        "ప్ప",
        -8.23416468763262
      ],
      [
        "రెడ్డి",
        -8.234880932798925
      ],
      [
        "_18",
        -8.235970636250922
      ],
      [
        "),",
        -8.236382390307613
      ],
      [
        "_కరోనా",
        -8.23679613361608
      ],
      [
        "_పలు",
        -8.237065415579957
      ],
      [
        "_బాగా",
        -8.243077308767102
      ],
      [
        "_కుటుంబ",
        -8.249049071591932
      ],
      [
        "ఆర్",
        -8.249188819487626
      ],
      [
        "_భారీ",
        -8.249635361000545
      ],
      [
        "రం",
        -8.251945039332462
      ],
      [
        "_పా",
        -8.252427459395193
      ],
      [
        "_ఒక్క",
        -8.25285575245716
      ],
      [
        "_దగ్గర",
        -8.254871018643989
      ],
      [
        "_15",
        -8.255018669338893
      ],
      [
        "_ఏం",
        -8.257831894548724
      ],
      [
        "దీ",
        -8.259209320214532
      ],
      [
        "_/",
        -8.259813989016836
      ],
      [
        "_ఇక్కడ",
        -8.260821265932526
      ],
      [
        "వర్",
        -8.263378677684269
      ],
      [
        "o",
        -8.263670419240755
      ],
      [
        "_వారికి",
        -8.264455406489652
      ],
      [
        "i",
        -8.265757055114214
      ],
      [
        "_అలా",
        -8.26589159015197
      ],
      [
        "_పో",
        -8.267899146658607
      ],
      [
        "కూ",
        -8.26945736259876
      ],
      [
        "r",
        -8.269699805029513
      ],
      [
        "_ప్రజలు",
        -8.269712959773846
      ],
      [
        "_భూ",
        -8.273689753238227
      ],
      [
        "_12",
        -8.274309718118111
      ],
      [
        "ళ్ళ",
        -8.274887316964003
      ],
      [
        "_S",
        -8.27548331629737
      ],
      [
        "రావు",
        -8.276135312639564
      ],
      [
        "_ఉన్నాయి.\n\n",
        -8.277129687066232
      ],
      [
        "ణ",
        -8.277786993775537
      ],
      [
        "_ఆఫ్",
        -8.281191338873354
      ],
      [
        "_ఆసుపత్రి",
        -8.283947065369407
      ],
      [
        "_తల",
        -8.287466442904925
      ],
      [
        "_ఇదే",
        -8.288170234095823
      ],
      [
        "పీ",
        -8.28831501109188
      ],
      [
        "బ",
        -8.288772963449787
      ],
      [
        "_ఆఫీసు",
        -8.290176574603851
      ],
      [
        "_వ్యక్తి",
        -8.291892157605142
      ],
      [
        "_మే",
        -8.29448372426089
      ],
      [
        "_చేస్తున్నారు.",
        -8.294543415797431
      ],
      [
        "_ఐ",
        -8.295151188610463
      ],
      [
        "19",
        -8.295522251197749
      ],
      [
        "తే",
        -8.2958922322561
      ],
      [
        "_చ",
        -8.296051774842772
      ],
      [
        "_ఆర్థిక",
        -8.297451755823094
      ],
      [
        "_ఇంకా",
        -8.303486068875657
      ],
      [
        "_అయిన",
        -8.303906214504558
      ],
      [
        "_కాని",
        -8.304465187330992
      ],
      [
        "_మె",
        -8.314590132386083
      ],
      [
        "ించ",
        -8.314642534368655
      ],
      [
        "!\n",
        -8.315514929952917
      ],
      [
        "_ఉత్పత్తి",
        -8.316832908160583
      ],
      [
        "_కాదు.",
        -8.317237966353417
      ],
      [
        "_బా",
        -8.317913703071355
      ],
      [
        "_పబ్లిక్",
        -8.320874253229066
      ],
      [
        "_వాణిజ్య",
        -8.32346114699522
      ],
      [
        "ఈ",
        -8.323621354125635
      ],
      [
        "డా",
        -8.325640806837503
      ],
      [
        "_20",
        -8.32708047982302
      ],
      [
        "_రైల్వే",
        -8.328204533261204
      ],
      [
        "_తాను",
        -8.328462637644801
      ],
      [
        "t",
        -8.330168486005618
      ],
      [
        "_8",
        -8.34031874882548
      ],
      [
        "_అమ్మ",
        -8.343809414549192
      ],
      [
        "_చంద్రబాబు",
        -8.343841132990379
      ],
      [
        "n",
        -8.345857838109714
      ],
      [
        "_వెంటనే",
        -8.348317879685391
      ],
      [
        "టర్",
        -8.349057892002943
      ],
      [
        "_ఇప్పటికే",
        -8.349412553659961
      ],
      [
        "క్క",
        -8.354082942564283
      ],
      [
        "_వా",
        -8.354983794209248
      ],
      [
        ")\n",
        -8.357058473471195
      ],
      [
        "_లేకుండా",
        -8.35819003315921
      ],
      [
        "_రవాణా",
        -8.358662003161252
      ],
      [
        "2",
        -8.359453664652989
      ],
      [
        "_11",
        -8.365982883415064
      ],
      [
        "యో",
        -8.36859528560717
      ],
      [
        "_భార్య",
        -8.373266993537062
      ],
      [
        "_రాజకీయ",
        -8.373352188601721
      ],
      [
        "బీ",
        -8.375970657453568
      ],
      [
        "_వున్న",
        -8.377770589404943
      ],
      [
        "_ముఖ్యమంత్రి",
        -8.37802808893928
      ],
      [
        "5",
        -8.378070539643529
      ],
      [
        "గానే",
        -8.378768267766741
      ],
      [
        "తీ",
        -8.37909086331952
      ],
      [
        "వో",
        -8.379128371711209
      ],
      [
        "_ఆర్",
        -8.382884787912511
      ],
      [
        "_వేల",
        -8.384806681088978
      ],
      [
        "_చేయాలని",
        -8.38608128211404
      ],
      [
        "_ఇందులో",
        -8.393319052186671
      ],
      [
        "స్ట్",
        -8.394147973062488
      ],
      [
        "_పోటీ",
        -8.394420922526493
      ],
      [
        "_అండ్",
        -8.395410275211708
      ],
      [
        "డంతో",
        -8.396152548761961
      ],
      [
        "_పడ",
        -8.396472437599902
      ],
      [
        "_కేవలం",
        -8.396542851187245
      ],
      [
        "జనగణన",
        -8.399348991766473
      ],
      [
        "_హ",
        -8.399419530578133
      ],
      [
        "_పరిస్థితి",
        -8.400254277296238
      ],
      [
        "_నేపథ్యంలో",
        -8.40298474343212
      ],
      [
        "_పాత్ర",
        -8.405861589010255
      ],
      [
        "_జ",
        -8.407253761750534
      ],
      [
        "_చేర",
        -8.408498016067487
      ],
      [
        "_ఉండే",
        -8.409320373866304
      ],
      [
        "_విషయంలో",
        -8.410995062515468
      ],
      [
        "_కాగా",
        -8.411288949482906
      ],
      [
        "_లక్షల",
        -8.416530787009998
      ],
      [
        "_వ్యక్తం",
        -8.416591249119394
      ],
      [
        "_ప్రేమ",
        -8.416984168182152
      ],
      [
        "చే",
        -8.417304658604126
      ],
      [
        "గో",
        -8.419792584277687
      ],
      [
        "_*",
        -8.42002564799966
      ],
      [
        "_దేశ",
        -8.420675963870606
      ],
      [
        "సం",
        -8.42211500627141
      ],
      [
        "ఏ",
        -8.425059820210139
      ],
      [
        "_పి",
        -8.42562835958808
      ],
      [
        "ున్న",
        -8.427698128663998
      ],
      [
        "_మరి",
        -8.427947164762944
      ],
      [
        "_సంబంధించిన",
        -8.428464079289103
      ],
      [
        "_ఇంటి",
        -8.42877004503328
      ],
      [
        "_అన్నాడు",
        -8.429029822728053
      ],
      [
        "_మాట",
        -8.429485644089707
      ],
      [
        "ుకుని",
        -8.430927272711303
      ],
      [
        "_వచ్చింది.",
        -8.431061158244805
      ],
      [
        "_మార్కెట్",
        -8.435743436536782
      ],
      [
        "_నెల",
        -8.435781509220064
      ],
      [
        "ఐ",
        -8.435933806940435
      ],
      [
        "_స్టార్",
        -8.436731237020792
      ],
      [
        "షెడ్యూల్డ్",
        -8.437120846906224
      ],
      [
        "_వె",
        -8.437647926631255
      ],
      [
        "_కేసు",
        -8.439002878623658
      ],
      [
        "_ఎంతో",
        -8.440130767826478
      ],
      [
        "_బ్యాంకు",
        -8.440383615404274
      ],
      [
        "_!\n",
        -8.440493658449588
      ],
      [
        "_వైద్యశాల",
        -8.44205646561777
      ],
      [
        "_వాడ",
        -8.444456940961665
      ],
      [
        "_దాదాపు",
        -8.444606569749592
      ],
      [
        "_ఎన్నికల",
        -8.444910828057862
      ],
      [
        "al",
        -8.444957800723612
      ],
      [
        "ి,",
        -8.445486763871406
      ],
      [
        "కర్",
        -8.445940842743896
      ],
      [
        "ామని",
        -8.450721567876931
      ],
      [
        "ధ",
        -8.450842318631507
      ],
      [
        "_డిగ్రీ",
        -8.451080055738748
      ],
      [
        "ంచ",
        -8.452954205310272
      ],
      [
        "_కో",
        -8.453768653412808
      ],
      [
        "_హైదరాబాద్",
        -8.45398173913548
      ],
      [
        "_సి",
        -8.456331322115776
      ],
      [
        "_నాలుగు",
        -8.458187706416862
      ],
      [
        "పల్లి",
        -8.459759280894117
      ],
      [
        "ళ్ల",
        -8.460469062252702
      ],
      [
        "_A",
        -8.461379613657401
      ],
      [
        "_ప్రజల",
        -8.465484300158746
      ],
      [
        "_అంద",
        -8.466876056447111
      ],
      [
        "_సిబ్బంది",
        -8.46718565925098
      ],
      [
        "భ",
        -8.467836781357951
      ],
      [
        "_తొలి",
        -8.469429211419628
      ],
      [
        "_గ",
        -8.470874147080336
      ],
      [
        "ుంది.",
        -8.471179126768181
      ],
      [
        "యూ",
        -8.471234554150989
      ],
      [
        "_కే",
        -8.47134317589292
      ],
      [
        "_అవసరం",
        -8.471388430247016
      ],
      [
        "ప్ర",
        -8.473850603472473
      ],
      [
        "_ఇద్దరు",
        -8.47632426787172
      ],
      [
        "_వినియోగం",
        -8.478016674987337
      ],
      [
        "_బస్సు",
        -8.47885249525035
      ],
      [
        "_చూసి",
        -8.480007611531578
      ],
      [
        "ప్పుడు",
        -8.480384241574534
      ],
      [
        "_తాజాగా",
        -8.48090092365368
      ],
      [
        "ాం.",
        -8.48216644981858
      ],
      [
        "_కళాశాల,",
        -8.482495676483406
      ],
      [
        "ట్ట",
        -8.48266029314285
      ],
      [
        "_ధర",
        -8.483308715129319
      ],
      [
        "ె",
        -8.492342500200413
      ],
      [
        "_సంఘం",
        -8.493956092156582
      ],
      [
        "ం,",
        -8.494223702801333
      ],
      [
        "_తక్కువ",
        -8.495920187495667
      ],
      [
        "హా",
        -8.496867266257054
      ],
      [
        "_అంది",
        -8.497494211506755
      ],
      [
        "_తండ్రి",
        -8.497684080091366
      ],
      [
        "_మాట్లాడ",
        -8.502346379332712
      ],
      [
        "ాయి",
        -8.504006443273463
      ],
      [
        "_మహా",
        -8.505424635093863
      ],
      [
        "_భారత్",
        -8.507992759693382
      ],
      [
        "_మాజీ",
        -8.508597491284501
      ],
      [
        "_ద",
        -8.508623463198193
      ],
      [
        "_ఉంటే",
        -8.50884363132794
      ],
      [
        "ై",
        -8.51054202798888
      ],
      [
        "ఎస్",
        -8.5161172407327
      ],
      [
        "_కారణంగా",
        -8.516834892272367
      ],
      [
        "ed",
        -8.518822316536978
      ],
      [
        "_దీని",
        -8.522508857048251
      ],
      [
        "ఎం",
        -8.524108592782929
      ],
      [
        "మై",
        -8.52438499311072
      ],
      [
        "_ఎక్కువగా",
        -8.524473148649017
      ],
      [
        "?\"",
        -8.524580151757059
      ],
      [
        "_కంపెనీ",
        -8.525080910901353
      ],
      [
        "_ఆడ",
        -8.525088880420533
      ],
      [
        "!\"",
        -8.527841062831131
      ],
      [
        "_మండల",
        -8.52862202547172
      ],
      [
        "మూ",
        -8.529238617875924
      ],
      [
        "_త",
        -8.53177284261219
      ],
      [
        "_ఎమ్మెల్యే",
        -8.532916873131665
      ],
      [
        "_అందుకే",
        -8.538930504026013
      ],
      [
        "ంద",
        -8.538932377989418
      ],
      [
        "a",
        -8.539029998678659
      ],
      [
        "_తల్లి",
        -8.539084885650025
      ],
      [
        "3",
        -8.539326687009357
      ],
      [
        "ండ",
        -8.53982432217654
      ],
      [
        "_వీడియో",
        -8.543282441551352
      ],
      [
        "_కి.",
        -8.546032515067514
      ],
      [
        "గి",
        -8.546945793045126
      ],
      [
        "_14",
        -8.548799051745418
      ],
      [
        "టో",
        -8.549817738081103
      ],
      [
        "వ్వ",
        -8.55007705523189
      ],
      [
        "C",
        -8.551445934761214
      ],
      [
        "_ఇవ్వ",
        -8.553196589211359
      ],
      [
        "_రోజుల",
        -8.553600732216173
      ],
      [
        "_అయినా",
        -8.55413495762291
      ],
      [
        "1",
        -8.55694870490042
      ],
      [
        "_శిక్షణ",
        -8.557058696954785
      ],
      [
        "_పవన్",
        -8.557470135981811
      ],
      [
        "T",
        -8.558820777981856
      ],
      [
        "_పోస్ట్",
        -8.558909424293034
      ],
      [
        "వారు",
        -8.559756103840039
      ],
      [
        "లూ",
        -8.561774386264386
      ],
      [
        "కె",
        -8.56233134014535
      ],
      [
        "ండి.",
        -8.562437230121917
      ],
      [
        "_పోస్టాఫీసు",
        -8.56266974514858
      ],
      [
        "_|",
        -8.564064319714703
      ],
      [
        "ములు",
        -8.564330371355059
      ],
      [
        "లపై",
        -8.564633108588849
      ],
      [
        "_సమస్య",
        -8.56684847561475
      ],
      [
        "_భాగంగా",
        -8.566862187809452
      ],
      [
        "రె",
        -8.569530581228733
      ],
      [
        "బు",
        -8.571072397030049
      ],
      [
        "_9",
        -8.57205448379548
      ],
      [
        "?\n",
        -8.57252781054072
      ],
      [
        "_జరిగింది.",
        -8.57689925471102
      ],
      [
        "_అసెంబ్లీ",
        -8.57763198157032
      ],
      [
        "ుకో",
        -8.577914973942546
      ],
      [
        "_ఎలాంటి",
        -8.578870210164652
      ],
      [
        "_ఎందుకు",
        -8.583287395392963
      ],
      [
        "_మార్చ",
        -8.584052767152336
      ],
      [
        "_వాటిని",
        -8.584774638506431
      ],
      [
        "_30",
        -8.587269784604807
      ],
      [
        "_దూరం",
        -8.587986429703966
      ],
      [
        "_చర్యలు",
        -8.588434660788696
      ],
      [
        "_గో",
        -8.58894334978518
      ],
      [
        "_మీ.",
        -8.589598016535403
      ],
      [
        "_ఉందని",
        -8.589852885700234
      ],
      [
        "ంట",
        -8.589938660996019
      ],
      [
        "ing",
        -8.591417501879977
      ],
      [
        "_వెళ్ళ",
        -8.591888846438021
      ],
      [
        "_టీడీపీ",
        -8.59204974822174
      ],
      [
        "_హీరో",
        -8.592257935165712
      ],
      [
        "_పట్ట",
        -8.594466879987808
      ],
      [
        "_మీకు",
        -8.596415412425827
      ],
      [
        "డే",
        -8.59762115981287
      ],
      [
        "_ప్రపంచ",
        -8.59813289039282
      ],
      [
        "_తెలిసిందే.",
        -8.599969145260905
      ],
      [
        "వ్యవసాయానికి",
        -8.601233998836582
      ],
      [
        "ళ్ళు",
        -8.602017023505285
      ],
      [
        "రాజు",
        -8.602021817074837
      ],
      [
        "_రాత్రి",
        -8.602154852411624
      ],
      [
        "u",
        -8.60292144668871
      ],
      [
        "_రామ",
        -8.604276055175003
      ],
      [
        "_T",
        -8.605680875754272
      ],
      [
        "_సె",
        -8.612024928874265
      ],
      [
        "రూ",
        -8.612884117728152
      ],
      [
        "_అత్యంత",
        -8.615062243520498
      ],
      [
        "_చేస్తూ",
        -8.616149999487485
      ],
      [
        "_మీడియా",
        -8.618047350195122
      ],
      [
        "_మండలం",
        -8.622029050008694
      ],
      [
        "_కాకుండా",
        -8.622510636564208
      ],
      [
        "_అమలు",
        -8.624436811925378
      ],
      [
        "_గ్రామ",
        -8.62621437648129
      ],
      [
        "_సోషల్",
        -8.626679546742148
      ],
      [
        "_చేయడానికి",
        -8.627471893326105
      ],
      [
        "_జిల్లాలో",
        -8.627583794787286
      ],
      [
        "_పట్టణ",
        -8.628814500099212
      ],
      [
        "_అనంతరం",
        -8.630009213543419
      ],
      [
        "_అందులో",
        -8.632813275022624
      ],
      [
        "_భర్త",
        -8.634222793715123
      ],
      [
        "ాడు.\n",
        -8.640082977851783
      ],
      [
        "న్నారు.",
        -8.641482364611717
      ],
      [
        "_లైన్",
        -8.64298943741029
      ],
      [
        "మె",
        -8.64549395026321
      ],
      [
        "4",
        -8.645683151971841
      ],
      [
        "ుకునే",
        -8.64688234354329
      ],
      [
        "వి.",
        -8.647509551301235
      ],
      [
        "ష్ట",
        -8.647598204043396
      ],
      [
        "A",
        -8.648289633622424
      ],
      [
        "_ఆటో",
        -8.648556578809387
      ],
      [
        "_రాష్ట్రంలో",
        -8.64977308652454
      ],
      [
        "_కాదు",
        -8.650123312199032
      ],
      [
        "_పంపిణీ",
        -8.650375121020128
      ],
      [
        "_తా",
        -8.650741542282953
      ],
      [
        "టానికి",
        -8.650916808397863
      ],
      [
        "_గొప్ప",
        -8.651189505927833
      ],
      [
        "_సంక్షేమ",
        -8.651769094515055
      ],
      [
        "S",
        -8.652683473616117
      ],
      [
        "ినట్లు",
        -8.652918275401529
      ],
      [
        "_కారు",
        -8.65364998330848
      ],
      [
        "_రాజ",
        -8.655892923063355
      ],
      [
        "_13",
        -8.656476473356616
      ],
      [
        "య్",
        -8.656711275871558
      ],
      [
        "_ఇండియా",
        -8.656757599831128
      ],
      [
        "_కింద",
        -8.657722654129323
      ],
      [
        "_ముందుకు",
        -8.657814606101779
      ],
      [
        "_ఘటన",
        -8.658657271443012
      ],
      [
        "_ఇలాంటి",
        -8.661245212217418
      ],
      [
        "6",
        -8.661564314523082
      ],
      [
        "_పెళ్లి",
        -8.664431360042752
      ],
      [
        "_గు",
        -8.666471233594821
      ],
      [
        "_పె",
        -8.666886395654434
      ],
      [
        "_ఇచ్చిన",
        -8.66886621664468
      ],
      [
        "_16",
        -8.66964692746435
      ],
      [
        "_అసలు",
        -8.670618260496207
      ],
      [
        "\"\n",
        -8.672469115742429
      ],
      [
        "కొ",
        -8.673301425246706
      ],
      [
        "_దేశంలో",
        -8.674685520259144
      ],
      [
        "_కాబట్టి",
        -8.675030701671629
      ],
      [
        "థ",
        -8.675616020239946
      ],
      [
        "_శివ",
        -8.676209223246216
      ],
      [
        "_కీలక",
        -8.676277227831518
      ],
      [
        "యే",
        -8.676651984553573
      ],
      [
        "ఇ",
        -8.676994697921176
      ],
      [
        "_వనరుల",
        -8.677415050319404
      ],
      [
        "_ఏదో",
        -8.679594474572816
      ],
      [
        "_అప్పుడు",
        -8.68276455887654
      ],
      [
        "_of",
        -8.682804795819628
      ],
      [
        "_మో",
        -8.68281823990136
      ],
      [
        "m",
        -8.682848406086249
      ],
      [
        "_వెళ్లి",
        -8.683102277348613
      ],
      [
        "_మనం",
        -8.683663487222148
      ],
      [
        "_ఉంది",
        -8.683872398899878
      ],
      [
        "in",
        -8.684658201204776
      ],
      [
        "_తీవ్ర",
        -8.684823530115072
      ],
      [
        "_17",
        -8.68668578009398
      ],
      [
        "_బృందం",
        -8.687094471672161
      ],
      [
        "_మేరకు",
        -8.687915169189761
      ],
      [
        "లేని",
        -8.68831538815682
      ],
      [
        "_ఉంటాయి.",
        -8.688642005333328
      ],
      [
        "er",
        -8.689146274821695
      ],
      [
        "_చిత్ర",
        -8.690117006702303
      ],
      [
        "_చేతి",
        -8.690391959394915
      ],
      [
        "ుకున్న",
        -8.691308790308925
      ],
      [
        "_డబ్బు",
        -8.691709550948683
      ],
      [
        "_కొంత",
        -8.69203041452549
      ],
      [
        "_లేదని",
        -8.693388123926761
      ],
      [
        "_నిర్ణయం",
        -8.693638390514531
      ],
      [
        "_తనకు",
        -8.69437445121528
      ],
      [
        "_వై",
        -8.694434337331968
      ],
      [
        "ాలి",
        -8.694527504505688
      ],
      [
        "_50",
        -8.697122268360804
      ],
      [
        "_డిమాండ్",
        -8.69973081747048
      ],
      [
        "_#",
        -8.701146913307236
      ],
      [
        "వచ్చు.",
        -8.702447934730621
      ],
      [
        "_అమెరికా",
        -8.702874956545712
      ],
      [
        "షా",
        -8.705976816070894
      ],
      [
        "_ఇటీవల",
        -8.706220514838783
      ],
      [
        "ుకొని",
        -8.707078121636203
      ],
      [
        "_డాక్టర్",
        -8.707481062099932
      ],
      [
        "_ఇళ్ల",
        -8.708785910088878
      ],
      [
        "_వైపు",
        -8.711138837486397
      ],
      [
        "_అతి",
        -8.713572819877644
      ],
      [
        "_ఏపీ",
        -8.7171999590351
      ],
      [
        "_చూడ",
        -8.717347129842762
      ],
      [
        "_గృహ",
        -8.719452219353823
      ],
      [
        "ాయ",
        -8.719485268297671
      ],
      [
        "_పంప",
        -8.720507676628163
      ],
      [
        "_మి",
        -8.721940720946076
      ],
      [
        "పూర్",
        -8.724328590641816
      ],
      [
        "_వెళ్ల",
        -8.725532467122077
      ],
      [
        "ంచి",
        -8.725811694776352
      ],
      [
        "7",
        -8.728558478846827
      ],
      [
        "_వాళ్ళ",
        -8.730832482298315
      ],
      [
        "ంతో",
        -8.732346105536566
      ],
      [
        "_గతంలో",
        -8.732639069441035
      ],
      [
        "పె",
        -8.73302185460748
      ],
      [
        "_to",
        -8.733690969642712
      ],
      [
        "_పూర్తిగా",
        -8.735610367272283
      ],
      [
        "_ప్రముఖ",
        -8.736189377008845
      ],
      [
        "_మేము",
        -8.736763389558181
      ],
      [
        "ించి",
        -8.736893874085862
      ],
      [
        "_in",
        -8.739690852348497
      ],
      [
        "_ఇంట్లో",
        -8.7405040644063
      ],
      [
        "_సినిమాలో",
        -8.741177191710742
      ],
      [
        "ుకోవడం",
        -8.742867906361397
      ],
      [
        "చ్చ",
        -8.74433161493604
      ],
      [
        "_కృష్ణ",
        -8.744910586702218
      ],
      [
        "_సంగతి",
        -8.747014906224962
      ],
      [
        "_రాజు",
        -8.749235360611378
      ],
      [
        "_పెంచ",
        -8.749999387892903
      ],
      [
        "_రెండో",
        -8.751236044359933
      ],
      [
        "_ఇన్",
        -8.751379150224608
      ],
      [
        "_B",
        -8.752053292858474
      ],
      [
        "_పాఠశాలలు",
        -8.75227221063077
      ],
      [
        "\"\n\"",
        -8.752424183098833
      ],
      [
        "ింది.\n",
        -8.754041965615396
      ],
      [
        "_చె",
        -8.754340464571033
      ],
      [
        "_సంవత్సరాల",
        -8.754790342534454
      ],
      [
        "_పైగా",
        -8.755591477162948
      ],
      [
        "ళ్లు",
        -8.755717276541917
      ],
      [
        "_ఎన్నికల్లో",
        -8.756651377915636
      ],
      [
        "_చేశాడు.",
        -8.757462901717222
      ],
      [
        "_డి",
        -8.757827808977273
      ],
      [
        "లేదు",
        -8.757967761220357
      ],
      [
        "_కొనుగోలు",
        -8.758677842821617
      ],
      [
        "_మొబైల్",
        -8.759207310572561
      ],
      [
        "_ఉంచ",
        -8.760547516490394
      ],
      [
        "ట్ల",
        -8.762016333678133
      ],
      [
        "_వృత్తి",
        -8.762368850853461
      ],
      [
        "_చికిత్స",
        -8.762478737765873
      ],
      [
        "_చా",
        -8.764462781082413
      ],
      [
        "_జరుగుతుంది.",
        -8.765516598821106
      ],
      [
        "_సబ్",
        -8.766648256152047
      ],
      [
        "_కార్యాలయం",
        -8.768982761292264
      ],
      [
        "ాలు,",
        -8.76978961379118
      ],
      [
        "_ఒ",
        -8.770847309039134
      ],
      [
        "_ప్రధాని",
        -8.771556146971935
      ],
      [
        "ాల్లో",
        -8.772736223559543
      ],
      [
        "_నన్ను",
        -8.773120513239258
      ],
      [
        "_అన",
        -8.773867796906144
      ],
      [
        "_అధిక",
        -8.775608730856113
      ],
      [
        "_వ్యవసాయం",
        -8.777026321700621
      ],
      [
        "వై",
        -8.777278507375032
      ],
      [
        "_ఎం",
        -8.778195596683187
      ],
      [
        "ాడని",
        -8.778199828283546
      ],
      [
        "_మాట్లాడుతూ",
        -8.778346435852992
      ],
      [
        "_విచారణ",
        -8.778705916580739
      ],
      [
        "_గుర్తు",
        -8.779024723014835
      ],
      [
        "8",
        -8.780076325300366
      ],
      [
        "_విజయం",
        -8.78448960626503
      ],
      [
        "_\"అ",
        -8.786187686658813
      ],
      [
        "_ఔషధ",
        -8.787444342873073
      ],
      [
        "స్త",
        -8.787687097452096
      ],
      [
        "షన్",
        -8.78854925467684
      ],
      [
        "_పాట",
        -8.789872920674918
      ],
      [
        "ుతూ",
        -8.791168357176701
      ],
      [
        "_పేర్కొన్నారు.",
        -8.79208001757292
      ],
      [
        "_పొంద",
        -8.792347968931585
      ],
      [
        "_సమయం",
        -8.79318340862663
      ],
      [
        "ాలకు",
        -8.793788686409014
      ],
      [
        "_బీ",
        -8.794751716209321
      ],
      [
        "టే",
        -8.795512708969774
      ],
      [
        "_సో",
        -8.796523546256484
      ],
      [
        "_సామాన్య",
        -8.796791320386346
      ],
      [
        "ంగ్",
        -8.79720430978524
      ],
      [
        "_కల",
        -8.798775481604519
      ],
      [
        "9",
        -8.799104986368205
      ],
      [
        "ఆ",
        -8.799602048345552
      ],
      [
        "_మూవీ",
        -8.799852171584064
      ],
      [
        "_ఆందోళన",
        -8.801100343380488
      ],
      [
        "_కోట్లు",
        -8.802535044186145
      ],
      [
        "ుని",
        -8.804883036015049
      ],
      [
        "పడ",
        -8.805255547584286
      ],
      [
        "_బాబు",
        -8.806256434395655
      ],
      [
        "_నాయకులు",
        -8.80739219997528
      ],
      [
        "20",
        -8.807966212456353
      ],
      [
        "I",
        -8.809646666447504
      ],
      [
        "_అవి",
        -8.809697840920604
      ],
      [
        "_జా",
        -8.810203311162292
      ],
      [
        "బడి",
        -8.812287825409053
      ],
      [
        "ఎ",
        -8.813467842876852
      ],
      [
        "ధి",
        -8.813489935316795
      ],
      [
        "_అధ్యక్షుడు",
        -8.81358215633043
      ],
      [
        "_వాటి",
        -8.81390938675247
      ],
      [
        "లె",
        -8.814349744399445
      ],
      [
        "చ్",
        -8.815534574041493
      ],
      [
        "d",
        -8.816402569328773
      ],
      [
        "_ఉదయం",
        -8.8164617946823
      ],
      [
        "ు,",
        -8.817597736536944
      ],
      [
        "_అందుబాటులో",
        -8.818443486988656
      ],
      [
        "_ప్రాంతాల",
        -8.818465733240862
      ],
      [
        "న్నా",
        -8.820148865039046
      ],
      [
        "ద్ద",
        -8.821847776713135
      ],
      [
        "_అవసరాల",
        -8.823270441268788
      ],
      [
        "ుడి",
        -8.824140888908017
      ],
      [
        "_కొందరు",
        -8.825347689477196
      ],
      [
        "దో",
        -8.826850444032832
      ],
      [
        "\nఅ",
        -8.828758021290927
      ],
      [
        "_కమిటీ",
        -8.82889301323916
      ],
      [
        "ra",
        -8.830805092298005
      ],
      [
        "నె",
        -8.831521745791884
      ],
      [
        "_సమాచారం",
        -8.831938907377635
      ],
      [
        "_సీ",
        -8.832475646929787
      ],
      [
        "_25",
        -8.832565393530516
      ],
      [
        "హి",
        -8.83259743528552
      ],
      [
        "_ఎన్నో",
        -8.832897165240361
      ],
      [
        "0",
        -8.83346379204221
      ],
      [
        "_ఎంపిక",
        -8.833787586735914
      ],
      [
        "l",
        -8.833928888903781
      ],
      [
        "_ఇంత",
        -8.833965606173926
      ],
      [
        "_వారిని",
        -8.834153105211357
      ],
      [
        "_మళ్లీ",
        -8.835120924135229
      ],
      [
        "_చేసుకున్న",
        -8.836168900068738
      ],
      [
        "_చివరి",
        -8.836353178953607
      ],
      [
        "_అర్థం",
        -8.837276590922741
      ],
      [
        "త్ర",
        -8.83750096503565
      ],
      [
        "_నేత",
        -8.83755716381881
      ],
      [
        "సే",
        -8.837758231071227
      ],
      [
        "లై",
        -8.838640645189695
      ],
      [
        "క్స్",
        -8.841295869576502
      ],
      [
        "ల్లా",
        -8.842007541630304
      ],
      [
        "ri",
        -8.842727521038025
      ],
      [
        "_జూనియర్",
        -8.843320396942485
      ],
      [
        "_దీనికి",
        -8.846730602030634
      ],
      [
        "జు",
        -8.8473451089648
      ],
      [
        "ళ",
        -8.849082116737717
      ],
      [
        "_తగ్గ",
        -8.84968455742028
      ],
      [
        "_తయారు",
        -8.850175777454911
      ],
      [
        "తోపాటు",
        -8.85079109714805
      ],
      [
        "ాయని",
        -8.850855595643685
      ],
      [
        "_బాధ",
        -8.851126618405212
      ],
      [
        "an",
        -8.851285760440222
      ],
      [
        "నుంచి",
        -8.851408840099955
      ],
      [
        "స్తూ",
        -8.851823634027479
      ],
      [
        "_ప్రాంతంలో",
        -8.851915127444459
      ],
      [
        "ంగ",
        -8.852036820616117
      ],
      [
        "_రి",
        -8.852232190576174
      ],
      [
        "ాడు.\n\n",
        -8.852928803362897
      ],
      [
        "సమీప",
        -8.853558587119743
      ],
      [
        "\nఈ",
        -8.853805278211057
      ],
      [
        "_కోడ్",
        -8.855143720873267
      ],
      [
        "_నువ్వు",
        -8.855706731031377
      ],
      [
        "_కాలంలో",
        -8.856699765505343
      ],
      [
        "_కారణం",
        -8.858205505096889
      ],
      [
        "_ఉంది.\n",
        -8.861179798251095
      ],
      [
        "వారి",
        -8.861390106163388
      ],
      [
        "మురుగునీటి",
        -8.862430948965754
      ],
      [
        "_హీరోయిన్",
        -8.863165573328132
      ],
      [
        "_ముఖ్యంగా",
        -8.864974358353065
      ],
      [
        "_ఇంటర్నెట్",
        -8.865740486932774
      ],
      [
        "_అయి",
        -8.866468475399325
      ],
      [
        "p",
        -8.86680273994289
      ],
      [
        "_చైనా",
        -8.868777681330297
      ],
      [
        "_అనేది",
        -8.868973043945411
      ],
      [
        "ందుకు",
        -8.869641133484572
      ],
      [
        "_రోడ్డు",
        -8.870681799027649
      ],
      [
        "_చంద్ర",
        -8.87079271730597
      ],
      [
        "ించిన",
        -8.871969591476867
      ],
      [
        "_C",
        -8.873412035944295
      ],
      [
        "_కోర్టు",
        -8.874987899517597
      ],
      [
        "_తను",
        -8.876516499355464
      ],
      [
        "_పోలింగ్",
        -8.876704816356554
      ],
      [
        "_మొదలైన",
        -8.877781528369605
      ],
      [
        "_సభ్యులు",
        -8.877935598169087
      ],
      [
        "పేట",
        -8.879150515104884
      ],
      [
        "_అంతా",
        -8.880268139631326
      ],
      [
        "ంటి",
        -8.880682878125194
      ],
      [
        "_పొడుగు",
        -8.880855639652832
      ],
      [
        "_పనులు",
        -8.88251824287473
      ],
      [
        "h",
        -8.884150753312419
      ],
      [
        "_శక్తి",
        -8.886542192288998
      ],
      [
        "_పది",
        -8.888141202609587
      ],
      [
        "_హత్య",
        -8.888848083660228
      ],
      [
        "_ఉత్తర",
        -8.890488024516591
      ],
      [
        "_నటించిన",
        -8.890829162712333
      ],
      [
        "_చేస్తే",
        -8.891149454850776
      ],
      [
        "_వైసీపీ",
        -8.891241928759506
      ],
      [
        "దు.",
        -8.892018378842156
      ],
      [
        "ంతా",
        -8.89214803747446
      ],
      [
        "ైన",
        -8.892950900819367
      ],
      [
        "ోంది.",
        -8.893113598909748
      ],
      [
        "_పౌర",
        -8.893738052992456
      ],
      [
        "_చేశారు.\n",
        -8.895982276997445
      ],
      [
        "R",
        -8.897252999878885
      ],
      [
        "_బాధ్యత",
        -8.897458411558729
      ],
      [
        "_పాత",
        -8.898938554226412
      ],
      [
        "_ఆంధ్రప్రదేశ్",
        -8.89917603282126
      ],
      [
        "_పేరుతో",
        -8.899712415061312
      ],
      [
        "_సైన్స్",
        -8.899846532788903
      ],
      [
        "_కాలం",
        -8.900145203902719
      ],
      [
        "_సేవా",
        -8.900221942877474
      ],
      [
        "_కిలోమీటర్ల",
        -8.90232300249229
      ],
      [
        "_కనిపించ",
        -8.906588169023362
      ],
      [
        "ితే",
        -8.907438954657076
      ],
      [
        "na",
        -8.908484753267306
      ],
      [
        "_చి",
        -8.908781744563756
      ],
      [
        "_లేక",
        -8.90964709534798
      ],
      [
        "_నేరుగా",
        -8.910671094851532
      ],
      [
        "_నేతలు",
        -8.911118856768455
      ],
      [
        "లేదని",
        -8.911527310334233
      ],
      [
        "k",
        -8.91165468311635
      ],
      [
        "_ముఖ్య",
        -8.911685597762903
      ],
      [
        "_సినిమాలు",
        -8.911944054471963
      ],
      [
        "_గ్రామాల",
        -8.912684369221665
      ],
      [
        "_సంరక్షణ",
        -8.91289240170819
      ],
      [
        "ానని",
        -8.913064258914302
      ],
      [
        "_కె",
        -8.91308266023523
      ],
      [
        "_చెయ్య",
        -8.913309820159592
      ],
      [
        "డో",
        -8.91340138335998
      ],
      [
        "_కార్యక్రమంలో",
        -8.913418784823472
      ],
      [
        "_సంపూర్ణ",
        -8.913769685237009
      ],
      [
        "_సంత",
        -8.9141416713697
      ],
      [
        "ంటూ",
        -8.914287611046001
      ],
      [
        "_జిల్లా,",
        -8.91466074018304
      ],
      [
        "_కార్యకర్త",
        -8.915836893848423
      ],
      [
        "యత",
        -8.91590413383789
      ],
      [
        "నని",
        -8.916579404515108
      ],
      [
        "_ఆలోచన",
        -8.917950229910105
      ],
      [
        "_ఖర్చు",
        -8.917988939597313
      ],
      [
        "_విస్తరించి",
        -8.918458826664647
      ],
      [
        "ar",
        -8.918561495837789
      ],
      [
        "చు",
        -8.919083665741132
      ],
      [
        "es",
        -8.919698019633023
      ],
      [
        "_శ",
        -8.920365227121815
      ],
      [
        "_P",
        -8.92096085244095
      ],
      [
        "_పరి",
        -8.921217144886796
      ],
      [
        "బో",
        -8.921687566519042
      ],
      [
        "_టి.",
        -8.921750170923026
      ],
      [
        "_డైరెక్టర్",
        -8.921851737398669
      ],
      [
        "_మార",
        -8.922174793558492
      ],
      [
        "_మార్చి",
        -8.923163554494005
      ],
      [
        "_నిమిత్తం",
        -8.923315454199866
      ],
      [
        "_కొట్ట",
        -8.923663971339707
      ],
      [
        "_కుమార్",
        -8.92496357797421
      ],
      [
        "_ప్రజా",
        -8.92649691059585
      ],
      [
        "_సహకార",
        -8.926529247072033
      ],
      [
        "_అతడు",
        -8.926730209048834
      ],
      [
        "లుగా",
        -8.927029713939255
      ],
      [
        "ండ్",
        -8.927804054650865
      ],
      [
        "c",
        -8.92865177378284
      ],
      [
        "_మ్యాచ్",
        -8.929231768384005
      ],
      [
        "_బయటకు",
        -8.929869544928442
      ],
      [
        "_సాధారణ",
        -8.930129609743965
      ],
      [
        "మును",
        -8.930670216069965
      ],
      [
        "_24",
        -8.93140686637465
      ],
      [
        "స్థ",
        -8.931439100957178
      ],
      [
        "_సంబంధించి",
        -8.932327860084863
      ],
      [
        "_కులాల",
        -8.933592796878274
      ],
      [
        "_చరిత్ర",
        -8.934096822457558
      ],
      [
        "_వీ",
        -8.934898523827183
      ],
      [
        "D",
        -8.93580535147059
      ],
      [
        "_సింగ్",
        -8.937528715152292
      ],
      [
        "_సహాయక",
        -8.937535692459338
      ],
      [
        "_ఫిర్యాదు",
        -8.937617751048554
      ],
      [
        "ేలా",
        -8.93778400183778
      ],
      [
        "కాల",
        -8.93795788222321
      ],
      [
        "_అయితే,",
        -8.938584864765835
      ],
      [
        "_డాక్టర్లు",
        -8.938864507525944
      ],
      [
        "_ఆశా",
        -8.939945404719502
      ],
      [
        "_మోదీ",
        -8.942070803714174
      ],
      [
        "_స్వయం",
        -8.944042579296713
      ],
      [
        "E",
        -8.944446730954564
      ],
      [
        "_మద్దతు",
        -8.944595569242594
      ],
      [
        "ఖ",
        -8.945730278500383
      ],
      [
        "_రోజుకు",
        -8.945833453412437
      ],
      [
        "_ప్రత్యామ్నాయ",
        -8.94622655535408
      ],
      [
        "_మళ్ళీ",
        -8.94690493407057
      ],
      [
        "_జారీ",
        -8.947440461286575
      ],
      [
        "_స్థానిక",
        -8.948681909370368
      ],
      [
        "_వస్తున్న",
        -8.949214757402927
      ],
      [
        "_పీ",
        -8.949457232915988
      ],
      [
        "_సొసైటీ",
        -8.949562514746376
      ],
      [
        "_స్పష్టం",
        -8.952014206921039
      ],
      [
        "_చూప",
        -8.95244731891971
      ],
      [
        "_దాడి",
        -8.952974769639917
      ],
      [
        "_అలాంటి",
        -8.953215538274739
      ],
      [
        "_విన",
        -8.953246254791594
      ],
      [
        "_దర్శకుడు",
        -8.953368423919207
      ],
      [
        "_తీసుకున్న",
        -8.953512767978857
      ],
      [
        "_సై",
        -8.95410227194156
      ],
      [
        "్ని",
        -8.957259516411469
      ],
      [
        "_కట్ట",
        -8.957939699693593
      ],
      [
        "_ఎన్",
        -8.959023160917479
      ],
      [
        "_మానవ",
        -8.960588968890804
      ],
      [
        "_అందరూ",
        -8.962116266141367
      ],
      [
        "ాల్సిన",
        -8.96239622254747
      ],
      [
        "_ఐదు",
        -8.963114237625273
      ],
      [
        "M",
        -8.963405532561653
      ],
      [
        "రు.",
        -8.963520285300078
      ],
      [
        "_గాంధీ",
        -8.966067929823808
      ],
      [
        "_పరీక్ష",
        -8.966562664943918
      ],
      [
        "_బో",
        -8.967490525584964
      ],
      [
        "_కార్యదర్శి",
        -8.968618708981257
      ],
      [
        "_తెలుస్తోంది.",
        -8.96992847887653
      ],
      [
        "పక్కనే",
        -8.97019276163427
      ],
      [
        "P",
        -8.970326087071452
      ],
      [
        "_ఒకరు",
        -8.971257323057007
      ],
      [
        "or",
        -8.971274449561186
      ],
      [
        "మన",
        -8.971731936892285
      ],
      [
        "_ఎస్",
        -8.972049302107207
      ],
      [
        "_పశు",
        -8.97216465595541
      ],
      [
        "ుతున్న",
        -8.972979618526377
      ],
      [
        "రణ",
        -8.973355957541559
      ],
      [
        "_మైదానం",
        -8.975775780977452
      ],
      [
        "_సుమారు",
        -8.976293298246448
      ],
      [
        "_రూం",
        -8.976882872392284
      ],
      [
        "ఘ",
        -8.977237820505508
      ],
      [
        "_గణాంకాల",
        -8.97776957527667
      ],
      [
        "_జో",
        -8.978829389470503
      ],
      [
        "జన",
        -8.97984019428546
      ],
      [
        "_టీఆర్ఎస్",
        -8.980849712333132
      ],
      [
        "_ప్రచారం",
        -8.9822477581775
      ],
      [
        "_కార్",
        -8.982364359319215
      ],
      [
        "_సహా",
        -8.982560122185822
      ],
      [
        "ch",
        -8.983334793124564
      ],
      [
        "_పడి",
        -8.983547613631243
      ],
      [
        "on",
        -8.983552629708019
      ],
      [
        "_సూపర్",
        -8.98613032657577
      ],
      [
        "_ఒకే",
        -8.986404242761223
      ],
      [
        "_షా",
        -8.986416561730119
      ],
      [
        "కార",
        -8.987206527113305
      ],
      [
        "ల్ని",
        -8.987685808003048
      ],
      [
        "_బయో",
        -8.988564997915839
      ],
      [
        "సర్",
        -8.988969898327417
      ],
      [
        "పోయిన",
        -8.989371265309979
      ],
      [
        "_వెనుక",
        -8.989511030006277
      ],
      [
        "_మార్కెటింగ్",
        -8.989797973114575
      ],
      [
        "ఓ",
        -8.990050294367924
      ],
      [
        "_చర్చ",
        -8.99047439644772
      ],
      [
        "_సైతం",
        -8.99053793677257
      ],
      [
        "ుతుంది.",
        -8.991922488847838
      ],
      [
        "తం",
        -8.994443194180677
      ],
      [
        "_కోర",
        -8.995205506156552
      ],
      [
        "త్త",
        -8.995455023102672
      ],
      [
        "_జట్టు",
        -8.995829230063359
      ],
      [
        "మాధ్యమిక",
        -8.995957768597233
      ],
      [
        "_దేవ",
        -8.996636980448098
      ],
      [
        "_మీడియాలో",
        -8.997422665654332
      ],
      [
        "_కాలువల",
        -8.998645335283154
      ],
      [
        "శా",
        -8.999354470271392
      ],
      [
        "_ఢిల్లీ",
        -8.999809684338203
      ],
      [
        "_పే",
        -8.99995428551107
      ],
      [
        "_పంచ",
        -9.00094700380597
      ],
      [
        "_వెళ్ళి",
        -9.001423958531955
      ],
      [
        "హ్",
        -9.002194787054464
      ],
      [
        "_నిర్వహించ",
        -9.002836209218898
      ],
      [
        "కొండ",
        -9.003729760251291
      ],
      [
        "_ఆర్ట్స్",
        -9.003852581425088
      ],
      [
        "_సంవత్సరం",
        -9.00391509302368
      ],
      [
        "_లాంటి",
        -9.004827889491448
      ],
      [
        "దని",
        -9.005947344003374
      ],
      [
        "_మనిషి",
        -9.00704500732221
      ],
      [
        "_దృష్టి",
        -9.008823870726749
      ],
      [
        "_2011",
        -9.009750952813093
      ],
      [
        "_టీ",
        -9.010714564805163
      ],
      [
        "స్,",
        -9.010822388820504
      ],
      [
        "_నిర్వహించారు.",
        -9.011455877110487
      ],
      [
        "_ఎంపీ",
        -9.011465484296497
      ],
      [
        "_ఎందుకంటే",
        -9.011538699263376
      ],
      [
        "ఫీ",
        -9.01265059365694
      ],
      [
        "_జనన",
        -9.014433927224484
      ],
      [
        "_అంతర్జాతీయ",
        -9.014443093908438
      ],
      [
        "_వలన",
        -9.014872563848558
      ],
      [
        "_పిల్లల",
        -9.015594870586812
      ],
      [
        "_ధర్మ",
        -9.016583025068279
      ],
      [
        "_నిర్",
        -9.017299012262233
      ],
      [
        "బడిన",
        -9.01822252963584
      ],
      [
        "_నాగ",
        -9.018572651675457
      ],
      [
        "_బె",
        -9.020108795867507
      ],
      [
        "_అతడి",
        -9.020483653146421
      ],
      [
        "_ముగ్గురు",
        -9.021524963440562
      ],
      [
        "_ప్రాజెక్టు",
        -9.023202852072389
      ],
      [
        "శ్",
        -9.024317051116453
      ],
      [
        "_రె",
        -9.024622365355388
      ],
      [
        "_ప్రవహిస్తుంది.",
        -9.025275393330608
      ],
      [
        "_స్థాయిలో",
        -9.025647102455983
      ],
      [
        "_స్థాయి",
        -9.026773047145387
      ],
      [
        "_రాజధాని",
        -9.027499777992277
      ],
      [
        "_ఎక్కడ",
        -9.027579073665397
      ],
      [
        "_రోజులు",
        -9.028645285710535
      ],
      [
        "_వస్తువులు",
        -9.029011960994495
      ],
      [
        "వర",
        -9.029566146385372
      ],
      [
        "_పారా",
        -9.030401442888145
      ],
      [
        "_విషయాన్ని",
        -9.031582108559329
      ],
      [
        "షి",
        -9.03310152512372
      ],
      [
        "జర్",
        -9.03315247932024
      ],
      [
        "కర",
        -9.033161172627517
      ],
      [
        "క్కు",
        -9.035321182319779
      ],
      [
        "_కాస్త",
        -9.036223962726934
      ],
      [
        "_క్రికెట్",
        -9.03683974120277
      ],
      [
        "మెంట్",
        -9.037077896195111
      ],
      [
        "_ఉంది.\n\n",
        -9.037720156164372
      ],
      [
        "_అధికార",
        -9.038659671686526
      ],
      [
        "f",
        -9.039118444524581
      ],
      [
        "జే",
        -9.039250053567484
      ],
      [
        "_అందించ",
        -9.03929060393302
      ],
      [
        "గం",
        -9.039524696185211
      ],
      [
        "_అందుతుంది.",
        -9.040782732500645
      ],
      [
        "_తాము",
        -9.04192775656797
      ],
      [
        "_రే",
        -9.042209900193843
      ],
      [
        "_పాల్గొన్నారు.",
        -9.042417879897965
      ],
      [
        "_L",
        -9.042913757986017
      ],
      [
        "వాడు",
        -9.043461358756229
      ],
      [
        "_సోమవారం",
        -9.043717486518064
      ],
      [
        "ూరు",
        -9.043930090058373
      ],
      [
        "న్నీ",
        -9.045661333204809
      ],
      [
        "_ప్రజలకు",
        -9.045972579829312
      ],
      [
        "ad",
        -9.047008152410278
      ],
      [
        "మురుగునీరు",
        -9.047113318110569
      ],
      [
        "_తేదీ",
        -9.047888092915278
      ],
      [
        "_ఇవి",
        -9.04873355743912
      ],
      [
        "ల్స్",
        -9.048842335423272
      ],
      [
        "పెట్ట",
        -9.049184660888713
      ],
      [
        "_ఇంటికి",
        -9.049396710375966
      ],
      [
        "_శుక్రవారం",
        -9.050324101930782
      ],
      [
        "_మరణాల",
        -9.05048995514698
      ],
      [
        "లేక",
        -9.050650204586013
      ],
      [
        "_వీధుల",
        -9.0507669441005
      ],
      [
        "_వే",
        -9.051052861940951
      ],
      [
        "_ఆటల",
        -9.05214803303486
      ],
      [
        "_తప్పు",
        -9.052413182355803
      ],
      [
        "_శిశు",
        -9.052756946690211
      ],
      [
        "_దిగ",
        -9.054012773108672
      ],
      [
        "_కొరకు",
        -9.05428303994797
      ],
      [
        "_షో",
        -9.054426886700277
      ],
      [
        "_బాలల",
        -9.055652223298486
      ],
      [
        "_లేదు",
        -9.055752757115313
      ],
      [
        "_కొండ",
        -9.056450521008788
      ],
      [
        "_భారతీయ",
        -9.05788531917543
      ],
      [
        "_నిర్మించ",
        -9.057923783196005
      ],
      [
        "_ఆరు",
        -9.057958926416534
      ],
      [
        "గిరి",
        -9.05864938533047
      ],
      [
        "_చెత్త",
        -9.06060284757633
      ],
      [
        "_సీనియర్",
        -9.060660266384838
      ],
      [
        "_ప్రభావం",
        -9.061751020665707
      ],
      [
        "_ఏళ్ల",
        -9.06264883181728
      ],
      [
        "_వరకూ",
        -9.064150185515075
      ],
      [
        "_అను",
        -9.064799633168027
      ],
      [
        "_క్రమంలో",
        -9.06481212551763
      ],
      [
        "_హై",
        -9.065005271342368
      ],
      [
        "_ఎన్టీఆర్",
        -9.065080184785264
      ],
      [
        "స్తే",
        -9.06517569066402
      ],
      [
        "ందు",
        -9.065176885710628
      ],
      [
        "_సినీ",
        -9.066225919693123
      ],
      [
        "en",
        -9.0681936344124
      ],
      [
        "ిస్తూ",
        -9.068643591794244
      ],
      [
        "_ఉన్నా",
        -9.068948828958886
      ],
      [
        "బడింది.",
        -9.068955178579316
      ],
      [
        "_కేసులు",
        -9.069650191364873
      ],
      [
        "_డీ",
        -9.071939255997053
      ],
      [
        "స్వామి",
        -9.072289743955691
      ],
      [
        "ిందని",
        -9.072624993050006
      ],
      [
        "జె",
        -9.073479404353344
      ],
      [
        "_అమ్మాయి",
        -9.073921935390755
      ],
      [
        "ాల్సి",
        -9.074298775193487
      ],
      [
        "ాయి.\n",
        -9.074344197990952
      ],
      [
        "_హిట్",
        -9.075358979179322
      ],
      [
        "re",
        -9.076717424505448
      ],
      [
        "_సంచార",
        -9.076871131893263
      ],
      [
        "B",
        -9.078564947441961
      ],
      [
        "_వుంది.",
        -9.078604919711507
      ],
      [
        "_లొకేషన్",
        -9.078675337586827
      ],
      [
        "_తెగల",
        -9.078709524050046
      ],
      [
        "శి",
        -9.079265799286937
      ],
      [
        "_రిలీజ్",
        -9.080057041863059
      ],
      [
        "_జరిగే",
        -9.080599112885594
      ],
      [
        "సో",
        -9.081515060093817
      ],
      [
        "ారెడ్డి",
        -9.08172379231916
      ],
      [
        "_దానికి",
        -9.081796357108786
      ],
      [
        "_మొ",
        -9.08260150267693
      ],
      [
        "్య",
        -9.08306121678404
      ],
      [
        "_అంతే",
        -9.083775945275017
      ],
      [
        "_పెట్టి",
        -9.085081367372435
      ],
      [
        "_జరగ",
        -9.085368052441957
      ],
      [
        "_దేశం",
        -9.085435249453758
      ],
      [
        "_తీసుకో",
        -9.08617759300209
      ],
      [
        "_ప్రకటన",
        -9.086371795751917
      ],
      [
        "మెడికల్",
        -9.089064427831605
      ],
      [
        "హెక్టార్లలో",
        -9.089249947898983
      ],
      [
        "డమే",
        -9.089619274854263
      ],
      [
        "_నీకు",
        -9.090259083784673
      ],
      [
        "_సాధించ",
        -9.090646190104279
      ],
      [
        "పే",
        -9.09154180755025
      ],
      [
        "నర్",
        -9.091876681456284
      ],
      [
        "ారో",
        -9.092002269307205
      ],
      [
        "గ్యాస్",
        -9.092872964125558
      ],
      [
        "రియా",
        -9.093224743673495
      ],
      [
        "ాక",
        -9.093825230533037
      ],
      [
        "ముల",
        -9.09390634434622
      ],
      [
        "_అంచనా",
        -9.094511523911985
      ],
      [
        "_రామ్",
        -9.095160339262112
      ],
      [
        "ాన",
        -9.095166952695873
      ],
      [
        "వె",
        -9.095334771837862
      ],
      [
        "_రోడ్లు",
        -9.096168524423415
      ],
      [
        "_పారిశుధ్య",
        -9.096279077470086
      ],
      [
        "_వుండ",
        -9.096474463690157
      ],
      [
        "ప్రాథమికోన్నత",
        -9.097629357443607
      ],
      [
        "_మగవారి",
        -9.097820212200885
      ],
      [
        "ణి",
        -9.100086394000654
      ],
      [
        "_మనసు",
        -9.100676064977572
      ],
      [
        "_టెలిఫోన్",
        -9.102308706333176
      ],
      [
        "_రకాల",
        -9.102343538056882
      ],
      [
        "రోజువారీ",
        -9.103459369775244
      ],
      [
        "మున",
        -9.103844441690535
      ],
      [
        "la",
        -9.104599625179361
      ],
      [
        "_పెళ్ళి",
        -9.105778257448048
      ],
      [
        "మంది",
        -9.105807765581678
      ],
      [
        "_విలువ",
        -9.105958685514116
      ],
      [
        "కోసం",
        -9.106842258891808
      ],
      [
        "_పోలీస్",
        -9.106869850332414
      ],
      [
        "_భాష",
        -9.107338863508575
      ],
      [
        "ుకుంటూ",
        -9.107665427601152
      ],
      [
        "_ఇంజనీరింగ్",
        -9.107725207268512
      ],
      [
        "_ఉపయోగించ",
        -9.1078686765697
      ],
      [
        "_21",
        -9.108537384419106
      ],
      [
        "_గురువారం",
        -9.108616591449861
      ],
      [
        "_వ్యర్థాల",
        -9.108652510936228
      ],
      [
        "_ఆడవారి",
        -9.108733712919197
      ],
      [
        "ున్నారు.",
        -9.108977799498081
      ],
      [
        "_బహిరంగ",
        -9.109679498105065
      ],
      [
        "_c",
        -9.11096957981491
      ],
      [
        "_గ్రంథాలయం",
        -9.111232823563157
      ],
      [
        "_అందుకు",
        -9.111865287317235
      ],
      [
        "_మాతా",
        -9.112281064741214
      ],
      [
        "న్స్",
        -9.114847247612564
      ],
      [
        "30",
        -9.115738135611199
      ],
      [
        "తోనే",
        -9.116304336078926
      ],
      [
        "_నిద్ర",
        -9.116403517350507
      ],
      [
        "_జీవితం",
        -9.1168786566581
      ],
      [
        "_వార్తాపత్రిక",
        -9.11881913230003
      ],
      [
        "_రైతు",
        -9.118826134157226
      ],
      [
        "_ఉత్తమ",
        -9.118939965108247
      ],
      [
        "_దివ్యాంగుల",
        -9.119238468607126
      ],
      [
        "_స్థానంలో",
        -9.120216400241757
      ],
      [
        "ిస్తున్న",
        -9.12088964203403
      ],
      [
        "_కాల",
        -9.121782319519337
      ],
      [
        "_జూన్",
        -9.124495633145655
      ],
      [
        "ుగా",
        -9.124828405125161
      ],
      [
        "_ఇచ్చ",
        -9.125115860022747
      ],
      [
        "_and",
        -9.12643272291474
      ],
      [
        "ఎన్",
        -9.127053216709973
      ],
      [
        "_అతనికి",
        -9.127532698033797
      ],
      [
        "_సమస్యలు",
        -9.128394645404269
      ],
      [
        "_రీడింగ్",
        -9.128703353760057
      ],
      [
        "_జన",
        -9.129369914300652
      ],
      [
        "_ఉత్పాదక",
        -9.12971740506108
      ],
      [
        "_చేస",
        -9.130463710094844
      ],
      [
        "ఎఫ్",
        -9.131567841818159
      ],
      [
        "_మొదలైనవి",
        -9.131743308411437
      ],
      [
        "_వేసి",
        -9.133971573573751
      ],
      [
        "_మృతి",
        -9.134337028833842
      ],
      [
        "_జె",
        -9.134882863543618
      ],
      [
        "ావసరాల",
        -9.135201405095486
      ],
      [
        "_వివరాలు",
        -9.136529476870564
      ],
      [
        "_పోషకాహార",
        -9.137029464702755
      ],
      [
        "_క్రితం",
        -9.13711506801543
      ],
      [
        "_మరోసారి",
        -9.137731087718077
      ],
      [
        "_ప్రశ్న",
        -9.138213789038002
      ],
      [
        "at",
        -9.13829952368994
      ],
      [
        "_జరుగుతోంది.",
        -9.13840092789072
      ],
      [
        "వాడీ",
        -9.138546733236579
      ],
      [
        "ఇంటింటికీ",
        -9.13858072251302
      ],
      [
        "ుతోంది.",
        -9.138961216943791
      ],
      [
        "_బుధవారం",
        -9.139945252640299
      ],
      [
        "_ఆదివారం",
        -9.140301446107692
      ],
      [
        "_షూటింగ్",
        -9.140529583615784
      ],
      [
        "_కొడుకు",
        -9.14120880612668
      ],
      [
        "_వ్యాపార",
        -9.14233507447503
      ],
      [
        "రై",
        -9.14262524497774
      ],
      [
        "_బస్సులు",
        -9.142990833679061
      ],
      [
        "_కొరియర్",
        -9.143407198276227
      ],
      [
        "_ఆధారంగా",
        -9.144726616278927
      ],
      [
        "ఎల్",
        -9.145606068959033
      ],
      [
        "O",
        -9.14633929151226
      ],
      [
        "_సరఫరాల",
        -9.147530155980263
      ],
      [
        "ుకున్నారు.",
        -9.147707885818926
      ],
      [
        "_రద్దు",
        -9.148601139184622
      ],
      [
        "_మంగళవారం",
        -9.149787895274736
      ],
      [
        "_తీసుకుని",
        -9.15075611191414
      ],
      [
        "_ఎవరి",
        -9.151387824605264
      ],
      [
        "శాఖ",
        -9.151456106097836
      ],
      [
        "_అంగన్",
        -9.151498540870715
      ],
      [
        "న్ని",
        -9.15167592759959
      ],
      [
        "le",
        -9.151810096707248
      ],
      [
        "ౌ",
        -9.152046780805074
      ],
      [
        "_నె",
        -9.152069886703044
      ],
      [
        "_ప్రాంతాల్లో",
        -9.154825598628822
      ],
      [
        "జం",
        -9.154921179151867
      ],
      [
        "పరపతి",
        -9.156297594620312
      ],
      [
        "_వస్తే",
        -9.15770099641894
      ],
      [
        "th",
        -9.158456994084217
      ],
      [
        "లాంటి",
        -9.158618878521368
      ],
      [
        "_అక్కడి",
        -9.158689036334202
      ],
      [
        "యర్",
        -9.15968434612165
      ],
      [
        "_G",
        -9.160994721701817
      ],
      [
        ".\"",
        -9.161216527874918
      ],
      [
        "_గుండె",
        -9.161427757007644
      ],
      [
        "_దాన్ని",
        -9.1616766754122
      ],
      [
        "_సేకరించే",
        -9.162163851533533
      ],
      [
        "_చెప్పిన",
        -9.162235933138223
      ],
      [
        "_కంకర",
        -9.162567944012455
      ],
      [
        "_గుర్తించ",
        -9.163732133893163
      ],
      [
        "_ఖ",
        -9.165411747223134
      ],
      [
        "g",
        -9.16606880526792
      ],
      [
        "_కృషి",
        -9.167073956373065
      ],
      [
        "సమీకృత",
        -9.167219260673855
      ],
      [
        "త్తు",
        -9.167318470692493
      ],
      [
        "_చేపట్ట",
        -9.168007011188326
      ],
      [
        "ాడ",
        -9.168044776862859
      ],
      [
        "త్వం",
        -9.169131112982878
      ],
      [
        "_కాపాడ",
        -9.169620290918848
      ],
      [
        "_జనవరి",
        -9.170219316839752
      ],
      [
        "ించారు.",
        -9.170311156475451
      ],
      [
        "వచ్చు",
        -9.171789054254145
      ],
      [
        "బుల్",
        -9.173123269240548
      ],
      [
        "_ప్రా",
        -9.174310680895466
      ],
      [
        "_దక్షిణ",
        -9.174492620033734
      ],
      [
        "_కలెక్టర్",
        -9.174715124188507
      ],
      [
        "am",
        -9.17553237708248
      ],
      [
        "_మారింది.",
        -9.175734540487584
      ],
      [
        "_మై",
        -9.176327806384991
      ],
      [
        "తన",
        -9.17632957300072
      ],
      [
        "_పట్ల",
        -9.177700642646075
      ],
      [
        "_మహిళ",
        -9.178953490640604
      ],
      [
        "_స్వామి",
        -9.181636147081202
      ],
      [
        "పంపుల",
        -9.182109486348136
      ],
      [
        "_సర్వ",
        -9.183135771254976
      ],
      [
        "_దీనిని",
        -9.183589061123337
      ],
      [
        "_పాలీటెక్నిక్",
        -9.18359122991689
      ],
      [
        "_ముఖ్యమైన",
        -9.184462114309452
      ],
      [
        "_ఆంధ్ర",
        -9.185273144583535
      ],
      [
        "_రోజుల్లో",
        -9.185352244396206
      ],
      [
        "మర్",
        -9.185541176127588
      ],
      [
        "సన్",
        -9.185618810362186
      ],
      [
        "_గుండా",
        -9.18618759355919
      ],
      [
        "_గల",
        -9.186364818317132
      ],
      [
        "_ది",
        -9.1868532667837
      ],
      [
        "_22",
        -9.186932712133245
      ],
      [
        "_పిల్లలు",
        -9.187158722661245
      ],
      [
        "_శనివారం",
        -9.187442671667654
      ],
      [
        "_చేసేందుకు",
        -9.187652093178492
      ],
      [
        "_రో",
        -9.188136764833478
      ],
      [
        "_సాధారణంగా",
        -9.188516997791718
      ],
      [
        "00",
        -9.190502320234549
      ],
      [
        "_తెలియ",
        -9.190553720501883
      ],
      [
        "_మరుగుదొడ్డి",
        -9.19092298879587
      ],
      [
        "_పద",
        -9.191069369755558
      ],
      [
        "_a",
        -9.191291708174022
      ],
      [
        "_చెప్పి",
        -9.191775173895897
      ],
      [
        "టెలిగ్రాఫ్",
        -9.19203921887867
      ],
      [
        "_కలిగిన",
        -9.192496830442737
      ],
      [
        "మన్",
        -9.193011007259996
      ],
      [
        "డిస్పెన్సరీ",
        -9.193414743901522
      ],
      [
        "ంబ",
        -9.194320207744257
      ],
      [
        "ఫా",
        -9.19486823685256
      ],
      [
        "ప్పు",
        -9.194924273205926
      ],
      [
        "తె",
        -9.195317448781749
      ],
      [
        "_కన్నా",
        -9.195520250182089
      ],
      [
        "!\n-",
        -9.19606423533602
      ],
      [
        "_రైతులు",
        -9.196169519380616
      ],
      [
        "_చేసుకో",
        -9.197004933516503
      ],
      [
        "_రాహుల్",
        -9.197121255773684
      ],
      [
        "_ఇం",
        -9.197278939533241
      ],
      [
        "లోపతి",
        -9.197512573613666
      ],
      [
        "_ప్రారంభించ",
        -9.19807548661218
      ],
      [
        "_సూర్య",
        -9.198431729308101
      ],
      [
        "_జరుగుతున్న",
        -9.19857371281735
      ],
      [
        "రాజ్",
        -9.198697915681452
      ],
      [
        "_చెల్లించ",
        -9.198934488277246
      ],
      [
        "ున్నాయి.",
        -9.19974759299372
      ],
      [
        "బ్యాంకు,",
        -9.200150533843711
      ],
      [
        "ాలతో",
        -9.20081279287772
      ],
      [
        "_పాల",
        -9.200916674224366
      ],
      [
        "_గుర్తింపు",
        -9.201617908093674
      ],
      [
        "_చూపించ",
        -9.201723695294582
      ],
      [
        "_మేనేజిమెంట",
        -9.202298327974242
      ],
      [
        "_రెండవ",
        -9.202938616204571
      ],
      [
        "_రూపాయల",
        -9.202961778551652
      ],
      [
        "బడ",
        -9.203027770864887
      ],
      [
        "_ప్రమాదం",
        -9.20357850112965
      ],
      [
        "it",
        -9.205069860102064
      ],
      [
        "_బే",
        -9.20526646638686
      ],
      [
        "పతి",
        -9.206542764689567
      ],
      [
        "పోయింది.",
        -9.206657483824767
      ],
      [
        "_విద్య",
        -9.206829044921431
      ],
      [
        "వైపు",
        -9.206857923376479
      ],
      [
        "పోయి",
        -9.20758934047872
      ],
      [
        "_ఏప్రిల్",
        -9.20793815743701
      ],
      [
        "_ఫోటో",
        -9.208712508656296
      ],
      [
        "ందా",
        -9.209326902048096
      ],
      [
        "_ప్రక్రియ",
        -9.209355962989934
      ],
      [
        "_వేయ",
        -9.209805646128238
      ],
      [
        "బాలబడి",
        -9.21080332390433
      ],
      [
        "_విజయ",
        -9.21184468023368
      ],
      [
        "_సంగీత",
        -9.213633069353456
      ],
      [
        "_40",
        -9.215624305655624
      ],
      [
        "పద",
        -9.216303186101483
      ],
      [
        "_హామీ",
        -9.218765509768533
      ],
      [
        "పోతున్న",
        -9.218806823851562
      ],
      [
        "_చైర్మన్",
        -9.2189390894127
      ],
      [
        "_వీరి",
        -9.219163043166217
      ],
      [
        "ఫ",
        -9.21925444589195
      ],
      [
        "ండు",
        -9.219623709830143
      ],
      [
        "శ్రీ",
        -9.220046459121546
      ],
      [
        "చె",
        -9.220185994417236
      ],
      [
        "_రికార్డు",
        -9.221274454985101
      ],
      [
        "_అధికారి",
        -9.221961086392369
      ],
      [
        "_కనీసం",
        -9.222458492289784
      ],
      [
        "_వైరల్",
        -9.22276679882903
      ],
      [
        "_రైలు",
        -9.223002467991966
      ],
      [
        "ాలలో",
        -9.223497400410738
      ],
      [
        "_గాలి",
        -9.223992610979717
      ],
      [
        "_ఇచ్చారు.",
        -9.224137838201674
      ],
      [
        "నున్న",
        -9.225172714171249
      ],
      [
        "_తమిళ",
        -9.22586612888257
      ],
      [
        "లర్",
        -9.226334911420604
      ],
      [
        "_సభ",
        -9.226524293886987
      ],
      [
        "_వీర",
        -9.226634469976165
      ],
      [
        "_అయింది.",
        -9.226983169169237
      ],
      [
        "_నిర్మాణం",
        -9.228424162706565
      ],
      [
        "_ఊ",
        -9.228456620172862
      ],
      [
        "_జీవిత",
        -9.229324618033782
      ],
      [
        "వరం",
        -9.229859271583463
      ],
      [
        "_బయట",
        -9.229878061398429
      ],
      [
        "నుండి",
        -9.23004911356079
      ],
      [
        "్యం",
        -9.230195267659072
      ],
      [
        "_కలిపి",
        -9.230849519540863
      ],
      [
        "_కల్పించ",
        -9.231105278307487
      ],
      [
        "_మూల",
        -9.23149548201364
      ],
      [
        "_అమలవుతో",
        -9.231766042150754
      ],
      [
        "ir",
        -9.231801650901335
      ],
      [
        "_మహిళా",
        -9.232406036495865
      ],
      [
        "_విజయ్",
        -9.232497901167788
      ],
      [
        "_ఉంటుందని",
        -9.233550216867831
      ],
      [
        "_సాగ",
        -9.2335752356238
      ],
      [
        "_వైరస్",
        -9.235108145340252
      ],
      [
        "ాలంటే",
        -9.235186824826659
      ],
      [
        "_అంటారు.",
        -9.235644352442211
      ],
      [
        "10",
        -9.235935258717218
      ],
      [
        "_కానీ,",
        -9.236121288485629
      ],
      [
        "_సంబంధం",
        -9.236845331987965
      ],
      [
        "_సాయంత్రం",
        -9.237738517738677
      ],
      [
        "ందని",
        -9.239700264589619
      ],
      [
        "ించే",
        -9.241294803679253
      ],
      [
        "ro",
        -9.241625340806156
      ],
      [
        "_చంప",
        -9.2417187989333
      ],
      [
        "_ప్లాన్",
        -9.242487083473884
      ],
      [
        "_జల",
        -9.243714613650168
      ],
      [
        "_శాసనసభ",
        -9.244062686435589
      ],
      [
        "_ఫ",
        -9.245614221218313
      ],
      [
        "మూర్తి",
        -9.245762899536247
      ],
      [
        "_మరోవైపు",
        -9.2458527065059
      ],
      [
        "_బ్రహ్మ",
        -9.247968143556117
      ],
      [
        "కుళాయి",
        -9.24911777495867
      ],
      [
        "టింగ్",
        -9.249812843440985
      ],
      [
        "_ప్రయత్నం",
        -9.253241067682
      ],
      [
        "_బాలీవుడ్",
        -9.25331551310123
      ],
      [
        "_అవ",
        -9.254756827811615
      ],
      [
        "_మహ",
        -9.255674471239848
      ],
      [
        "_శ్రీనివాస్",
        -9.255789786526531
      ],
      [
        "L",
        -9.255877534054608
      ],
      [
        "_ఎవరు",
        -9.256686154538222
      ],
      [
        "_సిరీస్",
        -9.256700372696121
      ],
      [
        "_పోలీసు",
        -9.256930165295271
      ],
      [
        "_కొద్ది",
        -9.257251938988404
      ],
      [
        "కుమార్",
        -9.257808850501998
      ],
      [
        "_అవార్డు",
        -9.259252178399745
      ],
      [
        "_హా",
        -9.259530581521187
      ],
      [
        "_ఆయా",
        -9.25971198828534
      ],
      [
        "50",
        -9.26023913944278
      ],
      [
        "హెచ్",
        -9.260989223296638
      ],
      [
        "_23",
        -9.261759562938167
      ],
      [
        "_సొంత",
        -9.261887187232409
      ],
      [
        "_K",
        -9.261948225342277
      ],
      [
        "సె",
        -9.264813653990732
      ],
      [
        "_తెలిపింది.",
        -9.264860635861181
      ],
      [
        "యిన",
        -9.264893205063004
      ],
      [
        "_లేరు.",
        -9.266549267631678
      ],
      [
        "_తెచ్చ",
        -9.267753332039705
      ],
      [
        "_దీన్ని",
        -9.268726516484248
      ],
      [
        "_మిగిలిన",
        -9.268738676007011
      ],
      [
        "_ప్రయత్నించ",
        -9.269291437016381
      ],
      [
        "_చూస్తూ",
        -9.269446554338344
      ],
      [
        "గారు",
        -9.270291654386595
      ],
      [
        "ెఫె",
        -9.271249234130341
      ],
      [
        "టూ",
        -9.271300636541113
      ],
      [
        "_యా",
        -9.272092178493294
      ],
      [
        "ింగ్",
        -9.272315184333848
      ],
      [
        "_కోడ్:",
        -9.272867110470052
      ],
      [
        "_వ్యాఖ్యలు",
        -9.274827584405903
      ],
      [
        "మ్,",
        -9.274890992513145
      ],
      [
        "వాడ",
        -9.275295302624157
      ],
      [
        "ేంద్ర",
        -9.275341299449536
      ],
      [
        "_అందరి",
        -9.275884504686267
      ],
      [
        "పొ",
        -9.275913048044552
      ],
      [
        "_చుట్టూ",
        -9.27598438786541
      ],
      [
        "_న్యాయ",
        -9.276096071166629
      ],
      [
        "స్తు",
        -9.276319023879903
      ],
      [
        "_మాటలు",
        -9.277110009478069
      ],
      [
        "_సేవ",
        -9.277264645992926
      ],
      [
        "డర్",
        -9.277303146087402
      ],
      [
        "_జి",
        -9.277402354096365
      ],
      [
        "_దా",
        -9.278509608465292
      ],
      [
        "un",
        -9.279289087893703
      ],
      [
        "G",
        -9.2811574255408
      ],
      [
        "_News",
        -9.283124903893054
      ],
      [
        "li",
        -9.284174675200848
      ],
      [
        "సై",
        -9.285374078797425
      ],
      [
        "_అంట",
        -9.285697250429745
      ],
      [
        "సింగ్",
        -9.285772268227293
      ],
      [
        "ండీ",
        -9.28714574055342
      ],
      [
        "_పరుగులు",
        -9.287240408533844
      ],
      [
        "_దాంతో",
        -9.287481459536373
      ],
      [
        "_రాయ",
        -9.287938116933885
      ],
      [
        "_ఎవరూ",
        -9.288442340140444
      ],
      [
        "%",
        -9.2887382090179
      ],
      [
        "_D",
        -9.290461228009944
      ],
      [
        "_వాళ్ల",
        -9.290494956598039
      ],
      [
        "_జయ",
        -9.29051217866504
      ],
      [
        "_నారాయణ",
        -9.291977389789114
      ],
      [
        "వేల",
        -9.292083003542421
      ],
      [
        "ంప",
        -9.293403353519695
      ],
      [
        "_పొ",
        -9.293406646101015
      ],
      [
        "చా",
        -9.29373622253521
      ],
      [
        "ుకుంది.",
        -9.294409991926877
      ],
      [
        "_వార్తలు",
        -9.29541829097182
      ],
      [
        "_చోటు",
        -9.296247084442859
      ],
      [
        "_ఆట",
        -9.29637490086797
      ],
      [
        "_సమాచారం.",
        -9.296660015914549
      ],
      [
        "se",
        -9.297369632495093
      ],
      [
        "_ఆసక్తి",
        -9.297421520083736
      ],
      [
        "ులకు",
        -9.29756982136189
      ],
      [
        "_ఏటీఎ",
        -9.297873266492555
      ],
      [
        "_సరైన",
        -9.29880430959964
      ],
      [
        "_తీసి",
        -9.298819743137743
      ],
      [
        "_వస్తుంది.",
        -9.298993402723061
      ],
      [
        ".\\n",
        -9.299373945208286
      ],
      [
        "బంజరు",
        -9.299722755460861
      ],
      [
        "_1.",
        -9.30056107450042
      ],
      [
        "_మార్పు",
        -9.3007726950786
      ],
      [
        "్లోకి",
        -9.301239235788247
      ],
      [
        "కాయ",
        -9.301512910019916
      ],
      [
        "_నీవు",
        -9.301801041711858
      ],
      [
        "_బాల",
        -9.302516201368377
      ],
      [
        "డె",
        -9.30286748402512
      ],
      [
        "_ఎదురు",
        -9.30310322819541
      ],
      [
        "_చేస్తారు.",
        -9.303857484870207
      ],
      [
        "చూ",
        -9.304249224604785
      ],
      [
        "_దశ",
        -9.304518672966772
      ],
      [
        "_ఇప్పటి",
        -9.304802646915347
      ],
      [
        "_వ్యాధి",
        -9.305628170332644
      ],
      [
        "_సిద్ధ",
        -9.306100968340123
      ],
      [
        "b",
        -9.306336130293653
      ],
      [
        "v",
        -9.307165417046816
      ],
      [
        "_యువ",
        -9.307345086260865
      ],
      [
        "నున్నారు.",
        -9.30736270331015
      ],
      [
        "_న్యూస్",
        -9.307540957869145
      ],
      [
        "_బొ",
        -9.309377228988572
      ],
      [
        "_100",
        -9.310991578695146
      ],
      [
        "_రచయిత",
        -9.311365929553979
      ],
      [
        "_రక్షణ",
        -9.312126794291135
      ],
      [
        "ారు.\n\n",
        -9.312916134304798
      ],
      [
        "_సంఘటన",
        -9.313708012686229
      ],
      [
        "_త్వరలో",
        -9.314151464877199
      ],
      [
        "త్య",
        -9.314780927259996
      ],
      [
        "ధా",
        -9.31481038281826
      ],
      [
        "_తెలిపారు.\n",
        -9.316086468931559
      ],
      [
        "_ప్రాంతం",
        -9.316416701427912
      ],
      [
        "_ఫి",
        -9.316530799789492
      ],
      [
        "ట్టి",
        -9.317026245501346
      ],
      [
        "_పరిచయం",
        -9.317057916166357
      ],
      [
        "\"\n\n",
        -9.317072001860588
      ],
      [
        "బ్బ",
        -9.317312807362985
      ],
      [
        "ల్ల",
        -9.31731348578892
      ],
      [
        "_విద్యార్థులు",
        -9.31735368375089
      ],
      [
        "_నివేదిక",
        -9.317475611446552
      ],
      [
        "ంగి",
        -9.317670946252735
      ],
      [
        "_నెలల",
        -9.317873619615145
      ],
      [
        "_పదవి",
        -9.317924608732692
      ],
      [
        "_నిర్మాత",
        -9.317935717636468
      ],
      [
        "_ముంబై",
        -9.318074758552491
      ],
      [
        "ారా",
        -9.319242706735869
      ],
      [
        "_ఎప్పుడూ",
        -9.320431673296975
      ],
      [
        "_సమావేశంలో",
        -9.320795140858412
      ],
      [
        "ంజ",
        -9.321591307249737
      ],
      [
        "ట్స్",
        -9.322147009780878
      ],
      [
        "గూడ",
        -9.322242086483174
      ],
      [
        "_విశ్వ",
        -9.322825695570238
      ],
      [
        "_టాలీవుడ్",
        -9.322854225035009
      ],
      [
        "N",
        -9.322882266380969
      ],
      [
        "సారి",
        -9.323578382241479
      ],
      [
        "_ఆధ్వర్యంలో",
        -9.323738892618444
      ],
      [
        "హో",
        -9.324495155692576
      ],
      [
        "దూ",
        -9.324634963624703
      ],
      [
        "_నిన్ను",
        -9.32498789364331
      ],
      [
        "_అడుగు",
        -9.326145273908535
      ],
      [
        "_M",
        -9.32624069919035
      ],
      [
        "_బ్లాక్",
        -9.326344711210549
      ],
      [
        "పడి",
        -9.326347026641804
      ],
      [
        "_అయ్య",
        -9.326630389887862
      ],
      [
        "\n|",
        -9.327495031366112
      ],
      [
        "_రవి",
        -9.327665750878147
      ],
      [
        "_కాదని",
        -9.327825116665997
      ],
      [
        "కపోతే",
        -9.328292411966887
      ],
      [
        "_R",
        -9.330018706459
      ],
      [
        "_హైకోర్టు",
        -9.330222605985393
      ],
      [
        "_ఆమెను",
        -9.330437243197588
      ],
      [
        "నుంది.",
        -9.3310249088235
      ],
      [
        "రవ",
        -9.331330152652006
      ],
      [
        "_N",
        -9.33235395591743
      ],
      [
        "ఉ",
        -9.332446157316058
      ],
      [
        "_చేతిలో",
        -9.33278472224397
      ],
      [
        "H",
        -9.333156479978594
      ],
      [
        "_డె",
        -9.333574925404221
      ],
      [
        "_చిత్రంలో",
        -9.333899711530504
      ],
      [
        "కల",
        -9.335616566822184
      ],
      [
        "_ప్రారంభం",
        -9.335827049884267
      ],
      [
        "_స్వ",
        -9.336618419803722
      ],
      [
        "_చూస్తున్న",
        -9.336801701258603
      ],
      [
        "_రంగు",
        -9.337494400795455
      ],
      [
        "_నిర్మాణ",
        -9.337543622811399
      ],
      [
        "_శా",
        -9.338258843974012
      ],
      [
        "_వాళ్ళు",
        -9.338562187826717
      ],
      [
        "_ఏమీ",
        -9.340054712079302
      ],
      [
        "రెడ్డి,",
        -9.34020359292657
      ],
      [
        "_తీర",
        -9.340517042690655
      ],
      [
        "భా",
        -9.340564912535784
      ],
      [
        "ేశ్వర",
        -9.340804777710323
      ],
      [
        "_రావు",
        -9.341150202999781
      ],
      [
        "ka",
        -9.341783634186132
      ],
      [
        "_అవకాశాలు",
        -9.341833291336384
      ],
      [
        "_ఏడు",
        -9.342159638750374
      ],
      [
        "_చిరంజీవి",
        -9.34281378864392
      ],
      [
        "_కేసులో",
        -9.34361928678688
      ],
      [
        "_ప్రకటించ",
        -9.34373077296441
      ],
      [
        "రోడ్లు,",
        -9.343887839969549
      ],
      [
        "_ఫా",
        -9.343968780132649
      ],
      [
        "_చెంద",
        -9.344356123480011
      ],
      [
        "_లే",
        -9.346646136347516
      ],
      [
        "పాటి",
        -9.346950656721692
      ],
      [
        "_చేయించ",
        -9.34702954719562
      ],
      [
        "_పాప",
        -9.347489230623074
      ],
      [
        "_ఆమెకు",
        -9.347990231368222
      ],
      [
        "_కం",
        -9.348683084473553
      ],
      [
        "_తగ్గించ",
        -9.348862027733807
      ],
      [
        "దర్",
        -9.349456527787378
      ],
      [
        "_దీనిపై",
        -9.349554609605825
      ],
      [
        "_తారు",
        -9.349715827311654
      ],
      [
        "తుల",
        -9.349852329460274
      ],
      [
        "_26",
        -9.349997535083757
      ],
      [
        "_కేంద్రంలో",
        -9.35040692526059
      ],
      [
        "_చేస్తుంది.",
        -9.350458242514772
      ],
      [
        "_అప్పటి",
        -9.351559480719892
      ],
      [
        "_తీవ్రంగా",
        -9.353150670701387
      ],
      [
        "_28",
        -9.35534041706627
      ],
      [
        "_చేర్చ",
        -9.358011462431481
      ],
      [
        ".పిన్",
        -9.358317148550316
      ],
      [
        "_పంట",
        -9.358505111133484
      ],
      [
        "పురం",
        -9.359081061391974
      ],
      [
        "నాథ్",
        -9.35944864725778
      ],
      [
        "గడ",
        -9.361131088329975
      ],
      [
        "సూ",
        -9.361160190342327
      ],
      [
        "11",
        -9.362427540940969
      ],
      [
        "_వెంకట",
        -9.362959332373224
      ],
      [
        "ur",
        -9.363943390896402
      ],
      [
        "ినా",
        -9.36432943756729
      ],
      [
        "_మహిళల",
        -9.364410785364182
      ],
      [
        "ందే",
        -9.364544010345938
      ],
      [
        "ములో",
        -9.364544156566387
      ],
      [
        "_ఎల్",
        -9.36558183457303
      ],
      [
        "ండా",
        -9.365644218987892
      ],
      [
        "ణా",
        -9.36731827996479
      ],
      [
        "_లాండ్",
        -9.367588749427915
      ],
      [
        "_పత్రిక",
        -9.368495891101071
      ],
      [
        "_దూరంగా",
        -9.368817997400628
      ],
      [
        "_పారబోస్తారు.\n\n",
        -9.36916648604436
      ],
      [
        "ీకరణ",
        -9.370048533150456
      ],
      [
        "_చదువు",
        -9.370105164226127
      ],
      [
        "_అనుమతి",
        -9.370634261955516
      ],
      [
        "మైంది.",
        -9.371254494732796
      ],
      [
        "ళి",
        -9.371751416825937
      ],
      [
        "_తూర్పు",
        -9.372330910434211
      ],
      [
        "_కౌ",
        -9.372430303307878
      ],
      [
        "_మహేష్",
        -9.373658355833474
      ],
      [
        "_చూస్తే",
        -9.373903938703176
      ],
      [
        "_నవ్వ",
        -9.37395432048533
      ],
      [
        "_జిల్లాలోని",
        -9.375308127440558
      ],
      [
        "_వ్యా",
        -9.37587240105341
      ],
      [
        "_ప్రస్తుత",
        -9.376561757591356
      ],
      [
        "_మందికి",
        -9.377159784597998
      ],
      [
        "_కళ్యాణ్",
        -9.379664045490356
      ],
      [
        "et",
        -9.380807823860488
      ],
      [
        "_బరువు",
        -9.381328964837257
      ],
      [
        "_నమ్మ",
        -9.38148388716627
      ],
      [
        "12",
        -9.38178425597154
      ],
      [
        "స్తా",
        -9.381948455671978
      ],
      [
        "బర్",
        -9.383808324561508
      ],
      [
        "_దర్యాప్తు",
        -9.383970905886558
      ],
      [
        "ులను",
        -9.384235113407664
      ],
      [
        "_బై",
        -9.384772458115757
      ],
      [
        "_అవుతున్నాయి.\n\n",
        -9.384772895227826
      ],
      [
        "_F",
        -9.385181870135913
      ],
      [
        "_రావడం",
        -9.386131118266883
      ],
      [
        "_తగిన",
        -9.38669007197986
      ],
      [
        "_దర్శకత్వంలో",
        -9.3867678878039
      ],
      [
        "వ్య",
        -9.387172605561563
      ],
      [
        "_బ్యాంక్",
        -9.387851528868087
      ],
      [
        "బాబు",
        -9.388174543081925
      ],
      [
        "డు.",
        -9.388977961653273
      ],
      [
        "కార్",
        -9.389901880990921
      ],
      [
        "రామ",
        -9.390141542926246
      ],
      [
        "_సినిమాకు",
        -9.390616023460677
      ],
      [
        "_తెలుగులో",
        -9.391561743968808
      ],
      [
        "_ఆహార",
        -9.391700851049801
      ],
      [
        "_తొలగించ",
        -9.392366697151784
      ],
      [
        "మండలంలోని",
        -9.393610813139594
      ],
      [
        "_నాటి",
        -9.393845065078391
      ],
      [
        "కింగ్",
        -9.39406484256253
      ],
      [
        "_విధానం",
        -9.394274879873986
      ],
      [
        "_గుంటూరు",
        -9.394289771072783
      ],
      [
        "న్నాయి.",
        -9.394377381335236
      ],
      [
        "ma",
        -9.395129377040437
      ],
      [
        "_రంగ",
        -9.395233826605617
      ],
      [
        "_కోరారు.",
        -9.395918533224847
      ],
      [
        "బె",
        -9.396999187286438
      ],
      [
        "_షేర్",
        -9.397453655104556
      ],
      [
        "_రాజ్",
        -9.397770380144705
      ],
      [
        "_వినోద",
        -9.398104744802726
      ],
      [
        "పూ",
        -9.398620196347096
      ],
      [
        "_ఆత్మ",
        -9.398804462806247
      ],
      [
        "_క్యా",
        -9.398816310235457
      ],
      [
        "_కోట",
        -9.398998518060457
      ],
      [
        "_వ్యతిరేకంగా",
        -9.399150378303958
      ],
      [
        "_జూలై",
        -9.399568135942785
      ],
      [
        "_ఫిబ్రవరి",
        -9.40032230524197
      ],
      [
        "యినా",
        -9.400529417241614
      ],
      [
        "_ఉన్నత",
        -9.400560937996339
      ],
      [
        "_అల",
        -9.400682803726959
      ],
      [
        "ుకోవాలని",
        -9.401165407198647
      ],
      [
        "_27",
        -9.401422190890257
      ],
      [
        "_వచ్చాయి.",
        -9.401574042661835
      ],
      [
        "_అన్నీ",
        -9.401830743704924
      ],
      [
        "స్తున్న",
        -9.402185946767156
      ],
      [
        "_నల్ల",
        -9.40272081335195
      ],
      [
        "_కృష్ణా",
        -9.402798464383324
      ],
      [
        "_చట్టం",
        -9.402842066952978
      ],
      [
        "కారం",
        -9.403857851883098
      ],
      [
        "_సర్వే",
        -9.404464816991226
      ],
      [
        "క్ర",
        -9.405175335059432
      ],
      [
        "_పరిధిలో",
        -9.40615344510426
      ],
      [
        "ంట్",
        -9.40624175893547
      ],
      [
        "_వీరు",
        -9.406637246934897
      ],
      [
        "ుంది",
        -9.407038958680012
      ],
      [
        "_ఆహారం",
        -9.40778958282363
      ],
      [
        "ta",
        -9.408806281434408
      ],
      [
        "_H",
        -9.40900515749799
      ],
      [
        "_I",
        -9.409086758177995
      ],
      [
        "_సూచించారు.",
        -9.40955679046638
      ],
      [
        "_జీ",
        -9.410690764626178
      ],
      [
        "_మోడీ",
        -9.410933411540034
      ],
      [
        "_రాష్ట్రం",
        -9.411190180988491
      ],
      [
        "పాటు",
        -9.411376531812259
      ],
      [
        "_వెల్లడించారు.",
        -9.411417159646547
      ],
      [
        "_అటు",
        -9.411463531762479
      ],
      [
        "_సంస్థల",
        -9.412011713117376
      ],
      [
        "_రాజా",
        -9.41223476678881
      ],
      [
        "_ఏదైనా",
        -9.41271927584946
      ],
      [
        "_కావడం",
        -9.413686246504056
      ],
      [
        "_ఉండేది.",
        -9.413725960343427
      ],
      [
        "_పర",
        -9.41424703288792
      ],
      [
        "_మత",
        -9.41434287636541
      ],
      [
        "_బల",
        -9.414655160247177
      ],
      [
        "_ఇచ్చే",
        -9.414816537657083
      ],
      [
        "ేవారు.",
        -9.415590965201021
      ],
      [
        "_పైన",
        -9.415964123204427
      ],
      [
        "_తు",
        -9.41649911899273
      ],
      [
        "గారి",
        -9.41696856426536
      ],
      [
        "_కాగా,",
        -9.418022369422347
      ],
      [
        "గే",
        -9.418061757818693
      ],
      [
        "_ఆయనకు",
        -9.418371710509541
      ],
      [
        "భవ",
        -9.418386641519582
      ],
      [
        "కృష్ణ",
        -9.418439804308386
      ],
      [
        "_జీవితంలో",
        -9.418525226505654
      ],
      [
        "ేష్",
        -9.418563552104182
      ],
      [
        "_ఉండి",
        -9.419198017112306
      ],
      [
        "K",
        -9.419200532258902
      ],
      [
        "ా?",
        -9.419383956502582
      ],
      [
        "ేయ",
        -9.419770657592748
      ],
      [
        "_కొత్తగా",
        -9.42123687139041
      ],
      [
        "_తెలంగాణలో",
        -9.421291004064534
      ],
      [
        "దేశ",
        -9.421600026128377
      ],
      [
        "_తెగ",
        -9.421732254835309
      ],
      [
        "వచ్చ",
        -9.422433997702981
      ],
      [
        "_మూడో",
        -9.423889102478027
      ],
      [
        "_పక్కన",
        -9.42445154000454
      ],
      [
        "_కుటుంబం",
        -9.424752496776506
      ],
      [
        "_అందరికీ",
        -9.425718788606122
      ],
      [
        "_ఆగస్టు",
        -9.426130471603264
      ],
      [
        "_హీరోగా",
        -9.42630289272127
      ],
      [
        "_సంగీతం",
        -9.427497307047869
      ],
      [
        "_చూస",
        -9.42767328106081
      ],
      [
        "ేసి",
        -9.428610576328069
      ],
      [
        "_ప్రేక్షకుల",
        -9.428820816272195
      ],
      [
        "_సముద్ర",
        -9.429017216556488
      ],
      [
        "లింగ్",
        -9.429196176582224
      ],
      [
        "_పొందిన",
        -9.429283617959621
      ],
      [
        "పర్",
        -9.42981075736263
      ],
      [
        "_సెంటర్",
        -9.429841680048742
      ],
      [
        "_తదితరులు",
        -9.430112239107752
      ],
      [
        "రిక",
        -9.430469990371279
      ],
      [
        "_సంపాదించ",
        -9.430574447085984
      ],
      [
        "_ఆప",
        -9.430735098902835
      ],
      [
        "_ఇబ్బంది",
        -9.430743501517782
      ],
      [
        "_అరెస్టు",
        -9.432096250520212
      ],
      [
        "గ్రహ",
        -9.432326442340692
      ],
      [
        "_పిల్ల",
        -9.432483567779085
      ],
      [
        "_రావ",
        -9.433247138182029
      ],
      [
        "_ఆలోచించ",
        -9.433263892050912
      ],
      [
        "కూడా",
        -9.433861210773022
      ],
      [
        "_చేయాలి.",
        -9.43425049510909
      ],
      [
        "_సర్",
        -9.434319358604492
      ],
      [
        "ప్రధాన",
        -9.434569942806668
      ],
      [
        "_రాష్ట్రాల",
        -9.434829647823129
      ],
      [
        "ైతే",
        -9.435142832221404
      ],
      [
        "_ఒత్తిడి",
        -9.435445615542584
      ],
      [
        "_గోదావరి",
        -9.435686575448996
      ],
      [
        "_నిర్వహించిన",
        -9.435904318965902
      ],
      [
        "స్తుంది.",
        -9.436019240125677
      ],
      [
        "_ట్వీట్",
        -9.436105292689147
      ],
      [
        "_చూసిన",
        -9.436333177681393
      ],
      [
        "_ముందే",
        -9.436517244021275
      ],
      [
        "_భ",
        -9.436531698525862
      ],
      [
        "_సమాధానం",
        -9.436734415652476
      ],
      [
        "_సాగు",
        -9.437012704502928
      ],
      [
        "నగర్",
        -9.437400251854557
      ],
      [
        "ర్స్",
        -9.43746939675541
      ],
      [
        "_చేసుకుని",
        -9.437759231716115
      ],
      [
        "_ఉంటారు.",
        -9.437792129078979
      ],
      [
        "_దానిని",
        -9.43789680087059
      ],
      [
        "నీ,",
        -9.437903657174484
      ],
      [
        "_పక్క",
        -9.438416684283892
      ],
      [
        "ంగు",
        -9.438456229713207
      ],
      [
        "త్తి",
        -9.438596797173279
      ],
      [
        "_నాటికి",
        -9.438649540150887
      ],
      [
        "_ప్రారంభ",
        -9.439240892303259
      ],
      [
        "_సత్య",
        -9.439537514427633
      ],
      [
        "వని",
        -9.439665174951006
      ],
      [
        "చ్చి",
        -9.439995844815964
      ],
      [
        "_దేశాల",
        -9.441753186545766
      ],
      [
        "_ప్రత్యేకంగా",
        -9.441864408389538
      ],
      [
        "_దర్శకత్వం",
        -9.442411029272545
      ],
      [
        "_అవసరమైన",
        -9.442794178484489
      ],
      [
        "చేయ",
        -9.442953252789048
      ],
      [
        "ుకుంటున్న",
        -9.443096524925974
      ],
      [
        "సర",
        -9.443128113830591
      ],
      [
        "ందో",
        -9.44445188097137
      ],
      [
        "_మార్",
        -9.44475975162932
      ],
      [
        "_న్యూ",
        -9.445262675355304
      ],
      [
        "_అద్భుతమైన",
        -9.445519023541241
      ],
      [
        "_తనను",
        -9.44612852966357
      ],
      [
        "శ్ర",
        -9.446620337200583
      ],
      [
        "_చేస్త",
        -9.447288892877612
      ],
      [
        "_యూనిట్",
        -9.447457546764703
      ],
      [
        "తూ",
        -9.447620858851494
      ],
      [
        "_మట్టి",
        -9.447645042315417
      ],
      [
        "త్వ",
        -9.44915520212024
      ],
      [
        "_ఉన్నట్లు",
        -9.449494444072585
      ],
      [
        "z",
        -9.45037725493746
      ],
      [
        "_ఉండాలి.",
        -9.450398816941021
      ],
      [
        "_ఇచ్చి",
        -9.450539501637742
      ],
      [
        "_బిగ్",
        -9.450774410092182
      ],
      [
        "_యు",
        -9.450817796315462
      ],
      [
        "_శుద్ధి",
        -9.451168635346413
      ],
      [
        "_మారి",
        -9.45137489564424
      ],
      [
        "_భారీగా",
        -9.451425542024852
      ],
      [
        "_హరి",
        -9.451816449275146
      ],
      [
        "వరకు",
        -9.452056051020417
      ],
      [
        "_పలువురు",
        -9.452103912749344
      ],
      [
        "_మిగతా",
        -9.452187624572648
      ],
      [
        "_దారి",
        -9.45287523965553
      ],
      [
        "_జిల్లాల",
        -9.453165332776221
      ],
      [
        "_రైతుల",
        -9.453185830964928
      ],
      [
        "_1,",
        -9.454295733232177
      ],
      [
        "_బడ్జెట్",
        -9.454962804566444
      ],
      [
        "_ఉంటుంది",
        -9.455974515233619
      ],
      [
        "_నది",
        -9.45685246926608
      ],
      [
        "_దరఖాస్తు",
        -9.458146360731078
      ],
      [
        "_p",
        -9.459450613972745
      ],
      [
        "_సమావేశం",
        -9.459881097825608
      ],
      [
        "_భాగం",
        -9.459936694917046
      ],
      [
        "రాజ",
        -9.459996229380558
      ],
      [
        "_చేత",
        -9.460181546740827
      ],
      [
        "_బోర్డు",
        -9.460669543094754
      ],
      [
        "ఢ",
        -9.460762140049736
      ],
      [
        "_సమ",
        -9.46121116926436
      ],
      [
        "F",
        -9.46222096988015
      ],
      [
        "_అమరావతి",
        -9.463052254029124
      ],
      [
        "_తమకు",
        -9.463378201446654
      ],
      [
        "_ఇండియన్",
        -9.463395220647476
      ],
      [
        "_అన్నారు.\n",
        -9.463583647869957
      ],
      [
        "ఫి",
        -9.463584717072528
      ],
      [
        "_బిల్లు",
        -9.463937411683647
      ],
      [
        "_లేఖ",
        -9.464076548781508
      ],
      [
        "ొచ్చు.",
        -9.464119827282056
      ],
      [
        "మాట",
        -9.46436022812427
      ],
      [
        "_నేడు",
        -9.464504577300643
      ],
      [
        "_చెబుతున్నారు.",
        -9.465109345090001
      ],
      [
        "_నిరసన",
        -9.465115906710409
      ],
      [
        "_ప్రకటించారు.",
        -9.46580068858774
      ],
      [
        ".\"\n\n",
        -9.465812895916757
      ],
      [
        "_హిందూ",
        -9.466016310403516
      ],
      [
        "_తదితర",
        -9.466303053960818
      ],
      [
        "_ఎక్స్",
        -9.466366586065524
      ],
      [
        "పాల",
        -9.466573712955377
      ],
      [
        "మండలానికి",
        -9.46664792449651
      ],
      [
        "బే",
        -9.4669786358367
      ],
      [
        "_ఆశ",
        -9.468412893315524
      ],
      [
        "_తాజా",
        -9.468528542556536
      ],
      [
        "_సంస్థలు",
        -9.46878617249468
      ],
      [
        "_తెర",
        -9.468870618498721
      ],
      [
        "_ఆత్మహత్య",
        -9.469973884901158
      ],
      [
        "పోయ",
        -9.470731885412347
      ],
      [
        "_అవగాహన",
        -9.471681655897935
      ],
      [
        "_పన్ను",
        -9.472688242922787
      ],
      [
        "_హి",
        -9.472884217354204
      ],
      [
        "_కాక",
        -9.473644534345512
      ],
      [
        "_చెరువు",
        -9.473731323920813
      ],
      [
        "_ఖాన్",
        -9.474454856484346
      ],
      [
        "_ముఖం",
        -9.474614332332195
      ],
      [
        "_షాక్",
        -9.475229259049353
      ],
      [
        "ic",
        -9.475372530071482
      ],
      [
        "di",
        -9.475847324792612
      ],
      [
        "_కూడ",
        -9.476130088149862
      ],
      [
        "_ప్రదర్శన",
        -9.476995640641771
      ],
      [
        "గర్",
        -9.47704806234658
      ],
      [
        "_ఎత్తు",
        -9.477059137539609
      ],
      [
        "_పాఠశాల,",
        -9.478389288189023
      ],
      [
        "_రూపంలో",
        -9.479027297156081
      ],
      [
        "_\"ఆ",
        -9.479294908052015
      ],
      [
        "_హోటల్",
        -9.479486449536852
      ],
      [
        "థి",
        -9.480825730527453
      ],
      [
        "_వంద",
        -9.481126638640438
      ],
      [
        "ol",
        -9.481458940178518
      ],
      [
        "_కనుక",
        -9.48203407310448
      ],
      [
        "స్టు",
        -9.482302493495824
      ],
      [
        "...\"",
        -9.482530031323403
      ],
      [
        "కల్",
        -9.48303958650982
      ],
      [
        "_మరీ",
        -9.48358396604899
      ],
      [
        "_ఏమి",
        -9.484338380580086
      ],
      [
        "_గవర్నర్",
        -9.484605208700456
      ],
      [
        "_నిర్ణయించ",
        -9.485111184249133
      ],
      [
        "_దెబ్బ",
        -9.485823057239184
      ],
      [
        "_సాయి",
        -9.486175126267423
      ],
      [
        "_అన్నది",
        -9.486829211674705
      ],
      [
        "చేసి",
        -9.487100667357842
      ],
      [
        "_పుట్ట",
        -9.487742810580738
      ],
      [
        "_మాకు",
        -9.489467327900469
      ],
      [
        "తులు",
        -9.490678038105687
      ],
      [
        "శు",
        -9.490982056867088
      ],
      [
        "_తెలిసి",
        -9.491170833204007
      ],
      [
        "_రష్యా",
        -9.491312015852547
      ],
      [
        "_వివాహం",
        -9.491855161971687
      ],
      [
        "_మరొక",
        -9.491883228729638
      ],
      [
        "_సోమ",
        -9.492038120085931
      ],
      [
        "_కళ్ళు",
        -9.49216309184465
      ],
      [
        "వు.",
        -9.49290002104971
      ],
      [
        "_నియోజకవర్గం",
        -9.49333793603464
      ],
      [
        "ులు,",
        -9.493764144058563
      ],
      [
        "ముందు",
        -9.494852091998354
      ],
      [
        "_వార",
        -9.49517363657404
      ],
      [
        "_వరంగల్",
        -9.495320728221818
      ],
      [
        "_విజయవాడ",
        -9.495353055083129
      ],
      [
        "_ఉద్యోగం",
        -9.49550314476681
      ],
      [
        "_మంచినీటి",
        -9.496121073813947
      ],
      [
        "పాడు",
        -9.496290276815953
      ],
      [
        "కుల",
        -9.496467373871436
      ],
      [
        "_కార్యక్రమం",
        -9.49741152489529
      ],
      [
        "il",
        -9.497478186008918
      ],
      [
        "చీ",
        -9.498008709653384
      ],
      [
        "40",
        -9.499159192609099
      ],
      [
        "_చిత్రాన్ని",
        -9.499261169739954
      ],
      [
        "_వేడి",
        -9.500666888079994
      ],
      [
        "_తొ",
        -9.5012922851084
      ],
      [
        "_ఎన్ని",
        -9.50142462470367
      ],
      [
        "te",
        -9.501666108165345
      ],
      [
        "పుడు",
        -9.50193378306909
      ],
      [
        "ాత్మక",
        -9.50283121405183
      ],
      [
        "ుతున్నాయి.",
        -9.502858432387175
      ],
      [
        "లాండ్",
        -9.505730014223207
      ],
      [
        "_అభి",
        -9.506021003459203
      ],
      [
        "ార్థ",
        -9.507470537274308
      ],
      [
        "_ఆరోపించారు.",
        -9.507527171347004
      ],
      [
        "దె",
        -9.507678458518695
      ],
      [
        "_ఉండటం",
        -9.50781790509112
      ],
      [
        "_ఇప్పటికీ",
        -9.510763791565555
      ],
      [
        "_కెమెరా",
        -9.51090652649293
      ],
      [
        "ముఖ",
        -9.511472384527668
      ],
      [
        "లు.",
        -9.512868108387295
      ],
      [
        "డం,",
        -9.512883247257358
      ],
      [
        "_కూడిన",
        -9.513737506006219
      ],
      [
        "వల్ల",
        -9.514237506209982
      ],
      [
        "_విమర్శలు",
        -9.51453937459293
      ],
      [
        "_చే",
        -9.515134595230538
      ],
      [
        "el",
        -9.515153943021183
      ],
      [
        "ఠ",
        -9.515542273112704
      ],
      [
        "గ్రామంలో",
        -9.516000908628172
      ],
      [
        "_మార్గం",
        -9.517697189836118
      ],
      [
        "_నిర్వహణ",
        -9.517740747775843
      ],
      [
        "ిని",
        -9.517855438566821
      ],
      [
        "_సాయం",
        -9.518020165600406
      ],
      [
        "_నగర",
        -9.518736614994921
      ],
      [
        "ti",
        -9.520369277744836
      ],
      [
        "_మొదలు",
        -9.521112578961747
      ],
      [
        "_పెరిగి",
        -9.5213961970869
      ],
      [
        "_కర్ణాటక",
        -9.521823784154451
      ],
      [
        "_పవర్",
        -9.521903471072257
      ],
      [
        "జో",
        -9.522705653935933
      ],
      [
        "_నటి",
        -9.522719423527183
      ],
      [
        "రంగ",
        -9.523137929077834
      ],
      [
        "ీయ",
        -9.523521569410832
      ],
      [
        "_తిరుగుతున్నాయి.",
        -9.524405102654153
      ],
      [
        "_అభిమానులు",
        -9.524753853840654
      ],
      [
        "_యుద్ధ",
        -9.524953517422508
      ],
      [
        "రొ",
        -9.525219968885988
      ],
      [
        "_కొనసాగ",
        -9.525524408736056
      ],
      [
        "_అవుతుంది.",
        -9.525732466724884
      ],
      [
        "_రూప",
        -9.525867643672555
      ],
      [
        "పోయే",
        -9.525967751425528
      ],
      [
        "_స్త్రీ",
        -9.52601082627179
      ],
      [
        "_యూ",
        -9.526313673890698
      ],
      [
        "ినట్టు",
        -9.526353440633066
      ],
      [
        "_వీటి",
        -9.526399998356936
      ],
      [
        "_సృష్టించ",
        -9.526495470525836
      ],
      [
        "_బట్టి",
        -9.526584728834294
      ],
      [
        "13",
        -9.526733587316038
      ],
      [
        "డుగు",
        -9.527396866401473
      ],
      [
        "_నవ",
        -9.528172227971933
      ],
      [
        "జ్ఞ",
        -9.529023666719304
      ],
      [
        "రింగ్",
        -9.529859126196191
      ],
      [
        "టై",
        -9.530282933985083
      ],
      [
        "గొ",
        -9.530283683110317
      ],
      [
        "ేషన్",
        -9.530388712430218
      ],
      [
        "_వాడి",
        -9.53041965771369
      ],
      [
        "va",
        -9.532150914587985
      ],
      [
        "_E",
        -9.532579257401485
      ],
      [
        "_రక్షిత",
        -9.532818940292088
      ],
      [
        "ారని,",
        -9.5343569797342
      ],
      [
        "_ఉండగా",
        -9.534617191066749
      ],
      [
        "_అంశాల",
        -9.534633234970944
      ],
      [
        "_అధినేత",
        -9.534719803022979
      ],
      [
        "చిన",
        -9.534842488785555
      ],
      [
        "ుడు,",
        -9.535563783507492
      ],
      [
        "_కావడంతో",
        -9.535608448273642
      ],
      [
        "_బావులు",
        -9.535634900532816
      ],
      [
        "_చీ",
        -9.536098828282283
      ],
      [
        "_పట్టు",
        -9.536887720353667
      ],
      [
        "_విశాఖపట్నం",
        -9.537217895074
      ],
      [
        "మం",
        -9.537923550999356
      ],
      [
        "ఒ",
        -9.538463813987564
      ],
      [
        "_ఆగ",
        -9.539127356804583
      ],
      [
        "18",
        -9.539151780677486
      ],
      [
        "_పశ్చిమ",
        -9.53929108431784
      ],
      [
        "_సిద్ధం",
        -9.539448427442204
      ],
      [
        "హం",
        -9.54008465392345
      ],
      [
        "_అనుకున్న",
        -9.540149854891874
      ],
      [
        "వారికి",
        -9.540185649755129
      ],
      [
        "_పరిశోధన",
        -9.540208352914329
      ],
      [
        "_తాగ",
        -9.541435464582051
      ],
      [
        "_ప్రారంభించారు.",
        -9.541853962075358
      ],
      [
        "_ముందుగా",
        -9.542155730697145
      ],
      [
        "ారట.",
        -9.542268437666014
      ],
      [
        "కరణ",
        -9.542376941158748
      ],
      [
        "_నచ్చ",
        -9.543107890469013
      ],
      [
        "ుకోవడానికి",
        -9.543299265353493
      ],
      [
        "_నటుడు",
        -9.543304200258252
      ],
      [
        "_సహాయం",
        -9.5434629012224
      ],
      [
        "ద్ర",
        -9.543758360378025
      ],
      [
        "ూరి",
        -9.544945051975134
      ],
      [
        "ుకున్నాడు.",
        -9.545082038412986
      ],
      [
        "_అన్నాడు.",
        -9.545647122047995
      ],
      [
        "_వంట",
        -9.545873478629325
      ],
      [
        "కుడు",
        -9.545944279402798
      ],
      [
        "ప్పటికీ",
        -9.546621236127844
      ],
      [
        "_పోలీసుల",
        -9.546868724581968
      ],
      [
        "_నమ్మకం",
        -9.548218709083155
      ],
      [
        "ly",
        -9.54865194303273
      ],
      [
        "యన్",
        -9.549074874011309
      ],
      [
        "_విషయాలు",
        -9.549464663137284
      ],
      [
        "_చెన్నై",
        -9.549875043955542
      ],
      [
        "మార్",
        -9.550054911488736
      ],
      [
        "కాలం",
        -9.550297192240011
      ],
      [
        "_W",
        -9.550554787648535
      ],
      [
        "_వరద",
        -9.551655229934276
      ],
      [
        "_కాం",
        -9.55213504631223
      ],
      [
        "_వేరు",
        -9.552306733690484
      ],
      [
        "\nఆ",
        -9.552534837655475
      ],
      [
        "_ప్రసాద్",
        -9.552542813229406
      ],
      [
        "_డే",
        -9.552839714085025
      ],
      [
        "ేశ",
        -9.553481493180863
      ],
      [
        "_ప్రకటించింది.",
        -9.55357132393475
      ],
      [
        "_శిక్ష",
        -9.553630382605057
      ],
      [
        "_కుమారుడు",
        -9.553777318678444
      ],
      [
        "స్టర్",
        -9.554400903033237
      ],
      [
        "పరు",
        -9.555143187067618
      ],
      [
        "మొ",
        -9.555383840905334
      ],
      [
        "ha",
        -9.555394041592129
      ],
      [
        "?\"\n\n",
        -9.556498177179563
      ],
      [
        "_తిరుపతి",
        -9.556722544514248
      ],
      [
        "_V",
        -9.556879747078515
      ],
      [
        "_వ్యవహరించ",
        -9.557811462592918
      ],
      [
        "ొచ్చ",
        -9.557917637642063
      ],
      [
        "_తీర్చ",
        -9.558236257475926
      ],
      [
        "ిస్తే",
        -9.558400902492941
      ],
      [
        "తారు.",
        -9.558780184922677
      ],
      [
        "_దక్క",
        -9.559298267664285
      ],
      [
        "_జలవనరుల",
        -9.55967780810485
      ],
      [
        "_నటించ",
        -9.560824573924759
      ],
      [
        "_తయారీ",
        -9.561080024019631
      ],
      [
        "_వెంట",
        -9.56119164515577
      ],
      [
        "_మనకు",
        -9.562031499310251
      ],
      [
        "_చేసుకుంది.",
        -9.562101191672085
      ],
      [
        "_వేగంగా",
        -9.56217118939303
      ],
      [
        "_సినిమాల",
        -9.56277237960971
      ],
      [
        "_కేటీఆర్",
        -9.56302725480454
      ],
      [
        "_ప్రశ్నించారు.",
        -9.56308256873269
      ],
      [
        "_పూ",
        -9.563203289269449
      ],
      [
        "_లేచి",
        -9.563666213805723
      ],
      [
        "ైనా",
        -9.564000052755661
      ],
      [
        "_నూతన",
        -9.56401663130537
      ],
      [
        "స్తోంది.",
        -9.564629571915809
      ],
      [
        "టిక్",
        -9.564642103236558
      ],
      [
        "నాడు",
        -9.564842847164167
      ],
      [
        "_వైఎస్",
        -9.564965657558641
      ],
      [
        "నియా",
        -9.565322367005512
      ],
      [
        "_సిద్ద",
        -9.56546471654206
      ],
      [
        "_29",
        -9.566365679644072
      ],
      [
        ").",
        -9.567080466539565
      ],
      [
        "_ఎవరో",
        -9.567292420215136
      ],
      [
        "_31",
        -9.567572238239972
      ],
      [
        "_అర్థ",
        -9.568414131418635
      ],
      [
        "క్రమ",
        -9.5684987304032
      ],
      [
        "_తర",
        -9.568750813490793
      ],
      [
        "_తెలిసిన",
        -9.56894286524755
      ],
      [
        "క్షణ",
        -9.569044915907027
      ],
      [
        "రోజు",
        -9.569763113376535
      ],
      [
        "_భయం",
        -9.57132977021093
      ],
      [
        "25",
        -9.571427806514746
      ],
      [
        "_కె.",
        -9.571471870260407
      ],
      [
        "_వివరించారు.",
        -9.57150457288236
      ],
      [
        "_తరగతి",
        -9.572162803572702
      ],
      [
        "_పోలీసులకు",
        -9.572170349633911
      ],
      [
        "ము.",
        -9.572403703780331
      ],
      [
        "గీ",
        -9.572700935752037
      ],
      [
        "_ఉంటుంది.\n",
        -9.573226083109494
      ],
      [
        "_సార్లు",
        -9.573286767218864
      ],
      [
        "_స్కూల్",
        -9.57434104587209
      ],
      [
        "ారు,",
        -9.57443451580479
      ],
      [
        "17",
        -9.57505185624695
      ],
      [
        "ధ్య",
        -9.57512723042371
      ],
      [
        "_సరి",
        -9.575638412598758
      ],
      [
        "తను",
        -9.578069272710508
      ],
      [
        "ni",
        -9.578129882929819
      ],
      [
        "_కోరిక",
        -9.578178496054377
      ],
      [
        "_వచ్చారు.",
        -9.578362678146222
      ],
      [
        "ాము.",
        -9.578767988192778
      ],
      [
        "_మ్యా",
        -9.579316189480618
      ],
      [
        "ుడైన",
        -9.579554708385071
      ],
      [
        "_b",
        -9.579821341667888
      ],
      [
        "_మాట్లాడారు.",
        -9.580802477177407
      ],
      [
        "_వెలుగు",
        -9.580839904682644
      ],
      [
        "_అడ్డ",
        -9.58119079091213
      ],
      [
        "_పాడ",
        -9.581726731849672
      ],
      [
        ";\n-",
        -9.582008973431527
      ],
      [
        "డంలో",
        -9.582286619139479
      ],
      [
        "గ్రా",
        -9.582547537433085
      ],
      [
        "ేది",
        -9.58350141908124
      ],
      [
        "_పర్యటన",
        -9.58353788615794
      ],
      [
        "x",
        -9.583640303950661
      ],
      [
        "_60",
        -9.584066952131721
      ],
      [
        "_శరీరం",
        -9.58406985287712
      ],
      [
        "_ఈరోజు",
        -9.58408628455781
      ],
      [
        "ల్లు",
        -9.584101356062105
      ],
      [
        "_ఆది",
        -9.58505447287451
      ],
      [
        "ాలన్న",
        -9.585140696789265
      ],
      [
        "_గొంతు",
        -9.585828702181308
      ],
      [
        "_శర్మ",
        -9.585959724094518
      ],
      [
        "_ఉద్యోగ",
        -9.58637591035235
      ],
      [
        "_గురి",
        -9.586659021890261
      ],
      [
        "_అగ్ని",
        -9.586682483460468
      ],
      [
        "_పాలన",
        -9.586960046739902
      ],
      [
        "_నేల",
        -9.587002245339661
      ],
      [
        "ధార",
        -9.587139291077689
      ],
      [
        "_విశాఖ",
        -9.587180597498314
      ],
      [
        "60",
        -9.588649103965048
      ],
      [
        "_బిడ్డ",
        -9.588716537012724
      ],
      [
        "_ప్రభుత్వానికి",
        -9.58877338348455
      ],
      [
        "V",
        -9.58915618371105
      ],
      [
        "_ఉంది:\n\n",
        -9.589158835189489
      ],
      [
        "_ఆఫర్",
        -9.589484753568291
      ],
      [
        "_అభ్యర్థి",
        -9.58970854975987
      ],
      [
        "16",
        -9.590041594842948
      ],
      [
        "ికి",
        -9.59030858333818
      ],
      [
        "_టికెట్",
        -9.590561503781178
      ],
      [
        "ింది.\n\n",
        -9.592528040407933
      ],
      [
        "_జాబితా",
        -9.593322330853946
      ],
      [
        "_చీఫ్",
        -9.593966229818955
      ],
      [
        "ష్ఠ",
        -9.594223578338303
      ],
      [
        "హాలు,",
        -9.594450212402334
      ],
      [
        "లక్ష్మి",
        -9.595264456772627
      ],
      [
        "కలు",
        -9.595522080427187
      ],
      [
        "is",
        -9.597239875540104
      ],
      [
        "_చేస్తోంది.",
        -9.597342596583285
      ],
      [
        "_మొదట",
        -9.597629518845645
      ],
      [
        "_టీవీ",
        -9.597727890047818
      ],
      [
        "_వదులుతున్నారు.",
        -9.597796216801429
      ],
      [
        "దం",
        -9.597852671795296
      ],
      [
        "_ఆరోగ్యం",
        -9.597963472387049
      ],
      [
        "హార",
        -9.597984468548436
      ],
      [
        "ే.",
        -9.598195792294081
      ],
      [
        "_రక్త",
        -9.599032563993317
      ],
      [
        "_చూస్త",
        -9.599097941153675
      ],
      [
        "_తీరు",
        -9.599122171293741
      ],
      [
        "_చిత్రానికి",
        -9.599249643613966
      ],
      [
        "_సీజన్",
        -9.599688310924359
      ],
      [
        "_తీర్పు",
        -9.600126611250781
      ],
      [
        "_గమనించ",
        -9.600143333657652
      ],
      [
        "ాలనే",
        -9.600336827990505
      ],
      [
        "_ప్లాంట్",
        -9.601401648228787
      ],
      [
        "w",
        -9.601907463488633
      ],
      [
        "పరచ",
        -9.602036073843987
      ],
      [
        "_సాంకేతిక",
        -9.602564511128193
      ],
      [
        "pa",
        -9.602824790750782
      ],
      [
        "ామన్నారు.",
        -9.603144802813812
      ],
      [
        "_భావించ",
        -9.60333899775635
      ],
      [
        "_ఎప్పుడు",
        -9.60337127546499
      ],
      [
        "_పొడి",
        -9.604143446217263
      ],
      [
        "_ప్రదేశ్",
        -9.604160674978864
      ],
      [
        "_పండుగ",
        -9.604335403124194
      ],
      [
        "_ఇవ్వాలని",
        -9.60443884703567
      ],
      [
        "షీ",
        -9.604454313200582
      ],
      [
        "_జే",
        -9.605600175683854
      ],
      [
        "_కేంద్రాలు",
        -9.605680622032304
      ],
      [
        "_టాక్",
        -9.605696456708907
      ],
      [
        "_వీటిని",
        -9.605991400953162
      ],
      [
        "_2.",
        -9.606076119215757
      ],
      [
        "త్రి",
        -9.607155036701746
      ],
      [
        "_ఇద్దరూ",
        -9.6071635941172
      ],
      [
        "_బాస్",
        -9.607184728632982
      ],
      [
        "_సమీపంలో",
        -9.60730083582288
      ],
      [
        "నంద",
        -9.607707923397095
      ],
      [
        "15",
        -9.609983917897681
      ],
      [
        "వాళ్ళ",
        -9.61015593677193
      ],
      [
        "_మహిళలు",
        -9.610264859964365
      ],
      [
        "_టైటిల్",
        -9.610540000203311
      ],
      [
        "_ప్రవేశించ",
        -9.610551733136955
      ],
      [
        "ము,",
        -9.610874455023112
      ],
      [
        "_నాన్న",
        -9.612106616968788
      ],
      [
        "పరి",
        -9.61244364843858
      ],
      [
        "_ఎయిర్",
        -9.612728807266436
      ],
      [
        "_ఆలయం",
        -9.612943832703891
      ],
      [
        "_పార్టీకి",
        -9.612986167863667
      ],
      [
        "_కొంతమంది",
        -9.613018029403884
      ],
      [
        "ించింది.",
        -9.613316999493554
      ],
      [
        "_ఎన్నికలు",
        -9.613521561013068
      ],
      [
        "_మోహన్",
        -9.613741502771692
      ],
      [
        "_f",
        -9.61415254341195
      ],
      [
        "_వ్యాప్తంగా",
        -9.614391843874557
      ],
      [
        "_నిర్వహిస్తున్న",
        -9.615235665595078
      ],
      [
        "బోతున్న",
        -9.615357248964228
      ],
      [
        "ంటా",
        -9.615535071284787
      ],
      [
        "లైన",
        -9.616203512146898
      ],
      [
        "_యి",
        -9.61635220448053
      ],
      [
        "st",
        -9.616582186464258
      ],
      [
        "చర్",
        -9.61693151869625
      ],
      [
        "_త్వరగా",
        -9.61716224687209
      ],
      [
        "_ప్రపంచంలో",
        -9.61718112217709
      ],
      [
        "_నూనె",
        -9.617614258606677
      ],
      [
        "మర",
        -9.619508011239763
      ],
      [
        "_ఇబ్బందులు",
        -9.6207782403396
      ],
      [
        "99",
        -9.620783231219056
      ],
      [
        "j",
        -9.621190099775601
      ],
      [
        "ా!",
        -9.621313940792728
      ],
      [
        "_వేద",
        -9.62159303853755
      ],
      [
        "_జై",
        -9.621608503570176
      ],
      [
        "_యాప్",
        -9.623033146614146
      ],
      [
        "మంత",
        -9.62364611384116
      ],
      [
        "ముగా",
        -9.624174467229155
      ],
      [
        "_ముఖ",
        -9.62663900270618
      ],
      [
        "_అర్ధం",
        -9.626959946364787
      ],
      [
        "_కష్ట",
        -9.627456902069278
      ],
      [
        ".\"\n",
        -9.627857503851352
      ],
      [
        "_సరిగ్గా",
        -9.628068542800708
      ],
      [
        "_వెనక",
        -9.628169691108646
      ],
      [
        "స్లో",
        -9.629098952187132
      ],
      [
        "_జీవ",
        -9.629265035263883
      ],
      [
        ">",
        -9.629356067351234
      ],
      [
        "_వ్యక్తిగత",
        -9.6301012123736
      ],
      [
        "_త్రి",
        -9.630104072333882
      ],
      [
        "_సే",
        -9.630146247571545
      ],
      [
        "_చేసినట్లు",
        -9.63109139234548
      ],
      [
        "_అరెస్ట్",
        -9.631232439373054
      ],
      [
        "_అల్",
        -9.631346203100877
      ],
      [
        "_ఈయన",
        -9.63139984340133
      ],
      [
        "_ఏక",
        -9.631413078190162
      ],
      [
        "_కావ",
        -9.632351110771193
      ],
      [
        "వచ్చని",
        -9.633837402646709
      ],
      [
        "_స్థానం",
        -9.634062762346616
      ],
      [
        "పోతుంది.",
        -9.634292849673011
      ],
      [
        "ట్టే",
        -9.634429438616902
      ],
      [
        "_ప్రణాళిక",
        -9.634944157168869
      ],
      [
        "_అంగీకరించ",
        -9.634957995041653
      ],
      [
        "_డా",
        -9.635478612615069
      ],
      [
        "_టాప్",
        -9.635512735898287
      ],
      [
        "ర్ల",
        -9.63568975752403
      ],
      [
        "_అర్ధ",
        -9.63616282686927
      ],
      [
        "_టెస్టు",
        -9.636685385931768
      ],
      [
        "_కీ",
        -9.637120300232395
      ],
      [
        "_వేసిన",
        -9.637396068290046
      ],
      [
        "ya",
        -9.637510260193674
      ],
      [
        "_నిపుణులు",
        -9.637641876682935
      ],
      [
        "_you",
        -9.638501765045632
      ],
      [
        "_ఘన",
        -9.638739953605224
      ],
      [
        "_అవుతోంది.",
        -9.638820209442228
      ],
      [
        "ఫై",
        -9.638881246308129
      ],
      [
        "_మంద",
        -9.639010917355154
      ],
      [
        "ుకోవాలి.",
        -9.639018415202354
      ],
      [
        "_లక్షణాలు",
        -9.639429917987108
      ],
      [
        "_తీసుకు",
        -9.639597693014716
      ],
      [
        "_పేర్కొంది.",
        -9.639653771622184
      ],
      [
        "_వార్త",
        -9.63971703225122
      ],
      [
        "చేశా",
        -9.640243901006217
      ],
      [
        "_తేదీన",
        -9.640610768097256
      ],
      [
        "_వరుస",
        -9.640946526004841
      ],
      [
        "డూ",
        -9.641007750072191
      ],
      [
        "ఫె",
        -9.641302804787864
      ],
      [
        "ర్ధ",
        -9.642175884088408
      ],
      [
        "_అదనపు",
        -9.642181935083293
      ],
      [
        "_డాక్టరు",
        -9.642276733933308
      ],
      [
        "_చాలామంది",
        -9.64235615388291
      ],
      [
        "_రాజీనామా",
        -9.642386616183842
      ],
      [
        "మ్మా",
        -9.642584897710837
      ],
      [
        "_కేటాయించ",
        -9.642984025588085
      ],
      [
        "ర్లు",
        -9.643156584279046
      ],
      [
        "ఫర్",
        -9.64345925080351
      ],
      [
        "47",
        -9.64415530616513
      ],
      [
        "_భావ",
        -9.644346804955767
      ],
      [
        "ుతున్నారు.",
        -9.645244279579934
      ],
      [
        "_పంచాయతీ",
        -9.645450078303941
      ],
      [
        "_రూపొందించ",
        -9.645663411432302
      ],
      [
        "_నగరం",
        -9.64603482811087
      ],
      [
        "_అగ్ర",
        -9.646430940362661
      ],
      [
        "_తెలుసు.",
        -9.646537516730325
      ],
      [
        "లన్నీ",
        -9.64710439415142
      ],
      [
        "ుకొన్న",
        -9.647357062971253
      ],
      [
        "_పరా",
        -9.648037029854649
      ],
      [
        "_ఎటువంటి",
        -9.64804944693507
      ],
      [
        "_గంటలకు",
        -9.648709525382555
      ],
      [
        "పడ్డ",
        -9.649160908581022
      ],
      [
        "_చేతులు",
        -9.649189845795558
      ],
      [
        "కాశ",
        -9.649335947500775
      ],
      [
        "_కెరీర్",
        -9.649386125331652
      ],
      [
        "_రాశి",
        -9.649745781022302
      ],
      [
        "_రైతులకు",
        -9.650080028260318
      ],
      [
        "_ఆధునిక",
        -9.65015899268798
      ],
      [
        "_ఆలయ",
        -9.65056305853857
      ],
      [
        "ద్ధ",
        -9.65065124256536
      ],
      [
        "బంధ",
        -9.650891132661773
      ],
      [
        "_యుద్ధం",
        -9.651211155613312
      ],
      [
        "_సారి",
        -9.651317816211298
      ],
      [
        "_వెనక్కి",
        -9.651425769043742
      ],
      [
        "ర్తి",
        -9.652457465283616
      ],
      [
        "_పురుషుల",
        -9.652514700388316
      ],
      [
        "_నష్టం",
        -9.652801074104095
      ],
      [
        "_కుమార్తె",
        -9.653236280712921
      ],
      [
        "_ఒకసారి",
        -9.65468718947709
      ],
      [
        "_2016",
        -9.655728833428899
      ],
      [
        "_డిసెంబర్",
        -9.65606066010253
      ],
      [
        "నై",
        -9.657127715293578
      ],
      [
        "_అర",
        -9.657398653804616
      ],
      [
        "_సహజ",
        -9.657527461624445
      ],
      [
        "నింగ్",
        -9.658157927090114
      ],
      [
        "_సెల్",
        -9.658642665441795
      ],
      [
        "_లోపల",
        -9.658642706351984
      ],
      [
        "రావు,",
        -9.658845837775024
      ],
      [
        "_హో",
        -9.65889237804458
      ],
      [
        "_అత్యధిక",
        -9.659256501737055
      ],
      [
        "వలసిన",
        -9.659626028330237
      ],
      [
        "_\"ఇ",
        -9.659871594571243
      ],
      [
        "_వయసు",
        -9.660175551231768
      ],
      [
        "_ఫస్ట్",
        -9.66029304391348
      ],
      [
        "పోయాయి.",
        -9.660489573277399
      ],
      [
        "_ట్రాక్టర్లున్న",
        -9.661282773252703
      ],
      [
        "నైనా",
        -9.661397105009502
      ],
      [
        "_on",
        -9.661630140641163
      ],
      [
        "_చెప్పే",
        -9.661922854979686
      ],
      [
        "_సభ్యుల",
        -9.662919066886948
      ],
      [
        "_వ్యతిరేక",
        -9.663307992955373
      ],
      [
        "ల్డ్",
        -9.663883193110866
      ],
      [
        "ుడు.",
        -9.664319404275108
      ],
      [
        "_వ్యక్తులు",
        -9.66517422408434
      ],
      [
        "_వేరే",
        -9.665933309498467
      ],
      [
        "_తెల్ల",
        -9.666313060269
      ],
      [
        "_బూ",
        -9.666753646829667
      ],
      [
        "_ఖాళీ",
        -9.6668690523774
      ],
      [
        "_పార్టీలో",
        -9.667807431644606
      ],
      [
        "పల్లిలో",
        -9.667875889901193
      ],
      [
        "_గ్రా",
        -9.668221595572044
      ],
      [
        "ద్య",
        -9.668752087528699
      ],
      [
        "_చేసుకున్నారు.",
        -9.668974371738216
      ],
      [
        "_రై",
        -9.669148447397923
      ],
      [
        "_అక్క",
        -9.669856173971937
      ],
      [
        "దురు",
        -9.670003167406398
      ],
      [
        "_అంటున్నారు.",
        -9.670302335237844
      ],
      [
        "_దొంగ",
        -9.670487046794822
      ],
      [
        "తర",
        -9.670825333911457
      ],
      [
        "_ఐటీ",
        -9.671464037369384
      ],
      [
        "_చెప్పారు.\n",
        -9.671489351737616
      ],
      [
        "_లక్షలు",
        -9.671789854261004
      ],
      [
        "ుకునేందుకు",
        -9.672573251919783
      ],
      [
        "కుంట",
        -9.674541446208256
      ],
      [
        "_జైలు",
        -9.674936053776
      ],
      [
        "యస్",
        -9.674991132748106
      ],
      [
        "జన్",
        -9.675216196794567
      ],
      [
        "_మధ్యలో",
        -9.675559443143268
      ],
      [
        "_గట్టిగా",
        -9.675666305084142
      ],
      [
        "_పైకి",
        -9.676638595723254
      ],
      [
        "_ప్రభాస్",
        -9.676900060089014
      ],
      [
        "టె",
        -9.67695551368319
      ],
      [
        "గడ్డ",
        -9.677304633311378
      ],
      [
        "రాలు",
        -9.677340013813039
      ],
      [
        "_హోదా",
        -9.677553378360212
      ],
      [
        "_బు",
        -9.677576144037484
      ],
      [
        "43",
        -9.677760023750157
      ],
      [
        "గల్",
        -9.679783914167192
      ],
      [
        "_పరిశ్రమ",
        -9.67987196424982
      ],
      [
        "_చెప్పు",
        -9.680045093753177
      ],
      [
        "_ఉన్నప్పుడు",
        -9.680499799072212
      ],
      [
        "_నిజానికి",
        -9.68068335532324
      ],
      [
        "_కలిగించ",
        -9.680700262599185
      ],
      [
        "_ప్రదర్శించ",
        -9.681177183546009
      ],
      [
        "!\n\n",
        -9.6816846634941
      ],
      [
        "_2014",
        -9.681844267123186
      ],
      [
        "_పరీక్షలు",
        -9.683017149530176
      ],
      [
        "ింప",
        -9.683427922773685
      ],
      [
        "_నేర",
        -9.683525076876014
      ],
      [
        "_మార్పులు",
        -9.684233295479252
      ],
      [
        "_పుట్టిన",
        -9.68433973236329
      ],
      [
        "ు.",
        -9.684543649469875
      ],
      [
        "_విద్యార్థుల",
        -9.684649700960772
      ],
      [
        "_కళ్ళ",
        -9.684725344151184
      ],
      [
        "_రాష్ట్రం,",
        -9.685650205331957
      ],
      [
        "_సాహిత్య",
        -9.685684179177406
      ],
      [
        "_ఆరోపణలు",
        -9.685855278830159
      ],
      [
        "_సరే",
        -9.685888058771932
      ],
      [
        "ుండగా",
        -9.685975508423518
      ],
      [
        "లిక",
        -9.686022472582424
      ],
      [
        "_లేకపోతే",
        -9.68620899640878
      ],
      [
        "_పోషణ",
        -9.68621869732787
      ],
      [
        "_లె",
        -9.68657288984864
      ],
      [
        "_'అ",
        -9.6866242045203
      ],
      [
        "పోయాడు.",
        -9.686848459545583
      ],
      [
        "_ప్రియ",
        -9.687078660169865
      ],
      [
        "_రంగంలో",
        -9.687247696169198
      ],
      [
        "_ఆదాయం",
        -9.68753811069757
      ],
      [
        "ak",
        -9.68816497428079
      ],
      [
        "_2019",
        -9.688186147877916
      ],
      [
        "వల",
        -9.688931117108245
      ],
      [
        "_తీసుకోవాలని",
        -9.689127282608062
      ],
      [
        "_తిన",
        -9.689604160907596
      ],
      [
        "ారా?",
        -9.689713341656281
      ],
      [
        "_వాయిదా",
        -9.69001137521431
      ],
      [
        "ేశారు.",
        -9.690627223039014
      ],
      [
        "_ఇరు",
        -9.690958606220871
      ],
      [
        "_నియమించ",
        -9.691322184618526
      ],
      [
        "_నర",
        -9.691379592969387
      ],
      [
        "_రూపాయలు",
        -9.69157113643347
      ],
      [
        "_ష",
        -9.69180366434044
      ],
      [
        "_స్వయంగా",
        -9.6919641712797
      ],
      [
        "_నివాస",
        -9.692132356100835
      ],
      [
        "_అప",
        -9.692335492045242
      ],
      [
        "_రాసిన",
        -9.692728538897283
      ],
      [
        "sh",
        -9.692818134039017
      ],
      [
        "_హు",
        -9.692833648252382
      ],
      [
        "_సాధించిన",
        -9.693622258137644
      ],
      [
        "కేంద్రాలు,",
        -9.694033956024553
      ],
      [
        "_నో",
        -9.694284125534757
      ],
      [
        "_పెట్టిన",
        -9.694834759372103
      ],
      [
        "దర",
        -9.694913656334823
      ],
      [
        "మంతా",
        -9.695457704200669
      ],
      [
        "_యాత్ర",
        -9.69574063938825
      ],
      [
        "_వర",
        -9.695792022511252
      ],
      [
        "_చెప్పాడు.",
        -9.697632926446015
      ],
      [
        "op",
        -9.697695775077861
      ],
      [
        "_ఖమ్మం",
        -9.697712762553724
      ],
      [
        "ుందని",
        -9.698140109554386
      ],
      [
        "_శంకర్",
        -9.698222261925991
      ],
      [
        "ును.",
        -9.698247978349821
      ],
      [
        "_డబ్బులు",
        -9.698431325849823
      ],
      [
        "_ఎవరైనా",
        -9.698646536798844
      ],
      [
        "_వారిలో",
        -9.698714155355082
      ],
      [
        "_గొ",
        -9.699008021211108
      ],
      [
        "_బిజినెస్",
        -9.699120439725734
      ],
      [
        "_ప్రాణ",
        -9.699983215474543
      ],
      [
        "_పాత్రలో",
        -9.699995645629475
      ],
      [
        "_నగరంలో",
        -9.700022690630496
      ],
      [
        "_ఎమ్మెల్సీ",
        -9.700762215322179
      ],
      [
        "తల",
        -9.701135810286953
      ],
      [
        "రాం",
        -9.70125893039407
      ],
      [
        "_తెలుసు",
        -9.701511717260011
      ],
      [
        "_యువత",
        -9.701526043058713
      ],
      [
        "_వివరించ",
        -9.702807536913104
      ],
      [
        "_ఈమె",
        -9.70288653564572
      ],
      [
        "ొ",
        -9.703205691104042
      ],
      [
        "మాన్",
        -9.703227550293617
      ],
      [
        "us",
        -9.703252556939239
      ],
      [
        "_ప్రాజెక్ట్",
        -9.703255001954686
      ],
      [
        "కాలు",
        -9.703261357529302
      ],
      [
        "_సినిమాల్లో",
        -9.703679529334403
      ],
      [
        "_రక్షించ",
        -9.703686942765042
      ],
      [
        "రాల",
        -9.703991765317522
      ],
      [
        "_తరలించ",
        -9.704148455925294
      ],
      [
        "_అధికంగా",
        -9.704514484219589
      ],
      [
        "_ప్రశ్నించ",
        -9.704655747847317
      ],
      [
        "బూ",
        -9.704768771179118
      ],
      [
        "_ధరలు",
        -9.704774939087175
      ],
      [
        "_ఇష్టం",
        -9.705814870997438
      ],
      [
        "ెంట్",
        -9.706804490906638
      ],
      [
        "vi",
        -9.706871182511284
      ],
      [
        "వాళ్ళు",
        -9.706949137093147
      ],
      [
        "ూ,",
        -9.707272940843163
      ],
      [
        "_ఆనంద",
        -9.708088238499315
      ],
      [
        "_కదా",
        -9.708134357722923
      ],
      [
        "_నిజం",
        -9.708524835717698
      ],
      [
        "_విన్న",
        -9.708822991534285
      ],
      [
        "_నుంచే",
        -9.709171337278834
      ],
      [
        "_వదిలి",
        -9.709190144553743
      ],
      [
        "_జూ",
        -9.709415132395277
      ],
      [
        "_కూతురు",
        -9.709580865699188
      ],
      [
        "_వివాహ",
        -9.70987447488713
      ],
      [
        "56",
        -9.710018037733134
      ],
      [
        "_తెలుగుదేశం",
        -9.710776623374965
      ],
      [
        "తరచుగా",
        -9.710899628417193
      ],
      [
        "_కార్యక్రమాలు",
        -9.711436553094467
      ],
      [
        "_ఫలితంగా",
        -9.711450768650858
      ],
      [
        "యాన్",
        -9.71153426339251
      ],
      [
        "_శాంతి",
        -9.711764322904607
      ],
      [
        "_తమిళనాడు",
        -9.712615664597614
      ],
      [
        "_నలుగురు",
        -9.712910704653373
      ],
      [
        "_చర్య",
        -9.713019031887535
      ],
      [
        "_నెల్లూరు",
        -9.713174984106605
      ],
      [
        "స్టా",
        -9.713217151701256
      ],
      [
        "మల్",
        -9.713331694000255
      ],
      [
        "_వరుసగా",
        -9.713504378448919
      ],
      [
        "_ఇచ్చింది.",
        -9.71397422678216
      ],
      [
        "as",
        -9.714065950983477
      ],
      [
        "_వాడు",
        -9.714145412888623
      ],
      [
        "త్వరలోనే",
        -9.71450219093595
      ],
      [
        "_లెక్క",
        -9.714653242280107
      ],
      [
        "షు",
        -9.714804638135147
      ],
      [
        "_వర్గాల",
        -9.71495241791019
      ],
      [
        "_ఉన్నాయి",
        -9.715411075128083
      ],
      [
        "_కొంచెం",
        -9.715524928203246
      ],
      [
        "వాడి",
        -9.715751745097972
      ],
      [
        "_పరిస్థితులు",
        -9.716218171000651
      ],
      [
        "_భద్రత",
        -9.71667909484676
      ],
      [
        "ినప్పుడు",
        -9.717298142719521
      ],
      [
        "_ఇందుకు",
        -9.717353638504523
      ],
      [
        "_ఇల్లు",
        -9.7173910842524
      ],
      [
        "?\"\n",
        -9.717411851306188
      ],
      [
        "కపోవడం",
        -9.717500377341084
      ],
      [
        "_సమర్పించ",
        -9.717664909762272
      ],
      [
        "_సీత",
        -9.717700967940353
      ],
      [
        "మాన",
        -9.718304678400473
      ],
      [
        "_అక్టోబరు",
        -9.718644179293078
      ],
      [
        "_సిటీ",
        -9.718981158331275
      ],
      [
        "_పెద్దగా",
        -9.719225964531685
      ],
      [
        "200",
        -9.719227896326743
      ],
      [
        "_చరణ్",
        -9.719475071428347
      ],
      [
        "_రాజ్య",
        -9.71977031200724
      ],
      [
        "_దూర",
        -9.719990108143978
      ],
      [
        "ారన్నారు.",
        -9.720322595964346
      ],
      [
        "_ఉన్నాయని",
        -9.721088613957749
      ],
      [
        "_చర్చించ",
        -9.721261942958455
      ],
      [
        "_నరేంద్ర",
        -9.721732393182544
      ],
      [
        "ఒక",
        -9.722214553044369
      ],
      [
        "_థియేటర్",
        -9.722648783879828
      ],
      [
        "_జనం",
        -9.72282341897718
      ],
      [
        "క్రమంగా",
        -9.722972850194056
      ],
      [
        "_జనరల్",
        -9.723194053187429
      ],
      [
        "ల్లి",
        -9.723688330333715
      ],
      [
        "_లక్ష",
        -9.724219360730253
      ],
      [
        "_ఉన్నాయి.\n",
        -9.724820913742949
      ],
      [
        "_విత్త",
        -9.725747715607696
      ],
      [
        "_ఇంటర్",
        -9.72575819625782
      ],
      [
        "\nసమీప",
        -9.726072806088492
      ],
      [
        "_హాట్",
        -9.726346949479458
      ],
      [
        "బహిరంగంగా",
        -9.727366943634097
      ],
      [
        "_సేవలు",
        -9.728146143078412
      ],
      [
        "14",
        -9.728734171930071
      ],
      [
        "_ఉండాలని",
        -9.729013304548346
      ],
      [
        "_is",
        -9.729019243943288
      ],
      [
        "_ఫై",
        -9.729074638976419
      ],
      [
        "_సెప్టెంబర్",
        -9.730499056421902
      ],
      [
        "_విడుదలైన",
        -9.730883115562017
      ],
      [
        "పోవడం",
        -9.731428077735183
      ],
      [
        "ిస్తున్నారు.",
        -9.731620792909187
      ],
      [
        "_2023",
        -9.731936343574679
      ],
      [
        "_కన్",
        -9.731958345798425
      ],
      [
        "_వర్మ",
        -9.73323370557937
      ],
      [
        "_చైతన్య",
        -9.733529896566864
      ],
      [
        "_ప్రైవేట్",
        -9.733658612223474
      ],
      [
        "_ఛ",
        -9.734285448936031
      ],
      [
        "_విమర్శించారు.",
        -9.734381942632426
      ],
      [
        "హిత",
        -9.734557363232849
      ],
      [
        "స్తో",
        -9.735189777862889
      ],
      [
        "_కెప్టెన్",
        -9.735457287048929
      ],
      [
        "ja",
        -9.735641671158199
      ],
      [
        "_ఉమ్మడి",
        -9.736288255039215
      ],
      [
        "_గి",
        -9.736357495733435
      ],
      [
        "_డేటా",
        -9.73704750143718
      ],
      [
        "ent",
        -9.737488171636965
      ],
      [
        "_కన్న",
        -9.737492917392673
      ],
      [
        "_మహారాష్ట్ర",
        -9.737616519757818
      ],
      [
        "వాద",
        -9.737765149883264
      ],
      [
        "_తెలిసింది.",
        -9.738199648125244
      ],
      [
        "_స్వీకరించ",
        -9.73843439280442
      ],
      [
        "వలసి",
        -9.738863144541574
      ],
      [
        "నాయక",
        -9.739050108902136
      ],
      [
        "ూర్",
        -9.74012846097363
      ],
      [
        "_సంబంధిత",
        -9.74014599008584
      ],
      [
        "_ఫొటో",
        -9.740224771501447
      ],
      [
        "_మొక్క",
        -9.74060517651256
      ],
      [
        "_రేవంత్",
        -9.740625632123438
      ],
      [
        "_లేవు.",
        -9.740848895802646
      ],
      [
        "_అక్కడే",
        -9.741722695253438
      ],
      [
        "_నాయుడు",
        -9.742874369275896
      ],
      [
        "_ఉద్యోగుల",
        -9.743228312691954
      ],
      [
        "_నిలబడి",
        -9.743354851121017
      ],
      [
        "_దాట",
        -9.743367239121202
      ],
      [
        "_ఒక్కో",
        -9.743701408032136
      ],
      [
        "_అయ్యారు.",
        -9.74403237492829
      ],
      [
        "_నిధులు",
        -9.744585488875211
      ],
      [
        "_కవిత",
        -9.744663428562289
      ],
      [
        "-2",
        -9.744729215001708
      ],
      [
        "_వ్య",
        -9.745500386149944
      ],
      [
        "_సుఖ",
        -9.745924946784914
      ],
      [
        "_కళా",
        -9.746035135051953
      ],
      [
        "_యె",
        -9.746501368377771
      ],
      [
        "వార",
        -9.746523170087563
      ],
      [
        "_వరి",
        -9.746702980264265
      ],
      [
        "_నేటి",
        -9.747230095687367
      ],
      [
        "_అధికారుల",
        -9.747352885208013
      ],
      [
        "సిస్",
        -9.747870040607559
      ],
      [
        "_తల్లిదండ్రులు",
        -9.748030884188694
      ],
      [
        "భి",
        -9.748185002202199
      ],
      [
        "_హైదరాబాదు",
        -9.748354534417901
      ],
      [
        "_మెగా",
        -9.748476787659332
      ],
      [
        "హు",
        -9.748771730680795
      ],
      [
        "గ్గ",
        -9.74906535532016
      ],
      [
        "_సెట్",
        -9.749066538158708
      ],
      [
        "_తీసుకొని",
        -9.749707699836508
      ],
      [
        "_చేపట్టిన",
        -9.750073431301393
      ],
      [
        "ter",
        -9.75057375572708
      ],
      [
        "_విదేశీ",
        -9.75064258787596
      ],
      [
        "49",
        -9.750733014111123
      ],
      [
        "ంక్",
        -9.750981042201907
      ],
      [
        "ించడం",
        -9.75129121322721
      ],
      [
        "_చెప్పింది.",
        -9.751762390966226
      ],
      [
        "_అనుమానం",
        -9.752833624782472
      ],
      [
        "_వైద్యులు",
        -9.752930091653642
      ],
      [
        "_ఖాతా",
        -9.753298525359696
      ],
      [
        "_హెచ్",
        -9.753581107616549
      ],
      [
        "95",
        -9.753780498211013
      ],
      [
        "_వరల్డ్",
        -9.755346507807385
      ],
      [
        "_మండలంలో",
        -9.755735020263097
      ],
      [
        "ః\n",
        -9.755894606351248
      ],
      [
        "ాడో",
        -9.756048854705536
      ],
      [
        "_అన్",
        -9.756592515475667
      ],
      [
        "నాథ",
        -9.756735585321223
      ],
      [
        "_రీ",
        -9.757320930876006
      ],
      [
        "కొని",
        -9.757621054368773
      ],
      [
        "_గారు",
        -9.758559697183527
      ],
      [
        "_మర",
        -9.758777261556297
      ],
      [
        "_జుట్టు",
        -9.758887868143699
      ],
      [
        "_ఉత్పత్తులు",
        -9.758976473166515
      ],
      [
        "_నిర్మించిన",
        -9.759289671387313
      ],
      [
        "పర",
        -9.759525832553663
      ],
      [
        "_ఇద్దరి",
        -9.759767379602742
      ],
      [
        "_నిన్న",
        -9.759783682271372
      ],
      [
        "పోయారు.",
        -9.759881522865175
      ],
      [
        "ేసింది.",
        -9.7599788719215
      ],
      [
        "_పంటలు",
        -9.760316039404312
      ],
      [
        "స్తాయి.",
        -9.760339475297059
      ],
      [
        "_ఏకంగా",
        -9.760991385798809
      ],
      [
        "_చేసారు.",
        -9.761404589163707
      ],
      [
        "39",
        -9.761957665969398
      ],
      [
        "_సూ",
        -9.762015152074504
      ],
      [
        "_నగర్",
        -9.762172031791517
      ],
      [
        "దాని",
        -9.762242347356809
      ],
      [
        "_ఏర్పాట్లు",
        -9.762247794264457
      ],
      [
        "_నాయకుడు",
        -9.762356804124499
      ],
      [
        "_అతన్ని",
        -9.76273007410084
      ],
      [
        "_అక్టోబర్",
        -9.762865506918503
      ],
      [
        "_పర్",
        -9.762869035899017
      ],
      [
        "_టెక్నాలజీ",
        -9.762954290484824
      ],
      [
        "_వెబ్",
        -9.763299909116633
      ],
      [
        "మన్న",
        -9.763830909386837
      ],
      [
        "_అల్లు",
        -9.763878810384657
      ],
      [
        "_టై",
        -9.763921832653304
      ],
      [
        "_వివరాల",
        -9.764308300147958
      ],
      [
        "_జనసేన",
        -9.765009879712231
      ],
      [
        "_కార్డు",
        -9.765182543702586
      ],
      [
        "_రాష్ట్రాల్లో",
        -9.766513631270822
      ],
      [
        "21",
        -9.766601978038858
      ],
      [
        "_నియంత్రణ",
        -9.767030092351394
      ],
      [
        "_డ్రైవర్",
        -9.767127438405351
      ],
      [
        "టన్",
        -9.767661665290557
      ],
      [
        "ణు",
        -9.767716230853601
      ],
      [
        "_re",
        -9.767940253067971
      ],
      [
        "_పాకిస్తాన్",
        -9.76823901619297
      ],
      [
        "_ఎండ",
        -9.768452906464208
      ],
      [
        "_ఇటు",
        -9.769143112717096
      ],
      [
        "_ఆల్",
        -9.769859335429599
      ],
      [
        "_వేదిక",
        -9.770004416431345
      ],
      [
        "ెను.",
        -9.77025451110826
      ],
      [
        "నల్",
        -9.771583492414853
      ],
      [
        "_మగ",
        -9.771693458908363
      ],
      [
        "_వ్యాపారం",
        -9.771712366832451
      ],
      [
        "ింపు",
        -9.771967564780908
      ],
      [
        "తరం",
        -9.772111894950763
      ],
      [
        "_ఒకటి.",
        -9.772265566586436
      ],
      [
        "_అనిపించ",
        -9.772442310011833
      ],
      [
        "_దశలో",
        -9.773044778376725
      ],
      [
        "_చేరి",
        -9.774331149019412
      ],
      [
        "_కమిషనర్",
        -9.775193157448772
      ],
      [
        "_వాళ్లు",
        -9.776006092557909
      ],
      [
        "భాగ",
        -9.776136839390947
      ],
      [
        "_నేషనల్",
        -9.776408548325564
      ],
      [
        "_డై",
        -9.776465679234235
      ],
      [
        "_హిందీ",
        -9.776487337464228
      ],
      [
        "_ప్రయత్నాలు",
        -9.776508057539457
      ],
      [
        "_విష",
        -9.77671550686728
      ],
      [
        "_J",
        -9.776932750406958
      ],
      [
        "_చేశారని",
        -9.77743689644772
      ],
      [
        "కూడదు.",
        -9.777515298197939
      ],
      [
        "_రాష్ట్రంలోని",
        -9.777995948390089
      ],
      [
        "46",
        -9.778323286475782
      ],
      [
        "_ప్రతీ",
        -9.778764103877851
      ],
      [
        "\n\nమూలాలు",
        -9.778861131980467
      ],
      [
        "నది",
        -9.778866007331173
      ],
      [
        "ాయ్",
        -9.779210503840803
      ],
      [
        "లోపు",
        -9.779669532866095
      ],
      [
        "డింగ్",
        -9.779872734413622
      ],
      [
        "_సిద్ధంగా",
        -9.780283605339868
      ],
      [
        "_చేసి,",
        -9.781120029848896
      ],
      [
        "ందరూ",
        -9.781420578294837
      ],
      [
        "మల",
        -9.781788515976366
      ],
      [
        "ండ్ల",
        -9.781805147994918
      ],
      [
        "కంటే",
        -9.7825371229338
      ],
      [
        "బడుతుంది.",
        -9.782799748151882
      ],
      [
        "_?\n",
        -9.782995502260825
      ],
      [
        "ట్రా",
        -9.784228101023302
      ],
      [
        "_\"నా",
        -9.784234902830109
      ],
      [
        "\n\nప్రభుత్వ",
        -9.784794264588223
      ],
      [
        "మణి",
        -9.785316092488952
      ],
      [
        "_t",
        -9.785820196729993
      ],
      [
        "_వినిపించ",
        -9.785912835896497
      ],
      [
        "_be",
        -9.786306418511098
      ],
      [
        "_గ్రూప్",
        -9.787034824279576
      ],
      [
        "_చేస్తామని",
        -9.787407628153804
      ],
      [
        "_బెంగళూరు",
        -9.787728620974294
      ],
      [
        "_తీయ",
        -9.787933390073006
      ],
      [
        "_అర్జున్",
        -9.78796207913807
      ],
      [
        "_అప్పుడే",
        -9.788406380698717
      ],
      [
        "_అయ్యే",
        -9.788552172572446
      ],
      [
        "దర్శ",
        -9.78883212112017
      ],
      [
        "_సరిహద్దు",
        -9.78964543096057
      ],
      [
        "దన",
        -9.789855816341115
      ],
      [
        "id",
        -9.790001808298587
      ],
      [
        "_వర్గాలు",
        -9.790050055884533
      ],
      [
        "_సందర్భంలో",
        -9.790377126639694
      ],
      [
        "కర్త",
        -9.790487215443644
      ],
      [
        "_ఆగ్రహం",
        -9.790524736493442
      ],
      [
        "_అప్",
        -9.790899177777302
      ],
      [
        "_చల్ల",
        -9.790925365789636
      ],
      [
        "_పూజ",
        -9.791230380923176
      ],
      [
        "_కళ",
        -9.79185428366955
      ],
      [
        "24",
        -9.792654411921369
      ],
      [
        "స్ట",
        -9.792704207686766
      ],
      [
        "_రేటు",
        -9.794487265250217
      ],
      [
        "లోంచి",
        -9.79484755134468
      ],
      [
        "_మాటల",
        -9.795071498964115
      ],
      [
        "ట.",
        -9.795080247821915
      ],
      [
        "_ఇవ్వడం",
        -9.795081609121826
      ],
      [
        "_ఉపాధి",
        -9.795847356618943
      ],
      [
        "_చేసింది",
        -9.796158017912584
      ],
      [
        "_వహించ",
        -9.796242668851253
      ],
      [
        "_బిజెపి",
        -9.79693935696079
      ],
      [
        "_భక్తులు",
        -9.797017680309068
      ],
      [
        "_తీసుకున్నారు.",
        -9.797052270991829
      ],
      [
        "బోరుబావుల",
        -9.797262198944072
      ],
      [
        "_వాతావరణం",
        -9.797936525202212
      ],
      [
        "_రచన",
        -9.798311368455153
      ],
      [
        "_గ్రామం.",
        -9.798427374572077
      ],
      [
        "_సేవల",
        -9.798429175915052
      ],
      [
        "_2022",
        -9.798744855975759
      ],
      [
        "_ఓవర్",
        -9.798832854808541
      ],
      [
        "_జాగ్రత్తగా",
        -9.799170935440705
      ],
      [
        "రేషన్",
        -9.799229430424033
      ],
      [
        "_నేతల",
        -9.799626681281337
      ],
      [
        "_జరుగుతోంది.\n\n",
        -9.79999925578136
      ],
      [
        "స్య",
        -9.800142786342116
      ],
      [
        "లోపే",
        -9.800362206571451
      ],
      [
        "_మానసిక",
        -9.800594630142546
      ],
      [
        "_పంపించ",
        -9.80094519177795
      ],
      [
        "_అవసరం.",
        -9.801296219536306
      ],
      [
        "_చాట",
        -9.802177100143732
      ],
      [
        "_టీమ్",
        -9.802817571786182
      ],
      [
        "_చేసింది.\n",
        -9.802936844281943
      ],
      [
        "_కనబడ",
        -9.803196491871383
      ],
      [
        "_పోరాడ",
        -9.80344876822432
      ],
      [
        "_కాదు,",
        -9.803859643860083
      ],
      [
        "వంత",
        -9.803904057289389
      ],
      [
        "_చింత",
        -9.803915875451887
      ],
      [
        "_పనుల",
        -9.804055251239735
      ],
      [
        "_మందు",
        -9.804289010932589
      ],
      [
        "థా",
        -9.804342500614911
      ],
      [
        "వడ",
        -9.804411172214087
      ],
      [
        "పాలెం",
        -9.804548901334291
      ],
      [
        "ణీ",
        -9.805489576912874
      ],
      [
        "_వర్షం",
        -9.80549059177409
      ],
      [
        "\nఇ",
        -9.805714793754005
      ],
      [
        "పోవ",
        -9.805778343303757
      ],
      [
        "మయ్య",
        -9.80586934821559
      ],
      [
        "_నాణ్యత",
        -9.805952637723935
      ],
      [
        "_O",
        -9.806783570019224
      ],
      [
        "_తేడా",
        -9.806926640024685
      ],
      [
        "ుడిని",
        -9.806936615626
      ],
      [
        "తనం",
        -9.807082362089957
      ],
      [
        "సేపు",
        -9.807111485925223
      ],
      [
        "hi",
        -9.808679112231518
      ],
      [
        "and",
        -9.809262147720876
      ],
      [
        "_సహాయ",
        -9.810207678497564
      ],
      [
        "రూప",
        -9.812600904673275
      ],
      [
        "_వేడుక",
        -9.81281289821155
      ],
      [
        "_అవినీతి",
        -9.81318426497181
      ],
      [
        "_శాల",
        -9.813257117340994
      ],
      [
        "పూడి",
        -9.81364723578772
      ],
      [
        "de",
        -9.815127165642945
      ],
      [
        "_n",
        -9.815384351945657
      ],
      [
        "_బంగారు",
        -9.816026684788794
      ],
      [
        "_భారతదేశంలో",
        -9.816359203886181
      ],
      [
        "70",
        -9.816718569902575
      ],
      [
        "_నిజ",
        -9.816751914630949
      ],
      [
        "_చెబుతున్న",
        -9.816942181500561
      ],
      [
        "_జాగ్రత్త",
        -9.817126719681095
      ],
      [
        "ుతాయి.",
        -9.81738105973695
      ],
      [
        "జాల",
        -9.81744101611235
      ],
      [
        "_సంచలన",
        -9.817544352730165
      ],
      [
        "_చేతుల",
        -9.817987032340474
      ],
      [
        "ైంది.",
        -9.81885123136513
      ],
      [
        "ఈసారి",
        -9.819274137533759
      ],
      [
        "_వడ్డీ",
        -9.819461716989045
      ],
      [
        "సమాచార,",
        -9.819790787267264
      ],
      [
        "_బుక్",
        -9.819948033160173
      ],
      [
        "లేదు.\n",
        -9.820007850803874
      ],
      [
        "23",
        -9.820254354413192
      ],
      [
        "_నాగార్జున",
        -9.82033632342427
      ],
      [
        "కంగా",
        -9.821581361534108
      ],
      [
        "W",
        -9.821955491990272
      ],
      [
        "పట్ట",
        -9.8220256980359
      ],
      [
        "64",
        -9.822105942662379
      ],
      [
        "_పరిస్థితుల్లో",
        -9.823341137858604
      ],
      [
        "ున్నా",
        -9.823475826667833
      ],
      [
        "_కాలేజీ",
        -9.823521129458872
      ],
      [
        "_ప్రాణాలు",
        -9.823544742517498
      ],
      [
        "_తరలించారు.",
        -9.823754078688141
      ],
      [
        "నీయ",
        -9.823851479783455
      ],
      [
        "_m",
        -9.825110163380323
      ],
      [
        "చంద్ర",
        -9.825139208263693
      ],
      [
        "72",
        -9.825211224413215
      ],
      [
        "_చుట్ట",
        -9.825923911255934
      ],
      [
        "_కుల",
        -9.825941150263613
      ],
      [
        "_కొనసాగించ",
        -9.825999664623339
      ],
      [
        "ంటు",
        -9.826001804864962
      ],
      [
        "-1",
        -9.826266572858042
      ],
      [
        "పోత",
        -9.826367867152108
      ],
      [
        "_వేళ",
        -9.826755421232
      ],
      [
        "టెక్",
        -9.826896038096354
      ],
      [
        "_సంవత్సరాలు",
        -9.827100121707625
      ],
      [
        "చ్చు",
        -9.828184099639504
      ],
      [
        "ేశ్",
        -9.828260008871808
      ],
      [
        "_రాస",
        -9.828850342947263
      ],
      [
        "_మోస",
        -9.829213231135594
      ],
      [
        "_ఉన్నాడు.",
        -9.829944365853507
      ],
      [
        "_సందర్శించ",
        -9.830016672029101
      ],
      [
        "_స్వాధీనం",
        -9.831241491470019
      ],
      [
        "దేవ",
        -9.831590467680968
      ],
      [
        "_ఆస్ట్రేలియా",
        -9.832545778429793
      ],
      [
        "_విషయాల",
        -9.83290585734757
      ],
      [
        "_మధ్యాహ్నం",
        -9.83290854533023
      ],
      [
        "_మద్యం",
        -9.833066716874914
      ],
      [
        "_గుడ్",
        -9.833789049662714
      ],
      [
        "U",
        -9.83380249370302
      ],
      [
        "_తె",
        -9.834479256470708
      ],
      [
        "_భర్తీ",
        -9.834761446498531
      ],
      [
        "_ప్రకృతి",
        -9.834831932559203
      ],
      [
        "_గుజరాత్",
        -9.835614696217759
      ],
      [
        "_ఆదేశించారు.",
        -9.835665236803553
      ],
      [
        "_నిలిచి",
        -9.836150811791166
      ],
      [
        "_తీసుకోవడం",
        -9.836413460737456
      ],
      [
        "ావు",
        -9.837609755322827
      ],
      [
        "భు",
        -9.837642821024499
      ],
      [
        "పించ",
        -9.837686199467
      ],
      [
        "ru",
        -9.837770719140366
      ],
      [
        "_ఈనాడు",
        -9.838507698025584
      ],
      [
        "_బ్యాంకింగ",
        -9.839288584192134
      ],
      [
        "రాయ",
        -9.83946867438277
      ],
      [
        "_35",
        -9.839795529867782
      ],
      [
        "_పర్వత",
        -9.839899169038919
      ],
      [
        "_నాడు",
        -9.840803393890129
      ],
      [
        "_లక్ష్మీ",
        -9.841479839958073
      ],
      [
        "_పెడ",
        -9.841524801997767
      ],
      [
        "య్యే",
        -9.841898670344882
      ],
      [
        "_సక్సెస్",
        -9.842206085500285
      ],
      [
        "_పడింది.",
        -9.84228678254813
      ],
      [
        "_వాటిలో",
        -9.842384265661222
      ],
      [
        "_\"ఏ",
        -9.84251752013758
      ],
      [
        "రక",
        -9.842588786064589
      ],
      [
        "_నిజంగా",
        -9.842728906685856
      ],
      [
        "_లభిస్తున్న",
        -9.842771455979468
      ],
      [
        "_లుక్",
        -9.842776187969095
      ],
      [
        "_చదువ",
        -9.842780364939179
      ],
      [
        "_పూర్వ",
        -9.842872894451768
      ],
      [
        "im",
        -9.842913487772526
      ],
      [
        "_అంతేకాదు",
        -9.843108439035449
      ],
      [
        "భీ",
        -9.84312320153305
      ],
      [
        "ప్పటి",
        -9.843422793905791
      ],
      [
        "\n\nవిద్యుత్తు",
        -9.843430882413719
      ],
      [
        "ఖ్య",
        -9.843564576494314
      ],
      [
        "_ఎత్తున",
        -9.84358114081908
      ],
      [
        "_పేద",
        -9.843862815436475
      ],
      [
        "_సంఖ్యలో",
        -9.844116860730269
      ],
      [
        "_వుంట",
        -9.844187970293381
      ],
      [
        "_హె",
        -9.8445876515088
      ],
      [
        "_గుణ",
        -9.844602737000967
      ],
      [
        "_క్రింద",
        -9.844653191385367
      ],
      [
        "_తిరుమల",
        -9.844807077061816
      ],
      [
        "ండే",
        -9.845359261680523
      ],
      [
        "_ప్రవేశ",
        -9.845395488775809
      ],
      [
        "ానం",
        -9.845444384356318
      ],
      [
        "రాష్ట్ర",
        -9.845681793660832
      ],
      [
        "శీ",
        -9.845921110062834
      ],
      [
        "ప్రసాద్",
        -9.846092020782999
      ],
      [
        "_ఎర్ర",
        -9.846365819249375
      ],
      [
        "_గె",
        -9.846528320275008
      ],
      [
        "రియ",
        -9.84680503109539
      ],
      [
        "_తీస",
        -9.847906694201967
      ],
      [
        "_సినిమాతో",
        -9.848138239461973
      ],
      [
        "_పద్మ",
        -9.84852035883388
      ],
      [
        "దారు",
        -9.848836769949095
      ],
      [
        "వార్",
        -9.848969438879685
      ],
      [
        "జూ",
        -9.848972424317614
      ],
      [
        "\n\nపారిశుధ్యం",
        -9.849045059980396
      ],
      [
        "_ఇటువంటి",
        -9.849089913631905
      ],
      [
        "_రోడ్",
        -9.849228725772457
      ],
      [
        "_ఇస్తున్న",
        -9.849264799130589
      ],
      [
        "_పాటలు",
        -9.84963864624443
      ],
      [
        "నట్లు",
        -9.850151453945292
      ],
      [
        "చో",
        -9.850159322870793
      ],
      [
        "_జరిగి",
        -9.850752732764988
      ],
      [
        "_నింప",
        -9.850753933701531
      ],
      [
        "జయ",
        -9.850831406653976
      ],
      [
        "\n\nతాగు",
        -9.85097235313567
      ],
      [
        "_హౌస్",
        -9.851021972613653
      ],
      [
        "\n\nమార్కెటింగు",
        -9.851077163956429
      ],
      [
        "_అడగ",
        -9.85108080710549
      ],
      [
        "_కారణమ",
        -9.851758460294487
      ],
      [
        "_ఫ్యాన్స్",
        -9.8523759579638
      ],
      [
        "రస",
        -9.852509099374974
      ],
      [
        "_d",
        -9.852588265739469
      ],
      [
        "_చెట్టు",
        -9.852984120972557
      ],
      [
        "_అనుగుణంగా",
        -9.853255176854967
      ],
      [
        "22",
        -9.85331886843568
      ],
      [
        "_0.",
        -9.853731176024542
      ],
      [
        "_మంత్రులు",
        -9.853973415928511
      ],
      [
        "_బదిలీ",
        -9.85432449870791
      ],
      [
        "_బాధ్యతలు",
        -9.85437176671363
      ],
      [
        "_కావాలని",
        -9.854528031484863
      ],
      [
        "ములను",
        -9.855655191632712
      ],
      [
        "ొక్క",
        -9.85587044158909
      ],
      [
        "దగ్గ",
        -9.856023886892963
      ],
      [
        "_మోడల్",
        -9.856258497125644
      ],
      [
        "_ఒకరి",
        -9.856466573982404
      ],
      [
        "_శుభ",
        -9.856769880537309
      ],
      [
        "_స్పందించ",
        -9.857348369018595
      ],
      [
        "\n\nఆరోగ్యం,",
        -9.857621355814798
      ],
      [
        "_ప్రాధాన్యత",
        -9.85798580714043
      ],
      [
        "_బంగారం",
        -9.858251826603315
      ],
      [
        "_నటిస్తున్న",
        -9.858253978243239
      ],
      [
        "_దీప",
        -9.85833004862475
      ],
      [
        "పల్లె",
        -9.85838700191449
      ],
      [
        "_మోసం",
        -9.858519770560877
      ],
      [
        "_బండి",
        -9.858559203477762
      ],
      [
        "_పార్టీల",
        -9.859638225994876
      ],
      [
        "_అక్రమ",
        -9.860335484213932
      ],
      [
        "ాపురం",
        -9.860483482857363
      ],
      [
        "_సుప్రీంకోర్టు",
        -9.860871984320843
      ],
      [
        "_గౌరవ",
        -9.86179190350306
      ],
      [
        "ందన్నారు.",
        -9.861901692745063
      ],
      [
        "_జంట",
        -9.862470804106996
      ],
      [
        "_రామకృష్ణ",
        -9.862564637793739
      ],
      [
        "_ఫలితాలు",
        -9.863180124420852
      ],
      [
        "ంచు",
        -9.863571168564933
      ],
      [
        "_పోతోంది.",
        -9.863623044910115
      ],
      [
        "_గారి",
        -9.863707596720156
      ],
      [
        "_వలస",
        -9.864152383326218
      ],
      [
        "నికరంగా",
        -9.86424685387626
      ],
      [
        "_తగ్గి",
        -9.864974681210049
      ],
      [
        "_టైమ్",
        -9.864990271872166
      ],
      [
        "_ఒప్పందం",
        -9.864994766203184
      ],
      [
        "_వీటిలో",
        -9.865103183955833
      ],
      [
        "ట్ర",
        -9.865149071787597
      ],
      [
        "యింది.",
        -9.865383369061114
      ],
      [
        "_ఎవర",
        -9.865440652358364
      ],
      [
        "_పరుగుల",
        -9.865705274078534
      ],
      [
        "_సమస్యల",
        -9.865847143512031
      ],
      [
        "67",
        -9.866344728891745
      ],
      [
        "_ఎన్నిక",
        -9.866364486378378
      ],
      [
        "మధ్య",
        -9.86672237705996
      ],
      [
        "_పోరాటం",
        -9.86696253906659
      ],
      [
        "_పిటిషన్",
        -9.867654531924641
      ],
      [
        "_కరీంనగర్",
        -9.867740786405536
      ],
      [
        "_చూపు",
        -9.867807102821377
      ],
      [
        "`",
        -9.867853746252425
      ],
      [
        "_ఎక్క",
        -9.867955824046373
      ],
      [
        "పులు",
        -9.869079510755695
      ],
      [
        "_కొన",
        -9.86910417206858
      ],
      [
        "_విభజన",
        -9.869132745520282
      ],
      [
        "ుకుంటా",
        -9.86947231316298
      ],
      [
        "_మ్యాచ్లో",
        -9.869700171816818
      ],
      [
        "_2020",
        -9.869943719121055
      ],
      [
        "_ఉంటే,",
        -9.869957677372401
      ],
      [
        "యల్",
        -9.870092093794664
      ],
      [
        "డికి",
        -9.87035517944973
      ],
      [
        "_నవంబర్",
        -9.870740926349749
      ],
      [
        "_అధ్యయనం",
        -9.871862320223393
      ],
      [
        "_కనిపించే",
        -9.87199034941027
      ],
      [
        "_నీటిని",
        -9.872624707758677
      ],
      [
        "ku",
        -9.872815334396433
      ],
      [
        "_రోజూ",
        -9.872823434825062
      ],
      [
        "ిస్తారు.",
        -9.87291419817012
      ],
      [
        "ul",
        -9.873459269043757
      ],
      [
        "ప్రతి",
        -9.8737508226516
      ],
      [
        "బ్యా",
        -9.874874659708789
      ],
      [
        "_బావ",
        -9.875310441228622
      ],
      [
        "వాలి",
        -9.875383348967155
      ],
      [
        "_పుష్ప",
        -9.875533180972859
      ],
      [
        "_ప్రయాణం",
        -9.875812322257234
      ],
      [
        "న్నది",
        -9.876111067710836
      ],
      [
        "da",
        -9.876263297442469
      ],
      [
        "య్యా",
        -9.87634267081018
      ],
      [
        "co",
        -9.876707132129258
      ],
      [
        "ాలన్నారు.",
        -9.877048970668195
      ],
      [
        "టెన్",
        -9.877098215831268
      ],
      [
        "45",
        -9.877259907193691
      ],
      [
        "_దిన",
        -9.877339515128
      ],
      [
        "ాను\"",
        -9.877449309668663
      ],
      [
        "75",
        -9.877558667436233
      ],
      [
        "_సంవత్సరంలో",
        -9.878280083901632
      ],
      [
        "యె",
        -9.878313047953617
      ],
      [
        "_పారి",
        -9.878375112343063
      ],
      [
        "_మార్కెట్లో",
        -9.878743590221879
      ],
      [
        "య్యారు.",
        -9.878899823820676
      ],
      [
        "_అయ్యింది.",
        -9.879066930512472
      ],
      [
        "_రమణ",
        -9.879236799415445
      ],
      [
        "సిన",
        -9.879327624960176
      ],
      [
        "_రెడీ",
        -9.879361913564681
      ],
      [
        "_చెప్త",
        -9.879376752553584
      ],
      [
        "వారం",
        -9.87943583192958
      ],
      [
        "_అడవి",
        -9.879831676820743
      ],
      [
        "_సౌ",
        -9.88030860852113
      ],
      [
        "_for",
        -9.880448067330258
      ],
      [
        "షే",
        -9.880781770395192
      ],
      [
        "_ఇక్కడి",
        -9.88088851087928
      ],
      [
        "_గీత",
        -9.880903469487594
      ],
      [
        "_సమంత",
        -9.880978106480903
      ],
      [
        "_భూములు",
        -9.881231835753596
      ],
      [
        "దేశం",
        -9.881563885368037
      ],
      [
        "శో",
        -9.88160525882222
      ],
      [
        "_వినియోగించ",
        -9.882050665331256
      ],
      [
        "_అంశం",
        -9.88225242800102
      ],
      [
        "ారం",
        -9.88259282011368
      ],
      [
        "ఒకవేళ",
        -9.882773161576557
      ],
      [
        "_బొమ్మ",
        -9.883196424907375
      ],
      [
        "_నవల",
        -9.88389307010869
      ],
      [
        "_సలహా",
        -9.883970430480066
      ],
      [
        "_పనిచేస్తున్న",
        -9.884206277834789
      ],
      [
        "_అనుభవం",
        -9.884462307704801
      ],
      [
        "రుగ",
        -9.884713814328398
      ],
      [
        "_ఫో",
        -9.884991337561159
      ],
      [
        "_అందమైన",
        -9.88499640584425
      ],
      [
        "_శరీర",
        -9.88502417590148
      ],
      [
        "పెట్టి",
        -9.88536543715368
      ],
      [
        "_విద్యార్థులకు",
        -9.885919092177522
      ],
      [
        "_ఘ",
        -9.885967751066897
      ],
      [
        "_మాయ",
        -9.88597946485875
      ],
      [
        "_వచ్చాడు.",
        -9.886044141129895
      ],
      [
        "_ఆశ్చర్య",
        -9.886459633956676
      ],
      [
        "80",
        -9.886919975716557
      ],
      [
        "mi",
        -9.88754829938899
      ],
      [
        "_తక్కువగా",
        -9.887857229658696
      ],
      [
        "_చిత్రాలు",
        -9.888053968221215
      ],
      [
        "_బైక్",
        -9.888651892990357
      ],
      [
        "_యువతి",
        -9.888685994227394
      ],
      [
        "_హక్కు",
        -9.888759301650346
      ],
      [
        "ర్థ",
        -9.889392388572194
      ],
      [
        "_రోజున",
        -9.889633742703944
      ],
      [
        "_టెస్ట్",
        -9.889657898088535
      ],
      [
        "ారనే",
        -9.89008720948283
      ],
      [
        "500",
        -9.89049109223236
      ],
      [
        "_ప్రధానంగా",
[...]
