{
  "version": "1.0",
  "truncation": null,
  "padding": null,
  "added_tokens": [
    {
      "id": 0,
      "content": "<pad>",
      "single_word": false,
      "lstrip": false,
      "rstrip": false,
      "normalized": false,
      "special": true
    },
    {
      "id": 1,
      "content": "<unk>",
      "single_word": false,
      "lstrip": false,
      "rstrip": false,
      "normalized": false,
      "special": true
    },
    {
      "id": 2,
      "content": "<cls>",
      "single_word": false,
      "lstrip": false,
      "rstrip": false,
      "normalized": false,
      "special": true
    },
    {
      "id": 3,
      "content": "<sep>",
      "single_word": false,
      "lstrip": false,
      "rstrip": false,
      "normalized": false,
      "special": true
    },
    {
      "id": 4,
      "content": "<mask>",
      "single_word": false,
      "lstrip": false,
      "rstrip": false,
      "normalized": false,
      "special": true
    }
  ],
  "normalizer": {
    "type": "Sequence",
    "normalizers": [
      {
        "type": "NFKC"
      }
    ]
  },
  "pre_tokenizer": {
    "type": "Whitespace"
  },
  "post_processor": null,
  "decoder": null,
  "model": {
    "type": "BPE",
    "dropout": null,
    "unk_token": "<unk>",
    "continuing_subword_prefix": null,
    "end_of_word_suffix": null,
    "fuse_unk": false,
    "byte_fallback": false,
    "ignore_merges": false,
    "vocab": {
      "<pad>": 0,
      "<unk>": 1,
      "<cls>": 2,
      "<sep>": 3,
      "<mask>": 4,
      "\u001f": 5,
      "!": 6,
      "\"": 7,
      "#": 8,
      "%": 9,
      "&": 10,
      "'": 11,
      "(": 12,
      ")": 13,
      "*": 14,
      "+": 15,
      ",": 16,
      "-": 17,
      ".": 18,
      "/": 19,
      "0": 20,
      "1": 21,
      "2": 22,
      "3": 23,
      "4": 24,
      "5": 25,
      "6": 26,
      "7": 27,
      "8": 28,
      "9": 29,
      ":": 30,
      ";": 31,
      "<": 32,
      "=": 33,
      ">": 34,
      "?": 35,
      "@": 36,
      "[": 37,
      "\\": 38,
      "]": 39,
      "_": 40,
      "`": 41,
      "{": 42,
      "|": 43,
      "}": 44,
      "~": 45,
      "ఁ": 46,
      "ం": 47,
      "ః": 48,
      "అ": 49,
      "ఆ": 50,
      "ఇ": 51,
      "ఈ": 52,
      "ఉ": 53,
      "ఊ": 54,
      "ఋ": 55,
      "ఌ": 56,
      "ఎ": 57,
      "ఏ": 58,
      "ఐ": 59,
      "఑": 60,
      "ఒ": 61,
      "ఓ": 62,
      "ఔ": 63,
      "క": 64,
      "ఖ": 65,
      "గ": 66,
      "ఘ": 67,
      "ఙ": 68,
      "చ": 69,
      "ఛ": 70,
      "జ": 71,
      "ఝ": 72,
      "ఞ": 73,
      "ట": 74,
      "ఠ": 75,
      "డ": 76,
      "ఢ": 77,
      "ణ": 78,
      "త": 79,
      "థ": 80,
      "ద": 81,
      "ధ": 82,
      "న": 83,
      "఩": 84,
      "ప": 85,
      "ఫ": 86,
      "బ": 87,
      "భ": 88,
      "మ": 89,
      "య": 90,
      "ర": 91,
      "ఱ": 92,
      "ల": 93,
      "ళ": 94,
      "ఴ": 95,
      "వ": 96,
      "శ": 97,
      "ష": 98,
      "స": 99,
      "హ": 100,
      "఼": 101,
      "ఽ": 102,
      "ా": 103,
      "ి": 104,
      "ీ": 105,
      "ు": 106,
      "ూ": 107,
      "ృ": 108,
      "ౄ": 109,
      "౅": 110,
      "ె": 111,
      "ే": 112,
      "ై": 113,
      "౉": 114,
      "ొ": 115,
      "ో": 116,
      "ౌ": 117,
      "్": 118,
      "౎": 119,
      "ౕ": 120,
      "ౖ": 121,
      "ౘ": 122,
      "ౙ": 123,
      "ౠ": 124,
      "ౡ": 125,
      "ౢ": 126,
      "ౣ": 127,
      "౦": 128,
      "౧": 129,
      "౨": 130,
      "౩": 131,
      "౪": 132,
      "౫": 133,
      "౬": 134,
      "౭": 135,
      "౮": 136,
      "౯": 137,
      "౹": 138,
      "౼": 139,
      "౽": 140,
      "౾": 141,
      "౿": 142,
      "–": 143,
      "—": 144,
      "₹": 145,
      "ని": 146,
      "ార": 147,
      "్ర": 148,
      "న్": 149,
      "స్": 150,
      "ర్": 151,
      "లు": 152,
      "ంద": 153,
      "లో": 154,
      "కు": 155,
      "్య": 156,
      "ను": 157,
      "ంచ": 158,
      "క్": 159,
      "గా": 160,
      "ల్": 161,
      "న్న": 162,
      "ట్": 163,
      "రి": 164,
      "వి": 165,
      "ప్ర": 166,
      "ారు": 167,
      "తు": 168,
      "ంది": 169,
      "ాల": 170,
      "డు": 171,
      "ము": 172,
      "చే": 173,
      "టి": 174,
      "కి": 175,
      "డి": 176,
      "త్": 177,
      "మా": 178,
      "సి": 179,
      "తి": 180,
      "రు": 181,
      "ప్": 182,
      "రా": 183,
      "ంత": 184,
      "యి": 185,
      "లి": 186,
      "కా": 187,
      "వా": 188,
      "నా": 189,
      "ంట": 190,
      "పు": 191,
      "ది": 192,
      "గు": 193,
      "నే": 194,
      "ంచి": 195,
      "సు": 196,
      "చి": 197,
      "ండ": 198,
      "ద్": 199,
      "ార్": 200,
      "లా": 201,
      "తో": 202,
      "ంగా": 203,
      "చ్": 204,
      "కో": 205,
      "పా": 206,
      "టు": 207,
      "దు": 208,
      "సం": 209,
      "పి": 210,
      "యా": 211,
      "కొ": 212,
      "ంలో": 213,
      "ష్": 214,
      "లే": 215,
      "మి": 216,
      "స్తు": 217,
      "వు": 218,
      "్యా": 219,
      "పో": 220,
      "తా": 221,
      "త్ర": 222,
      "వే": 223,
      "యు": 224,
      "గి": 225,
      "డా": 226,
      "న్ని": 227,
      "డ్": 228,
      "దా": 229,
      "ందు": 230,
      "క్ష": 231,
      "రో": 232,
      "తె": 233,
      "ంగ": 234,
      "సా": 235,
      "కే": 236,
      "పె": 237,
      "న్నారు": 238,
      "ధి": 239,
      "మ్": 240,
      "చె": 241,
      "టీ": 242,
      "దే": 243,
      "మీ": 244,
      "నీ": 245,
      "కూ": 246,
      "ారి": 247,
      "నికి": 248,
      "న్నా": 249,
      "తీ": 250,
      "తే": 251,
      "ళ్": 252,
      "బా": 253,
      "మె": 254,
      "క్క": 255,
      "ైన": 256,
      "చు": 257,
      "వె": 258,
      "పై": 259,
      "శా": 260,
      "ప్ప": 261,
      "సీ": 262,
      "లను": 263,
      "క్ర": 264,
      "మే": 265,
      "లకు": 266,
      "ండి": 267,
      "స్థ": 268,
      "కార": 269,
      "రె": 270,
      "బు": 271,
      "వచ్": 272,
      "..": 273,
      "ల్లో": 274,
      "హి": 275,
      "మరి": 276,
      "వర": 277,
      "ప్పు": 278,
      "వీ": 279,
      "భా": 280,
      "యం": 281,
      "ష్ట": 282,
      "వం": 283,
      "్రా": 284,
      "జా": 285,
      "ల్ల": 286,
      "ంతో": 287,
      "ఒక": 288,
      "శ్": 289,
      "బ్": 290,
      "జి": 291,
      "కూడా": 292,
      "డం": 293,
      "ట్ట": 294,
      "తం": 295,
      "వర్": 296,
      "పరి": 297,
      "దీ": 298,
      "ారం": 299,
      "వ్య": 300,
      "నిర్": 301,
      "పీ": 302,
      "గ్": 303,
      "జు": 304,
      "జీ": 305,
      "స్త": 306,
      "చేయ": 307,
      "యో": 308,
      "చేసి": 309,
      "ంచారు": 310,
      "ంగ్": 311,
      "నం": 312,
      "లీ": 313,
      "స్ట": 314,
      "జ్": 315,
      "ట్టి": 316,
      "వై": 317,
      "ట్లు": 318,
      "మరియు": 319,
      "తన": 320,
      "ారా": 321,
      "మైన": 322,
      "ంటే": 323,
      "ంచు": 324,
      "హా": 325,
      "రూ": 326,
      "శి": 327,
      "రీ": 328,
      "ద్ద": 329,
      "ంటు": 330,
      "పే": 331,
      "ంచిన": 332,
      "నె": 333,
      "ఆర్": 334,
      "త్య": 335,
      "రే": 336,
      "్రి": 337,
      "త్త": 338,
      "భి": 339,
      "మో": 340,
      "చూ": 341,
      "ట్టు": 342,
      "ాలి": 343,
      "సమ": 344,
      "సే": 345,
      "ధా": 346,
      "ూర్": 347,
      "రం": 348,
      "శ్ర": 349,
      "మొ": 350,
      "వ్": 351,
      "సుకు": 352,
      "కీ": 353,
      "ద్య": 354,
      "ప్రా": 355,
      "సె": 356,
      "అయి": 357,
      "సిని": 358,
      "మార్": 359,
      "తెలి": 360,
      "వారి": 361,
      "కె": 362,
      "అని": 363,
      "భు": 364,
      "వల": 365,
      "ధ్య": 366,
      "బి": 367,
      "సినిమా": 368,
      "ంటి": 369,
      "మూ": 370,
      "ంద్ర": 371,
      "ందుకు": 372,
      "ఉన్న": 373,
      "షన్": 374,
      "పొ": 375,
      "గ్ర": 376,
      "అవ": 377,
      "య్య": 378,
      "యన": 379,
      "ాలని": 380,
      "నుంచి": 381,
      "విష": 382,
      "ప్పుడు": 383,
      "శారు": 384,
      "అను": 385,
      "క్కు": 386,
      "ండు": 387,
      "టర్": 388,
      "భార": 389,
      "కాల": 390,
      "ంట్": 391,
      "ణా": 392,
      "వ్యా": 393,
      "దేశ": 394,
      "మని": 395,
      "మన": 396,
      "ప్రభు": 397,
      "బం": 398,
      "20": 399,
      "ాలను": 400,
      "లేదు": 401,
      "కర్": 402,
      "ందని": 403,
      "స్తా": 404,
      "డీ": 405,
      "ంచే": 406,
      "ాలా": 407,
      "ండా": 408,
      "తెలు": 409,
      "స్తున్న": 410,
      "పార్": 411,
      "మంత": 412,
      "రణ": 413,
      "డానికి": 414,
      "ప్రభుత్": 415,
      "న్నాయి": 416,
      "ఎం": 417,
      "అధి": 418,
      "ఉండ": 419,
      "కల": 420,
      "టా": 421,
      "రాజ": 422,
      "స్థా": 423,
      "ఎస్": 424,
      "రిగి": 425,
      "ండ్": 426,
      "బీ": 427,
      "రోజు": 428,
      "ులు": 429,
      "మ్మ": 430,
      "ఖ్య": 431,
      "దర్": 432,
      "ఆయన": 433,
      "కృ": 434,
      "శ్రీ": 435,
      "పూర్": 436,
      "కం": 437,
      "పాటు": 438,
      "కోసం": 439,
      "గొ": 440,
      "డే": 441,
      "గో": 442,
      "రాష్ట": 443,
      "కలి": 444,
      "వాత": 445,
      "జే": 446,
      "ప్రతి": 447,
      "చిన": 448,
      "తర": 449,
      "లతో": 450,
      "చేశారు": 451,
      "తోంది": 452,
      "ఇది": 453,
      "క్తి": 454,
      "సమా": 455,
      "రుగు": 456,
      "చాలా": 457,
      "వారు": 458,
      "ప్పటి": 459,
      "కోవ": 460,
      "ద్ధ": 461,
      "చర్": 462,
      "డ్డి": 463,
      "ఫ్": 464,
      "చెప్ప": 465,
      "సర్": 466,
      "ఉంది": 467,
      "అనే": 468,
      "కుండా": 469,
      "బో": 470,
      "ల్లి": 471,
      "చిత్ర": 472,
      "కార్య": 473,
      "మంది": 474,
      "తుంది": 475,
      "చ్చ": 476,
      "స్తుంది": 477,
      "అయితే": 478,
      "ల్లా": 479,
      "లలో": 480,
      "గే": 481,
      "ళ్ళ": 482,
      "సూ": 483,
      "మాత్ర": 484,
      "అంత": 485,
      "రాష్ట్ర": 486,
      "ంచా": 487,
      "యొ": 488,
      "షి": 489,
      "వరి": 490,
      "చేసిన": 491,
      "యంలో": 492,
      "జె": 493,
      "తమ": 494,
      "సిన": 495,
      "ణి": 496,
      "మంత్రి": 497,
      "సర": 498,
      "తున్న": 499,
      "సో": 500,
      "ంచింది": 501,
      "యే": 502,
      "పార్టీ": 503,
      "శం": 504,
      "మున": 505,
      "యూ": 506,
      "లై": 507,
      "స్తున్నారు": 508,
      "కారు": 509,
      "వచ్చు": 510,
      "పర్": 511,
      "ారని": 512,
      "అభి": 513,
      "తులు": 514,
      "ంబ": 515,
      "న్స్": 516,
      "అత": 517,
      "రై": 518,
      "టె": 519,
      "కార్": 520,
      "త్రి": 521,
      "వారం": 522,
      "లోని": 523,
      "ంప": 524,
      "్యూ": 525,
      "ంటూ": 526,
      "ట్ల": 527,
      "యొక్క": 528,
      "్రె": 529,
      "పని": 530,
      "దని": 531,
      "ఉంటు": 532,
      "లక్ష": 533,
      "నుండి": 534,
      "మొద": 535,
      "ళ్ల": 536,
      "కానీ": 537,
      "మీరు": 538,
      "ప్పి": 539,
      "పోయి": 540,
      "నూ": 541,
      "అందు": 542,
      "లె": 543,
      "ద్వ": 544,
      "రించి": 545,
      "తూ": 546,
      "క్రి": 547,
      "కులు": 548,
      "స్ప": 549,
      "నో": 550,
      "మై": 551,
      "స్య": 552,
      "ఆమె": 553,
      "స్తే": 554,
      "వహి": 555,
      "చా": 556,
      "విధ": 557,
      "స్తూ": 558,
      "గం": 559,
      "నాలు": 560,
      "గ్రా": 561,
      "లంగా": 562,
      "బె": 563,
      "హీ": 564,
      "తర్": 565,
      "వృ": 566,
      "క్కువ": 567,
      "జిల్లా": 568,
      "ద్ర": 569,
      "హ్": 570,
      "జన": 571,
      "భూ": 572,
      "ములు": 573,
      "ణం": 574,
      "ంటా": 575,
      "వరకు": 576,
      "స్థి": 577,
      "బడి": 578,
      "ఫి": 579,
      "సంద": 580,
      "తీసుకు": 581,
      "క్రమ": 582,
      "రెండు": 583,
      "షా": 584,
      "సై": 585,
      "ట్లా": 586,
      "ర్థ": 587,
      "డంతో": 588,
      "ముఖ్య": 589,
      "భ్య": 590,
      "బ్ర": 591,
      "విజ": 592,
      "పడి": 593,
      "కర": 594,
      "జరిగి": 595,
      "స్ట్": 596,
      "సులు": 597,
      "న్నాడు": 598,
      "త్తి": 599,
      "పోలీ": 600,
      "శు": 601,
      "చ్చి": 602,
      "ప్రజ": 603,
      "వ్వ": 604,
      "అంద": 605,
      "హై": 606,
      "ద్వారా": 607,
      "లం": 608,
      "ాలకు": 609,
      "తర్వాత": 610,
      "కరి": 611,
      "దర్శ": 612,
      "అలా": 613,
      "త్స": 614,
      "సంబం": 615,
      "ప్రభుత్వం": 616,
      "00": 617,
      "మరో": 618,
      "కల్": 619,
      "పం": 620,
      "ఉప": 621,
      "క్కడ": 622,
      "మహ": 623,
      "త్తు": 624,
      "మును": 625,
      "వ్యవ": 626,
      "తంగా": 627,
      "ఏర్": 628,
      "పెద్ద": 629,
      "తలు": 630,
      "పారు": 631,
      "మాట్లా": 632,
      "టన": 633,
      "ఎన్ని": 634,
      "వంటి": 635,
      "అది": 636,
      "జ్ఞ": 637,
      "గల": 638,
      "న్ను": 639,
      "ధు": 640,
      "రెడ్డి": 641,
      "టో": 642,
      "తొ": 643,
      "కేంద్ర": 644,
      "స్తోంది": 645,
      "కంగా": 646,
      "చేసుకు": 647,
      "తెలంగా": 648,
      "మధ్య": 649,
      "ంపు": 650,
      "మర్": 651,
      "ఫో": 652,
      "దాని": 653,
      "ముల": 654,
      "గత": 655,
      "నిపి": 656,
      "ముందు": 657,
      "ార్థ": 658,
      "విద్య": 659,
      "పద": 660,
      "వచ్చి": 661,
      "అన": 662,
      "డె": 663,
      "క్షి": 664,
      "తరు": 665,
      "ష్ణ": 666,
      "పడు": 667,
      "తీసు": 668,
      "కొన్ని": 669,
      "బ్బ": 670,
      "కాదు": 671,
      "కొత్త": 672,
      "లేదా": 673,
      "మంచి": 674,
      "పర": 675,
      "ఉంటుంది": 676,
      "ఎలా": 677,
      "పూ": 678,
      "పాల్": 679,
      "...": 680,
      "నని": 681,
      "ందే": 682,
      "తెలంగాణ": 683,
      "యని": 684,
      "ఖా": 685,
      "లేక": 686,
      "ందిన": 687,
      "టం": 688,
      "ప్రత్య": 689,
      "సారి": 690,
      "ద్ధి": 691,
      "సరి": 692,
      "ారణ": 693,
      "ంధ": 694,
      "కొని": 695,
      "ళ్లు": 696,
      "ప్రధా": 697,
      "నిర్వహి": 698,
      "దో": 699,
      "ప్రారం": 700,
      "నాయ": 701,
      "స్వ": 702,
      "బ్యా": 703,
      "ప్రే": 704,
      "సందర్": 705,
      "హీరో": 706,
      "స్వా": 707,
      "క్స్": 708,
      "్యం": 709,
      "ళ్లి": 710,
      "నేను": 711,
      "అంది": 712,
      "క్కి": 713,
      "మం": 714,
      "నగ": 715,
      "గురించి": 716,
      "ఇక": 717,
      "దల": 718,
      "బాబు": 719,
      "19": 720,
      "తెలిపారు": 721,
      "ఆరో": 722,
      "ైనా": 723,
      "ంచుకు": 724,
      "నియ": 725,
      "ప్రక": 726,
      "చేసే": 727,
      "ఇప్పటి": 728,
      "హు": 729,
      "అన్ని": 730,
      "బాద్": 731,
      "దృ": 732,
      "కలు": 733,
      "హె": 734,
      "వల్ల": 735,
      "తున్నారు": 736,
      "గుర్": 737,
      "మాన": 738,
      "జీవి": 739,
      "ఇం": 740,
      "పూర్తి": 741,
      "క్టర్": 742,
      "జగ": 743,
      "పెట్ట": 744,
      "నర్": 745,
      "చంద్ర": 746,
      "శాఖ": 747,
      "అవకా": 748,
      "ట్ర": 749,
      "ఇప్పుడు": 750,
      "ఇలా": 751,
      "డ్డ": 752,
      "తుల": 753,
      "గిన": 754,
      "ప్రాంత": 755,
      "నెల": 756,
      "తెలుగు": 757,
      "ష్టి": 758,
      "జూ": 759,
      "అవు": 760,
      ".\\": 761,
      "భాగ": 762,
      "కారం": 763,
      "త్వ": 764,
      "ంచడం": 765,
      "స్తారు": 766,
      "మీద": 767,
      "లోకి": 768,
      "య్": 769,
      "కథ": 770,
      "ఎక్కువ": 771,
      "దీని": 772,
      "వార": 773,
      "తల": 774,
      "పథ": 775,
      "ఁడు": 776,
      "అన్నారు": 777,
      "ుల": 778,
      "పడ": 779,
      "చో": 780,
      "గె": 781,
      "పంచ": 782,
      "తీయ": 783,
      "స్త్ర": 784,
      "ర్కొ": 785,
      "దూ": 786,
      "ఉద్య": 787,
      "అం": 788,
      "ప్రస్తు": 789,
      "నటి": 790,
      "ర్మ": 791,
      "పాల": 792,
      "చేసింది": 793,
      "పేరు": 794,
      "కనిపి": 795,
      "నిర్ణ": 796,
      "గ్గ": 797,
      "హం": 798,
      "వాటి": 799,
      "స్టు": 800,
      "కుల": 801,
      "ఫీ": 802,
      "యత్": 803,
      "ళి": 804,
      "పరిస్థి": 805,
      "వచ్చిన": 806,
      "శీ": 807,
      "సంస్థ": 808,
      "లుగా": 809,
      "వార్": 810,
      "చెందిన": 811,
      "థి": 812,
      "గురు": 813,
      "పట్ట": 814,
      "కోర్": 815,
      "న్య": 816,
      "అధికారు": 817,
      "సంబంధి": 818,
      "టే": 819,
      "చారం": 820,
      "మెంట్": 821,
      "రావ": 822,
      "ంటారు": 823,
      "వన్": 824,
      "10": 825,
      "విడు": 826,
      "ల్లు": 827,
      "యోగి": 828,
      "డై": 829,
      "ుడు": 830,
      "మృ": 831,
      "సమస్య": 832,
      "వరు": 833,
      "ందా": 834,
      "మహి": 835,
      "త్మ": 836,
      "అన్న": 837,
      "ప్రత్యే": 838,
      "వద్ద": 839,
      "ఉన్నాయి": 840,
      "న్యా": 841,
      "ందో": 842,
      "దీంతో": 843,
      "మాత్రమే": 844,
      "నలు": 845,
      "వ్ర": 846,
      "యలు": 847,
      "డియా": 848,
      "సంవ": 849,
      "మండ": 850,
      "ంలోని": 851,
      "యె": 852,
      "సమయంలో": 853,
      "హో": 854,
      "జన్": 855,
      "దారు": 856,
      "చెప్పారు": 857,
      "చిన్న": 858,
      "నిర్మా": 859,
      "కాంగ": 860,
      "మాత్రం": 861,
      "ఎమ్": 862,
      "కారణ": 863,
      "సందర్భ": 864,
      "ఎన్": 865,
      "్రెస్": 866,
      "మారు": 867,
      "ణ్": 868,
      "ాలు": 869,
      "వ్యక్": 870,
      "కంటే": 871,
      "స్తున్నా": 872,
      "దం": 873,
      "ంటర్": 874,
      "కావ": 875,
      "పలు": 876,
      "కలిగి": 877,
      "శే": 878,
      "కెట్": 879,
      "కొన": 880,
      "బట్టి": 881,
      "ఆధ": 882,
      "ఒక్క": 883,
      "కుటు": 884,
      "వారికి": 885,
      "ంచడానికి": 886,
      "పాత్ర": 887,
      "ట్టుకు": 888,
      "జరుగు": 889,
      "ర్చు": 890,
      "జర్": 891,
      "దరా": 892,
      "చేసు": 893,
      "సాధ": 894,
      "విషయం": 895,
      "ముఖ": 896,
      "ద్దు": 897,
      "మాట": 898,
      "ప్రభుత్వ": 899,
      "దన": 900,
      "ంక": 901,
      "చెప్పి": 902,
      "రాలు": 903,
      "కృష్ణ": 904,
      "పేర్కొ": 905,
      "చేస్తున్న": 906,
      "అర్": 907,
      "ఇవ్వ": 908,
      "మహిళ": 909,
      "య్యా": 910,
      "పోవ": 911,
      "చ్చు": 912,
      "వ్యక్తి": 913,
      "మీడియా": 914,
      "అధ్య": 915,
      "లేదని": 916,
      "గతి": 917,
      "నున్న": 918,
      "కరో": 919,
      "కాని": 920,
      "ట్టిన": 921,
      "జ్ఞా": 922,
      "ల్స్": 923,
      "సభ్య": 924,
      "కళ": 925,
      "ఉత్": 926,
      "మర": 927,
      "టింగ్": 928,
      "ప్రస్తుతం": 929,
      "టై": 930,
      "ప్రయత్": 931,
      "వో": 932,
      "సహ": 933,
      "ప్రధాన": 934,
      "ప్రభా": 935,
      "కాంగ్రెస్": 936,
      "లోనే": 937,
      "గీ": 938,
      "తెలిసి": 939,
      "పిల్ల": 940,
      "రుకు": 941,
      "జో": 942,
      "సహా": 943,
      "లేని": 944,
      "చేశా": 945,
      "వులు": 946,
      "ఉద్యో": 947,
      "హైదరా": 948,
      "అదే": 949,
      "కుడు": 950,
      "చూడ": 951,
      "నంద": 952,
      "భారీ": 953,
      "శాల": 954,
      "ల్య": 955,
      "జేపీ": 956,
      "ఎదు": 957,
      "మూడు": 958,
      "వన": 959,
      "రాజకీ": 960,
      "ఎమ్మె": 961,
      "విడుదల": 962,
      "ారీ": 963,
      "వృద్ధి": 964,
      "కరోనా": 965,
      "రామ": 966,
      "రంగ": 967,
      "లక్": 968,
      "కేసు": 969,
      "ంచాలని": 970,
      "బర్": 971,
      "టీఆర్": 972,
      "ఏర్పాటు": 973,
      "పోలీసులు": 974,
      "యన్": 975,
      "త్తం": 976,
      "గ్య": 977,
      "ప్రి": 978,
      "బీజేపీ": 979,
      "ప్రపంచ": 980,
      "తీవ్ర": 981,
      "నొ": 982,
      "సీఎం": 983,
      "విశ్": 984,
      "అంటే": 985,
      "సంఘ": 986,
      "రాజు": 987,
      "గర్": 988,
      "భారత": 989,
      "జగన్": 990,
      "క్షణ": 991,
      "హరి": 992,
      "ల్సి": 993,
      "వచ్చే": 994,
      "ష్టం": 995,
      "తగ్": 996,
      "ప్రమా": 997,
      "ంచాడు": 998,
      "ధర": 999,
      "కను": 1000,
      "గంట": 1001,
      "మహా": 1002,
      "స్థాయి": 1003,
      "బయ": 1004,
      "రెండ": 1005,
      "తప్ప": 1006,
      "గానే": 1007,
      "యాలు": 1008,
      "రావు": 1009,
      "సాధి": 1010,
      "ప్రకటి": 1011,
      "మాట్లాడు": 1012,
      "సిద్ధ": 1013,
      "యము": 1014,
      "వైపు": 1015,
      "హైదరాబాద్": 1016,
      "తిని": 1017,
      "స్సు": 1018,
      "్రీ": 1019,
      "లపై": 1020,
      "కోర్టు": 1021,
      "కరణ": 1022,
      "విని": 1023,
      "పాల్గొ": 1024,
      "తాను": 1025,
      "15": 1026,
      "మొదటి": 1027,
      "ప్రశ్": 1028,
      "అమ": 1029,
      "సన": 1030,
      "తాజా": 1031,
      "స్టార్": 1032,
      "దొ": 1033,
      "బడు": 1034,
      "ఉత్త": 1035,
      "అవస": 1036,
      "చ్చిన": 1037,
      "ఇతర": 1038,
      "సౌ": 1039,
      "న్నీ": 1040,
      "టకు": 1041,
      "వాహ": 1042,
      "ఎంత": 1043,
      "పరీ": 1044,
      "కాం": 1045,
      "నేత": 1046,
      "బాల": 1047,
      "కలిసి": 1048,
      "సార్": 1049,
      "ప్రత్యేక": 1050,
      "తరువాత": 1051,
      "అత్య": 1052,
      "చన": 1053,
      "యాన్ని": 1054,
      "ఉంటా": 1055,
      "న్నది": 1056,
      "రకు": 1057,
      "అవకాశం": 1058,
      "యువ": 1059,
      "ంతా": 1060,
      "డియో": 1061,
      "ణాలు": 1062,
      "కాలు": 1063,
      "జర": 1064,
      "కొను": 1065,
      "క్రమంలో": 1066,
      "అలాగే": 1067,
      "గూ": 1068,
      "తెలియ": 1069,
      "మ్యా": 1070,
      "జరిగిన": 1071,
      "యారు": 1072,
      "సీఆర్": 1073,
      "హ్మ": 1074,
      "దె": 1075,
      "న్యూ": 1076,
      "అంటూ": 1077,
      "అనేక": 1078,
      "చీ": 1079,
      "ారె": 1080,
      "త్యా": 1081,
      "ల్లీ": 1082,
      "నులు": 1083,
      "డో": 1084,
      "కుమార్": 1085,
      "మారి": 1086,
      "స్టే": 1087,
      "తను": 1088,
      "గారు": 1089,
      "నివా": 1090,
      "సభ": 1091,
      "గుర్తి": 1092,
      "ాలతో": 1093,
      "వెంట": 1094,
      "వస్తు": 1095,
      "జం": 1096,
      "వంత": 1097,
      "అవసరం": 1098,
      "ెను": 1099,
      "చిత్రం": 1100,
      "ఉండే": 1101,
      "క్య": 1102,
      "శాతం": 1103,
      "చెబు": 1104,
      "శాలు": 1105,
      "భావి": 1106,
      "సందర్భంగా": 1107,
      "జాతీయ": 1108,
      "సము": 1109,
      "అయిన": 1110,
      "యిన్": 1111,
      "అధ్యక్ష": 1112,
      "తాయి": 1113,
      "కేసీఆర్": 1114,
      "ల్యే": 1115,
      "అధిక": 1116,
      "ఫోన్": 1117,
      "ర్లు": 1118,
      "ట్స్": 1119,
      "గౌ": 1120,
      "షే": 1121,
      "కౌ": 1122,
      "అధికారులు": 1123,
      "కొంత": 1124,
      "నాడు": 1125,
      "ఉపయోగి": 1126,
      "సాగు": 1127,
      "చేయడం": 1128,
      "ంటున్నారు": 1129,
      "18": 1130,
      "ఇండి": 1131,
      "ఎమ్మెల్యే": 1132,
      "ఇంటి": 1133,
      "డ్డు": 1134,
      "పతి": 1135,
      "సమావే": 1136,
      "లక": 1137,
      "దేవ": 1138,
      "అయ్య": 1139,
      "మొత్తం": 1140,
      "విధంగా": 1141,
      "వేల": 1142,
      "క్త": 1143,
      "విచ": 1144,
      "బల": 1145,
      "నిక": 1146,
      "చేస్తున్నారు": 1147,
      "ఉంటే": 1148,
      "నము": 1149,
      "దగ్గ": 1150,
      "సొ": 1151,
      "నకు": 1152,
      "నాకు": 1153,
      "నల్": 1154,
      "12": 1155,
      "ంధ్ర": 1156,
      "యోగ": 1157,
      "మ్ము": 1158,
      "తున్నాయి": 1159,
      "బొ": 1160,
      "తల్లి": 1161,
      "తారు": 1162,
      "ప్రారంభ": 1163,
      "ధ్యా": 1164,
      "జరి": 1165,
      "గ్రామ": 1166,
      "క్షన్": 1167,
      "ాలలో": 1168,
      "వాడు": 1169,
      "శో": 1170,
      "తెర": 1171,
      "వెళ్లి": 1172,
      "వైద్య": 1173,
      "ఇన్": 1174,
      "చంద్రబాబు": 1175,
      "ఫా": 1176,
      "వలన": 1177,
      "డుగు": 1178,
      "ల్ని": 1179,
      "నమో": 1180,
      "శక్తి": 1181,
      "ంత్ర": 1182,
      "షల్": 1183,
      "కూడ": 1184,
      "ఎన్నిక": 1185,
      "ముఖ్యమంత్రి": 1186,
      "తున్నా": 1187,
      "నై": 1188,
      "కమి": 1189,
      "డబ్": 1190,
      "ప్రారంభి": 1191,
      "ఆలో": 1192,
      "లేకుండా": 1193,
      "విద్యార్థ": 1194,
      "ఉన్నా": 1195,
      "ప్రజా": 1196,
      "ముగా": 1197,
      "్యంలో": 1198,
      "ఫె": 1199,
      "ణు": 1200,
      "ప్లా": 1201,
      "పక్ష": 1202,
      "మరింత": 1203,
      "కున్న": 1204,
      "202": 1205,
      "ఇందు": 1206,
      "యోజ": 1207,
      "క్రీ": 1208,
      "వుడ్": 1209,
      "అభివృద్ధి": 1210,
      "మతి": 1211,
      "ఇప్పటికే": 1212,
      "పోయింది": 1213,
      "ూరు": 1214,
      "మాట్లాడుతూ": 1215,
      "వైర": 1216,
      "డికి": 1217,
      "చై": 1218,
      "ధం": 1219,
      "విజయ": 1220,
      "కాబట్టి": 1221,
      "నిర్మి": 1222,
      "సమాచారం": 1223,
      "రాజకీయ": 1224,
      "కంపె": 1225,
      "అస": 1226,
      "ఉత్ప": 1227,
      "సూచి": 1228,
      "సిం": 1229,
      "దర్శి": 1230,
      "ప్రకారం": 1231,
      "నేపథ": 1232,
      "పాఠ": 1233,
      "కంపెనీ": 1234,
      "వాడ": 1235,
      "ద్ది": 1236,
      "ంతరం": 1237,
      "వలం": 1238,
      "సాధారణ": 1239,
      "బడిన": 1240,
      "ఇద్ద": 1241,
      "ఉద": 1242,
      "స్తాయి": 1243,
      "ఆది": 1244,
      "చార": 1245,
      "చరి": 1246,
      "చ్చారు": 1247,
      "వెల్ల": 1248,
      "డాది": 1249,
      "లువ": 1250,
      "అమె": 1251,
      "ఫలి": 1252,
      "హార": 1253,
      "విధా": 1254,
      "వ్యాప్": 1255,
      "స్వామి": 1256,
      "జెక్": 1257,
      "రికి": 1258,
      "కోవడం": 1259,
      "త్వం": 1260,
      "జై": 1261,
      "విషయంలో": 1262,
      "ట్రా": 1263,
      "30": 1264,
      "చేయాలని": 1265,
      "త్వర": 1266,
      "కవి": 1267,
      "పోయిన": 1268,
      "సీపీ": 1269,
      "బై": 1270,
      "తాజాగా": 1271,
      "బ్యాం": 1272,
      "జరిగింది": 1273,
      "భారత్": 1274,
      "వచ్చింది": 1275,
      "అతని": 1276,
      "అతి": 1277,
      "మను": 1278,
      "అభ్య": 1279,
      "14": 1280,
      "ఢి": 1281,
      "రూప": 1282,
      "ఏపీ": 1283,
      "వీడియో": 1284,
      "డ్ర": 1285,
      "తెలిసిందే": 1286,
      "విమర్": 1287,
      "పెట్టి": 1288,
      "డని": 1289,
      "సృ": 1290,
      "ారో": 1291,
      "కై": 1292,
      "కుటుంబ": 1293,
      "ఏమి": 1294,
      "యర్": 1295,
      "ళ్ళు": 1296,
      "మల": 1297,
      "నీటి": 1298,
      "ఆల": 1299,
      "క్యా": 1300,
      "ఆర్థి": 1301,
      "దేశ్": 1302,
      "దేశంలో": 1303,
      "అక్కడ": 1304,
      "వేది": 1305,
      "భర్": 1306,
      "అక్క": 1307,
      "వెళ్": 1308,
      "ంతి": 1309,
      "ప్రజలు": 1310,
      "రంగా": 1311,
      "పరీక్ష": 1312,
      "దృష్టి": 1313,
      "50": 1314,
      "మిక": 1315,
      "ఇంత": 1316,
      "చెప్పు": 1317,
      "పవన్": 1318,
      "దేశం": 1319,
      "ీవుడ్": 1320,
      "ర్యా": 1321,
      "ఎల్": 1322,
      "ల్సిన": 1323,
      "ఢిల్లీ": 1324,
      "ధన": 1325,
      "వివిధ": 1326,
      "టీడీ": 1327,
      "సమీ": 1328,
      "టువంటి": 1329,
      "వర్గా": 1330,
      "సంబంధించిన": 1331,
      "నేపథ్యంలో": 1332,
      "కోట్ల": 1333,
      "నిలి": 1334,
      "కాకుండా": 1335,
      "కొంద": 1336,
      "బాటు": 1337,
      "సాయ": 1338,
      "శరీ": 1339,
      "పోటీ": 1340,
      "తమైన": 1341,
      "సింగ్": 1342,
      "తగ్గి": 1343,
      "తక్కువ": 1344,
      "కేవలం": 1345,
      "బాగా": 1346,
      "లక్ష్": 1347,
      "అర్థ": 1348,
      "అవి": 1349,
      "ఉన్నారు": 1350,
      "ఇక్కడ": 1351,
      "పడ్డ": 1352,
      "వెంటనే": 1353,
      "పరిస్థితి": 1354,
      "ట్లో": 1355,
      "సింది": 1356,
      "పాడు": 1357,
      "భవ": 1358,
      "ద్యా": 1359,
      "చూపి": 1360,
      "నిమి": 1361,
      "పోతే": 1362,
      "మేము": 1363,
      "తిరిగి": 1364,
      "క్షే": 1365,
      "పోయా": 1366,
      "వుల": 1367,
      "తొలి": 1368,
      "పార": 1369,
      "వెల్లడి": 1370,
      "గాని": 1371,
      "వెంక": 1372,
      "రూపా": 1373,
      "ాన్ని": 1374,
      "పోలీసు": 1375,
      "ఇంకా": 1376,
      "మనం": 1377,
      "భాష": 1378,
      "ఇదే": 1379,
      "రైతు": 1380,
      "ఇటీ": 1381,
      "ప్రాజెక్": 1382,
      "11": 1383,
      "పెట్టు": 1384,
      "యాల": 1385,
      "బ్బంది": 1386,
      "ఎంతో": 1387,
      "మునకు": 1388,
      "చెప్": 1389,
      "వ్యక్తం": 1390,
      "స్టా": 1391,
      "ఆంధ్ర": 1392,
      "ప్పుడ": 1393,
      "టానికి": 1394,
      "అమెరి": 1395,
      "ప్పటికీ": 1396,
      "ణీ": 1397,
      "()": 1398,
      "స్తో": 1399,
      "త్సర": 1400,
      "స్టర్": 1401,
      "అంతే": 1402,
      "మీకు": 1403,
      "యల్": 1404,
      "ంటున్న": 1405,
      "ఘటన": 1406,
      "ఉందని": 1407,
      "టికి": 1408,
      "కాగా": 1409,
      "తీర్": 1410,
      "ంగళ": 1411,
      "ఆర్థిక": 1412,
      "చారు": 1413,
      "ఆస": 1414,
      "డిగా": 1415,
      "కింగ్": 1416,
      "నంలో": 1417,
      "దర": 1418,
      "ఫు": 1419,
      "అతను": 1420,
      "లక్షల": 1421,
      "కింద": 1422,
      "మాజీ": 1423,
      "ప్రదేశ్": 1424,
      "పుణ": 1425,
      "సోషల్": 1426,
      "కల్పి": 1427,
      "వెళ్ళ": 1428,
      "దశ": 1429,
      "ఏడాది": 1430,
      "నిజ": 1431,
      "బే": 1432,
      "దాపు": 1433,
      "పెరుగు": 1434,
      "డబ్బు": 1435,
      "పల్లి": 1436,
      "చేస్తూ": 1437,
      "ంచాలి": 1438,
      "సేవ": 1439,
      "డిన": 1440,
      "భావ": 1441,
      "అల": 1442,
      "ంబర్": 1443,
      "వారిని": 1444,
      "రాత్రి": 1445,
      "సంవత్స": 1446,
      "సాగి": 1447,
      "17": 1448,
      "తెలుసు": 1449,
      "సంవత్సర": 1450,
      "దేశా": 1451,
      "ప్రయా": 1452,
      "సంఖ్య": 1453,
      "ఉంటాయి": 1454,
      "ఫ్యా": 1455,
      "ంచుకో": 1456,
      "ప్రీ": 1457,
      "వచ్చా": 1458,
      "వరూ": 1459,
      "యిన": 1460,
      "రువు": 1461,
      "నుంది": 1462,
      "16": 1463,
      "రాల": 1464,
      "నారా": 1465,
      "భార్య": 1466,
      "అధికార": 1467,
      "టీడీపీ": 1468,
      "ంచేందుకు": 1469,
      "ఎన్నికల": 1470,
      "చేస్తా": 1471,
      "యణ": 1472,
      "ఇండియా": 1473,
      "పోర్": 1474,
      "యుడు": 1475,
      "తిలో": 1476,
      "ంబు": 1477,
      "పట్టి": 1478,
      "కారణంగా": 1479,
      "ండె": 1480,
      "అద్": 1481,
      "చర్యలు": 1482,
      "షు": 1483,
      "దాదాపు": 1484,
      "గులు": 1485,
      "చేయడానికి": 1486,
      "అభిమా": 1487,
      "చేస్తు": 1488,
      "లభి": 1489,
      "పంపి": 1490,
      "బ్రా": 1491,
      "వాటిని": 1492,
      "వివా": 1493,
      "ప్రో": 1494,
      "స్టి": 1495,
      "ఇందులో": 1496,
      "తండ": 1497,
      "డ్డా": 1498,
      "మరణ": 1499,
      "మాండ్": 1500,
      "పర్య": 1501,
      "గారి": 1502,
      "అవసర": 1503,
      "ఇంటర్": 1504,
      "తుందని": 1505,
      "వది": 1506,
      "శ్వర": 1507,
      "మందు": 1508,
      "కోవాలి": 1509,
      "లాక్": 1510,
      "రవి": 1511,
      "చెల్లి": 1512,
      "కొనుగో": 1513,
      "గుణ": 1514,
      "పాట": 1515,
      "కాలం": 1516,
      "పొంది": 1517,
      "శాస్త్ర": 1518,
      "కోవాలని": 1519,
      "దేశి": 1520,
      "తమి": 1521,
      "ఆరోగ్య": 1522,
      "కాలంలో": 1523,
      "అమ్మ": 1524,
      "సామా": 1525,
      "ండగా": 1526,
      "పొంద": 1527,
      "పేర్కొన్నారు": 1528,
      "రోజుల": 1529,
      "న్సి": 1530,
      "కొండ": 1531,
      "నాగ": 1532,
      "లైన": 1533,
      "గిలి": 1534,
      "శేష": 1535,
      "అందుకు": 1536,
      "వయ": 1537,
      "ఎందు": 1538,
      "పాటి": 1539,
      "ఆఫ్": 1540,
      "బాధ్య": 1541,
      "వ్యతి": 1542,
      "ప్రవే": 1543,
      "ఏం": 1544,
      "ఎలాంటి": 1545,
      "నను": 1546,
      "కీలక": 1547,
      "రాష్ట్రంలో": 1548,
      "మ్మా": 1549,
      "పెళ్లి": 1550,
      "చట్ట": 1551,
      "ారెడ్డి": 1552,
      "కష్ట": 1553,
      "భో": 1554,
      "లూ": 1555,
      "తిక": 1556,
      "ఫై": 1557,
      "ానికి": 1558,
      "విషయ": 1559,
      "సృష్టి": 1560,
      "ప్రేక్ష": 1561,
      "మూవీ": 1562,
      "కార్డు": 1563,
      "నాన్ని": 1564,
      "గిరి": 1565,
      "సాం": 1566,
      "13": 1567,
      "మవు": 1568,
      "త్తా": 1569,
      "తేదీ": 1570,
      "నాలుగు": 1571,
      "వాని": 1572,
      "చర్య": 1573,
      "),": 1574,
      "ఎంపీ": 1575,
      "పురు": 1576,
      "చికి": 1577,
      "వ్యాప్తంగా": 1578,
      "అందరి": 1579,
      "్యు": 1580,
      "సర్వ": 1581,
      "ఎందుకు": 1582,
      "పులు": 1583,
      "వ్యవస్థ": 1584,
      "అమెరికా": 1585,
      "వివరి": 1586,
      "నిర": 1587,
      "చేత": 1588,
      "జీవిత": 1589,
      "గుర్తు": 1590,
      "నుక": 1591,
      "థా": 1592,
      "శివ": 1593,
      "వ్యతిరే": 1594,
      "చ్చే": 1595,
      "పత్రి": 1596,
      "ఆసక్తి": 1597,
      "భూమి": 1598,
      "శ్రమ": 1599,
      "మ్యాచ్": 1600,
      "రారు": 1601,
      "వేయ": 1602,
      "దానికి": 1603,
      "ఎక్కువగా": 1604,
      "ఒకటి": 1605,
      "గొప్ప": 1606,
      "నిల": 1607,
      "లర్": 1608,
      "సత్య": 1609,
      "ంటుంది": 1610,
      "వీటి": 1611,
      "యీ": 1612,
      "దులు": 1613,
      "వానికి": 1614,
      "మేరకు": 1615,
      "అమలు": 1616,
      "ఇచ్చిన": 1617,
      "దండ": 1618,
      "కొనుగోలు": 1619,
      "డైరె": 1620,
      "ములను": 1621,
      "వరణ": 1622,
      "వ్వు": 1623,
      "మహే": 1624,
      "యంగా": 1625,
      "దగ్గర": 1626,
      "కాలే": 1627,
      "కలె": 1628,
      "బ్రహ్మ": 1629,
      "భాగంగా": 1630,
      "మార": 1631,
      "తికి": 1632,
      "నది": 1633,
      "విచారణ": 1634,
      "చరిత్ర": 1635,
      "మౌ": 1636,
      "విద్యా": 1637,
      "నమోదు": 1638,
      "ఎన్న": 1639,
      "అప్పుడు": 1640,
      "ల్డ్": 1641,
      "ప్రముఖ": 1642,
      "ఎంపి": 1643,
      "చర్చ": 1644,
      "తని": 1645,
      "హీరోయిన్": 1646,
      "ధీ": 1647,
      "దర్శక": 1648,
      "భే": 1649,
      "జరు": 1650,
      "అనంతరం": 1651,
      "ందోళ": 1652,
      "తిరు": 1653,
      "టక": 1654,
      "ప్రకటన": 1655,
      "డవ": 1656,
      "ఛా": 1657,
      "చేశాడు": 1658,
      "సూర్": 1659,
      "అడుగు": 1660,
      "పరిశీ": 1661,
      "సన్": 1662,
      "ఇలాంటి": 1663,
      "షో": 1664,
      "నాల": 1665,
      "ఫర్": 1666,
      "ంచె": 1667,
      "ధర్మ": 1668,
      "అందుకే": 1669,
      "ంటె": 1670,
      "బూ": 1671,
      "200": 1672,
      "మూర్": 1673,
      "తెలుస్తోంది": 1674,
      "దారి": 1675,
      "ఉపా": 1676,
      "నున్నారు": 1677,
      "ప్రేమ": 1678,
      "మోహ": 1679,
      "మాట్లాడ": 1680,
      "పక్క": 1681,
      "బడ": 1682,
      "లైన్": 1683,
      "బాధ": 1684,
      "పది": 1685,
      "ష్ఠ": 1686,
      "చికిత్స": 1687,
      "ప్రొ": 1688,
      "చని": 1689,
      "శ్రీనివా": 1690,
      "ఆధార": 1691,
      "భద్ర": 1692,
      "మండల": 1693,
      "సంతో": 1694,
      "తొల": 1695,
      "హారం": 1696,
      "గతంలో": 1697,
      "ప్రజల": 1698,
      "పణ": 1699,
      "గ్రీ": 1700,
      "దాలు": 1701,
      "జాగ్ర": 1702,
      "భీ": 1703,
      "పున": 1704,
      "చివరి": 1705,
      "డిని": 1706,
      "అత్యంత": 1707,
      "ధర్": 1708,
      "చేస్తుంది": 1709,
      "లేద": 1710,
      "పాల్గొన్నారు": 1711,
      "కొందరు": 1712,
      "వెళ్ల": 1713,
      "ఱు": 1714,
      "మంత్ర": 1715,
      "త్రు": 1716,
      "పోరా": 1717,
      "చ్చింది": 1718,
      "క్రమా": 1719,
      "నగర్": 1720,
      "తండ్రి": 1721,
      "డిమాండ్": 1722,
      "సంగతి": 1723,
      "నిర్ణయి": 1724,
      "ఎవరి": 1725,
      "న్యాయ": 1726,
      "కన": 1727,
      "షూ": 1728,
      "పాద": 1729,
      "అద్భు": 1730,
      "గణ": 1731,
      "వాల": 1732,
      "టాల": 1733,
      "స్పంది": 1734,
      "పడ్డారు": 1735,
      "వ్యాఖ్య": 1736,
      "పెరిగి": 1737,
      "భవి": 1738,
      "మార్కెట్": 1739,
      "తరలి": 1740,
      "ంట్లో": 1741,
      "తనకు": 1742,
      "టల్": 1743,
      "ఇటీవల": 1744,
      "సినిమాలో": 1745,
      "25": 1746,
      "యానికి": 1747,
      "వేదిక": 1748,
      "విధి": 1749,
      "క్రియ": 1750,
      "వాన్ని": 1751,
      "ండే": 1752,
      "ంచండి": 1753,
      "పైగా": 1754,
      "ప్రయత్ని": 1755,
      "సార": 1756,
      "రంలో": 1757,
      "కట్ట": 1758,
      "చేయి": 1759,
      "ముందుకు": 1760,
      "వని": 1761,
      "పడిన": 1762,
      "నంగా": 1763,
      "స్ట్ర": 1764,
      "రేషన్": 1765,
      "బహు": 1766,
      "కము": 1767,
      "పరుగు": 1768,
      "తయారు": 1769,
      "డంలో": 1770,
      "తము": 1771,
      "కేంద్రం": 1772,
      "మాల": 1773,
      "ధులు": 1774,
      "టివ్": 1775,
      "భయ": 1776,
      "అభ్యర్థ": 1777,
      "ందన్నారు": 1778,
      "వర్గ": 1779,
      "క్ట్": 1780,
      "ఎన్నికల్లో": 1781,
      "జాగ్రత్త": 1782,
      "అంచ": 1783,
      "దుర్": 1784,
      "ముగి": 1785,
      "గాలు": 1786,
      "వీరి": 1787,
      "ఆందోళ": 1788,
      "అయినా": 1789,
      "తది": 1790,
      "స్త్రీ": 1791,
      "కోట్లు": 1792,
      "నిజా": 1793,
      "తెలిపి": 1794,
      "నాయకులు": 1795,
      "ఎఫ్": 1796,
      "అధికారి": 1797,
      "రిలీ": 1798,
      "పడే": 1799,
      "వ్యూ": 1800,
      "నియోజ": 1801,
      "కమ": 1802,
      "యూని": 1803,
      "అంతర్": 1804,
      "చెప్పిన": 1805,
      "అనుకు": 1806,
      "పూర్తిగా": 1807,
      "స్తున్నాయి": 1808,
      "లుగు": 1809,
      "విన": 1810,
      "ంగి": 1811,
      "సార్లు": 1812,
      "విశ్వ": 1813,
      "చ్చా": 1814,
      "నిర్ణయం": 1815,
      "స్థాయిలో": 1816,
      "ఖ్యా": 1817,
      "సంస్": 1818,
      "ధ్": 1819,
      "తొలగి": 1820,
      "జ్య": 1821,
      "వర్తి": 1822,
      "రామ్": 1823,
      "ొక": 1824,
      "చుకు": 1825,
      "లాంటి": 1826,
      "యాప్": 1827,
      "ఖర్చు": 1828,
      "పాలి": 1829,
      "శుభ": 1830,
      "అందులో": 1831,
      "ంలోకి": 1832,
      "ప్రశ్ని": 1833,
      "పరిష్": 1834,
      "మళ్": 1835,
      "విలువ": 1836,
      "కోల్": 1837,
      "నియోజక": 1838,
      "అభిప్రా": 1839,
      "దేవు": 1840,
      "యల": 1841,
      "ప్రై": 1842,
      "సుల": 1843,
      "కాక": 1844,
      "పుడు": 1845,
      "కన్": 1846,
      "హెచ్": 1847,
      "య్యాయి": 1848,
      "ప్రధాని": 1849,
      "సమయం": 1850,
      "ప్టె": 1851,
      "అసలు": 1852,
      "లింగ్": 1853,
      "నాథ": 1854,
      "తప్పు": 1855,
      "డర్": 1856,
      "క్సి": 1857,
      "రాజ్": 1858,
      "పట్టు": 1859,
      "చదు": 1860,
      "వాస్త": 1861,
      "మళ్లీ": 1862,
      "దాన్ని": 1863,
      "సభ్యులు": 1864,
      "ట్రో": 1865,
      "డాక్టర్": 1866,
      "మ్మి": 1867,
      "జరగ": 1868,
      "వైసీపీ": 1869,
      "వాలు": 1870,
      "గలి": 1871,
      "ముని": 1872,
      "అప్": 1873,
      "తమిళ": 1874,
      "పొందు": 1875,
      "ంచుచు": 1876,
      "బుల్": 1877,
      "మగు": 1878,
      "నియర్": 1879,
      "సంత": 1880,
      "రెండో": 1881,
      "నడు": 1882,
      "జిల్లాలో": 1883,
      "అప్ప": 1884,
      "సొంత": 1885,
      "వల్": 1886,
      "ములో": 1887,
      "విస్త": 1888,
      "ప్రాజెక్టు": 1889,
      "నమ్మ": 1890,
      "భగ": 1891,
      "సహాయ": 1892,
      "అరె": 1893,
      "మాన్": 1894,
      "ౌన్": 1895,
      "బయట": 1896,
      "గాంధ": 1897,
      "కారణం": 1898,
      "ప్రసా": 1899,
      "ఱి": 1900,
      "మన్": 1901,
      "వలె": 1902,
      "కళా": 1903,
      "కుటుం": 1904,
      "దవ": 1905,
      "చేయాలి": 1906,
      "లిం": 1907,
      "ాల్లో": 1908,
      "మీడియాలో": 1909,
      "య్యారు": 1910,
      "కరమైన": 1911,
      "అందుబాటు": 1912,
      "నేతలు": 1913,
      "వేగ": 1914,
      "పాలు": 1915,
      "యందు": 1916,
      "పోవడం": 1917,
      "కార్యాల": 1918,
      "రాష్ట్రా": 1919,
      "హే": 1920,
      "ాలంటే": 1921,
      "పూర్వ": 1922,
      "దయ": 1923,
      "క్రా": 1924,
      "్యాణ్": 1925,
      "డమే": 1926,
      "నర": 1927,
      "చేసుకో": 1928,
      "తృ": 1929,
      "సోమ": 1930,
      "వివ": 1931,
      "దీనికి": 1932,
      "చేస్తే": 1933,
      "కాల్": 1934,
      "కోరి": 1935,
      "భక్": 1936,
      "హృ": 1937,
      "మద్ద": 1938,
      "ందర్": 1939,
      "తార": 1940,
      "24": 1941,
      "గృ": 1942,
      "రియా": 1943,
      "కొద్ది": 1944,
      "గుర": 1945,
      "ఒకే": 1946,
      "ంటో": 1947,
      "ఉండాలి": 1948,
      "తులను": 1949,
      "వైఎస్": 1950,
      "సామ": 1951,
      "ంచవచ్చు": 1952,
      "మృతి": 1953,
      "మంగళ": 1954,
      "మాని": 1955,
      "కార్యక్రమా": 1956,
      "బడింది": 1957,
      "ముఖ్యంగా": 1958,
      "విక్ర": 1959,
      "చేరుకు": 1960,
      "సెం": 1961,
      "గుల": 1962,
      "పడింది": 1963,
      "చరణ": 1964,
      "కార్యక్రమంలో": 1965,
      "వాల్": 1966,
      "షనల్": 1967,
      "గమని": 1968,
      "ఉత్పత్తి": 1969,
      "విమర్శ": 1970,
      "ఉద్": 1971,
      "కార్యక్రమ": 1972,
      "రుగా": 1973,
      "కృతి": 1974,
      "చూసి": 1975,
      "స్పె": 1976,
      "బ్లీ": 1977,
      "స్నే": 1978,
      "టెక్": 1979,
      "యాత్ర": 1980,
      "ప్తి": 1981,
      "గాంధీ": 1982,
      "యుద్ధ": 1983,
      "చేపట్ట": 1984,
      "అనుమతి": 1985,
      "ధిక": 1986,
      "శ్రా": 1987,
      "చ్ఛ": 1988,
      "నటు": 1989,
      "ఆట": 1990,
      "ట్టే": 1991,
      "పేట": 1992,
      "సంచ": 1993,
      "చోటు": 1994,
      "పించారు": 1995,
      "మన్నారు": 1996,
      "నారాయణ": 1997,
      "ులకు": 1998,
      "ఇద్దరు": 1999,
      "ఫే": 2000,
      "పాది": 2001,
      "దేవి": 2002,
      "పోయారు": 2003,
      "బ్రి": 2004,
      "ఖి": 2005,
      "స్వీ": 2006,
      "ఎందుకంటే": 2007,
      "ర్మన్": 2008,
      "సంబంధించి": 2009,
      "అధ్యక్షుడు": 2010,
      "ఉదయం": 2011,
      "పరు": 2012,
      "సాధ్య": 2013,
      "రిలీజ్": 2014,
      "కేషన్": 2015,
      "సిబ్బంది": 2016,
      "రక్షణ": 2017,
      "అనేది": 2018,
      "తయ": 2019,
      "కమిటీ": 2020,
      "రక్షి": 2021,
      "రవ": 2022,
      "గురి": 2023,
      "ప్లే": 2024,
      "గంటల": 2025,
      "ంటీ": 2026,
      "కృత": 2027,
      "పౌ": 2028,
      "ఐదు": 2029,
      "సెస్": 2030,
      "టంతో": 2031,
      "గ్యా": 2032,
      "వ్రా": 2033,
      "బ్ద": 2034,
      "అడి": 2035,
      "చేరి": 2036,
      "తెరకె": 2037,
      "మూల": 2038,
      "తగిన": 2039,
      "భర్త": 2040,
      "కోవడానికి": 2041,
      "షణ": 2042,
      "ప్పుడూ": 2043,
      "్రెడ్డి": 2044,
      "ముగ": 2045,
      "స్టేషన్": 2046,
      "ల్లె": 2047,
      "మారింది": 2048,
      "కొడు": 2049,
      "లుపు": 2050,
      "బృ": 2051,
      "తాము": 2052,
      "విజయం": 2053,
      "పనులు": 2054,
      "ఆనంద": 2055,
      "ఫల": 2056,
      "తుల్లో": 2057,
      "విశేష": 2058,
      "తీరు": 2059,
      "స్పష్ట": 2060,
      "ఎన్నో": 2061,
      "మీటర్": 2062,
      "పరిశీలి": 2063,
      "జట్టు": 2064,
      "హార్": 2065,
      "వలసిన": 2066,
      "పైన": 2067,
      "కదా": 2068,
      "సమావేశ": 2069,
      "వ్యాపార": 2070,
      "వేసి": 2071,
      "ప్రకా": 2072,
      "ప్యా": 2073,
      "నీరు": 2074,
      "దై": 2075,
      "వరకూ": 2076,
      "జల": 2077,
      "టరీ": 2078,
      "కనీ": 2079,
      "అర్థం": 2080,
      "పంచా": 2081,
      "ణ్య": 2082,
      "సాయి": 2083,
      "టీఆర్ఎస్": 2084,
      "కేసులు": 2085,
      "చక్క": 2086,
      "మైంది": 2087,
      "అమ్మా": 2088,
      "గ్రహ": 2089,
      "దిశ": 2090,
      "తాలు": 2091,
      "సినిమాలు": 2092,
      "సూపర్": 2093,
      "అంగ": 2094,
      "పాయి": 2095,
      "ప్రచారం": 2096,
      "వీర": 2097,
      "పడుతుంది": 2098,
      "భం": 2099,
      "ట్రి": 2100,
      "మార్గ": 2101,
      "పారి": 2102,
      "ఫిర్యా": 2103,
      "పుర": 2104,
      "ద్దా": 2105,
      "లోప": 2106,
      "అలాంటి": 2107,
      "నాటి": 2108,
      "హింద": 2109,
      "పను": 2110,
      "కులకు": 2111,
      "వేళ": 2112,
      "బౌ": 2113,
      "పాఠశాల": 2114,
      "ఎన్టీఆర్": 2115,
      "వంద": 2116,
      "కోరు": 2117,
      "ద్రా": 2118,
      "స్ట్రీ": 2119,
      "విద్యు": 2120,
      "పెట్టుకు": 2121,
      "చొ": 2122,
      "యస్": 2123,
      "మత": 2124,
      "పురం": 2125,
      "బాగు": 2126,
      "రక": 2127,
      "ఎత్తు": 2128,
      "విడి": 2129,
      "త్మక": 2130,
      "దక్షి": 2131,
      "పరిధి": 2132,
      "చేయు": 2133,
      "న్లు": 2134,
      "దర్శకుడు": 2135,
      "కొనసాగు": 2136,
      "నెట్": 2137,
      "ద్ధా": 2138,
      "పంట": 2139,
      "అప్పటి": 2140,
      "ఁడ": 2141,
      "క్లి": 2142,
      "టాయి": 2143,
      "జారీ": 2144,
      "డైరెక్టర్": 2145,
      "శ్య": 2146,
      "స్తామని": 2147,
      "తీసుకో": 2148,
      "మొదలు": 2149,
      "ప్రె": 2150,
      "వరుస": 2151,
      "శుక్ర": 2152,
      "ఆత్మ": 2153,
      "నన్ను": 2154,
      "రహ": 2155,
      "క్యూ": 2156,
      "ఫోటో": 2157,
      "ఇచ్చారు": 2158,
      "100": 2159,
      "మద్దతు": 2160,
      "ంద్రా": 2161,
      "ఎంపిక": 2162,
      "గాలి": 2163,
      "అసెం": 2164,
      "తుడు": 2165,
      "విడ్": 2166,
      "చెయ్య": 2167,
      "నేందుకు": 2168,
      "పద్ధ": 2169,
      "ప్రతిని": 2170,
      "40": 2171,
      "వైరస్": 2172,
      "చదువు": 2173,
      "నడి": 2174,
      "అదన": 2175,
      "సంగీ": 2176,
      "రమ": 2177,
      "అసెంబ్లీ": 2178,
      "ణంలో": 2179,
      "సైతం": 2180,
      "శ్చ": 2181,
      "స్లో": 2182,
      "దానిని": 2183,
      "ఆగ": 2184,
      "స్పష్టం": 2185,
      "ప్రజలకు": 2186,
      "న్నాను": 2187,
      "చైనా": 2188,
      "చేస్తున్నా": 2189,
      "సంప్ర": 2190,
      "బంధ": 2191,
      "గ్గు": 2192,
      "సిటీ": 2193,
      "ండర్": 2194,
      "తులకు": 2195,
      "గ్రం": 2196,
      "బంగ": 2197,
      "నష్ట": 2198,
      "విషయాన్ని": 2199,
      "వాతా": 2200,
      "వెనుక": 2201,
      "సల": 2202,
      "ఎక్కడ": 2203,
      "బోర్": 2204,
      "రూపొంది": 2205,
      "తెలిపింది": 2206,
      "శ్వ": 2207,
      "దిరి": 2208,
      "రోడ్డు": 2209,
      "ళీ": 2210,
      "ఆందోళన": 2211,
      "పట్ల": 2212,
      "మోదీ": 2213,
      "పదార్థ": 2214,
      "ఇండ": 2215,
      "షం": 2216,
      "వైరల్": 2217,
      "శని": 2218,
      "వాయి": 2219,
      "శై": 2220,
      "లోక": 2221,
      "ట్లుగా": 2222,
      "ర్ర": 2223,
      "గడ": 2224,
      "టార్": 2225,
      "నరే": 2226,
      "ష్య": 2227,
      "ఆంధ్రప్రదేశ్": 2228,
      "పుష్": 2229,
      "ందం": 2230,
      "బాధి": 2231,
      "పత్ర": 2232,
      "స్క్": 2233,
      "శేఖ": 2234,
      "సేన": 2235,
      "రోజుల్లో": 2236,
      "దెబ్బ": 2237,
      "ప్రక్రియ": 2238,
      "స్కూ": 2239,
      "కుని": 2240,
      "ఫిర్యాదు": 2241,
      "తెలుసుకు": 2242,
      "స్టో": 2243,
      "కార్యదర్శి": 2244,
      "హత్య": 2245,
      "నమ": 2246,
      "మందికి": 2247,
      "వినిపి": 2248,
      "ఁగ": 2249,
      "సమాధా": 2250,
      "కిలో": 2251,
      "పెట్టిన": 2252,
      "కాలి": 2253,
      "చిత": 2254,
      "సమస్యలు": 2255,
      "గూడ": 2256,
      "మిగిలి": 2257,
      "రకాల": 2258,
      "గాయ": 2259,
      "వాళ్ళ": 2260,
      "య్యే": 2261,
      "పరిచ": 2262,
      "రాజ్య": 2263,
      "ప్రయో": 2264,
      "కాన్": 2265,
      "కుమారు": 2266,
      "షె": 2267,
      "మెగా": 2268,
      "లక్ష్య": 2269,
      "రల్": 2270,
      "ఇంట్లో": 2271,
      "ఆన్": 2272,
      "దాయ": 2273,
      "క్ల": 2274,
      "యిర్": 2275,
      "పన": 2276,
      "భాగం": 2277,
      "యును": 2278,
      "ఘా": 2279,
      "సన్ని": 2280,
      "నిర్వహించారు": 2281,
      "ంచుట": 2282,
      "చింది": 2283,
      "పోవడంతో": 2284,
      "సీసీ": 2285,
      "వ్యవహరి": 2286,
      "మణి": 2287,
      "రాహు": 2288,
      "వాద": 2289,
      "త్వంలో": 2290,
      "ఆక": 2291,
      "డ్రై": 2292,
      "గ్రామా": 2293,
      "జీవ": 2294,
      "స్థానిక": 2295,
      "కొనసాగి": 2296,
      "బడ్": 2297,
      "పోయే": 2298,
      "దాడి": 2299,
      "ఆత్": 2300,
      "రాజధా": 2301,
      "టమి": 2302,
      "కూర్": 2303,
      "త్రా": 2304,
      "హరణ": 2305,
      "సాహి": 2306,
      "ఆప": 2307,
      "ట్వి": 2308,
      "బయటకు": 2309,
      "షూటింగ్": 2310,
      "అవుతుంది": 2311,
      "వివర": 2312,
      "అంతా": 2313,
      "గ్ని": 2314,
      "కేటాయి": 2315,
      "లన": 2316,
      "దరు": 2317,
      "ఆడ": 2318,
      "పురా": 2319,
      "ాలనే": 2320,
      "ఆలోచి": 2321,
      "ముంబ": 2322,
      "రచ": 2323,
      "పరా": 2324,
      "చేశ": 2325,
      "స్థానంలో": 2326,
      "యిల్": 2327,
      "వెబ్": 2328,
      "అండ్": 2329,
      "అప్పు": 2330,
      "మ్స్": 2331,
      "ఇవి": 2332,
      "పేరుతో": 2333,
      "అడ": 2334,
      "ఇష్ట": 2335,
      "రోజులు": 2336,
      "చేసుకున్న": 2337,
      "వాళ్లు": 2338,
      "వాస": 2339,
      "చేయవచ్చు": 2340,
      "గ్రహి": 2341,
      "మానం": 2342,
      "ఆలోచన": 2343,
      "వున్న": 2344,
      "మనో": 2345,
      "మొక్క": 2346,
      "బుధ": 2347,
      "వస్తుంది": 2348,
      "ఉదా": 2349,
      "సోమవారం": 2350,
      "పడ్డా": 2351,
      "ీకరి": 2352,
      "ఆవి": 2353,
      "ఏదో": 2354,
      "22": 2355,
      "నానికి": 2356,
      "చ్చరి": 2357,
      "సముద్ర": 2358,
      "శ్రే": 2359,
      "ంచాయి": 2360,
      "వరం": 2361,
      "పర్యా": 2362,
      "ఫార్": 2363,
      "కులను": 2364,
      "చర్చి": 2365,
      "వేడు": 2366,
      "విశాఖ": 2367,
      "బంధు": 2368,
      "నింది": 2369,
      "జ్ఞాన": 2370,
      "కన్న": 2371,
      "ండును": 2372,
      "గెలి": 2373,
      "రము": 2374,
      "నియా": 2375,
      "హక్కు": 2376,
      "నేని": 2377,
      "శుక్రవారం": 2378,
      "వెల్లడించారు": 2379,
      "దరి": 2380,
      "డైన": 2381,
      "మోడీ": 2382,
      "రత్": 2383,
      "ప్రమాద": 2384,
      "డ్యూ": 2385,
      "సమర్": 2386,
      "అమ్మాయి": 2387,
      "భిన్న": 2388,
      "భవిష": 2389,
      "అనిపి": 2390,
      "పోలీస్": 2391,
      "పుస్త": 2392,
      "సీనియర్": 2393,
      "తీసుకున్న": 2394,
      "పాత": 2395,
      "జనం": 2396,
      "లికి": 2397,
      "ీయ": 2398,
      "వెన": 2399,
      "నవ": 2400,
      "వార్తలు": 2401,
      "డౌన్": 2402,
      "సంవత్సరం": 2403,
      "భవిష్య": 2404,
      "అందరూ": 2405,
      "కూల": 2406,
      "మరోవైపు": 2407,
      "వ్యాఖ్యలు": 2408,
      "మరోసారి": 2409,
      "టాలీవుడ్": 2410,
      "సెల": 2411,
      "అంటున్నారు": 2412,
      "మోహన్": 2413,
      "ంద్": 2414,
      "కలెక్టర్": 2415,
      "దైన": 2416,
      "ఎవరు": 2417,
      "నేషన్": 2418,
      "మార్చి": 2419,
      "రాయ": 2420,
      "బాలీవుడ్": 2421,
      "అక్కడి": 2422,
      "ల్లోకి": 2423,
      "సినీ": 2424,
      "కరు": 2425,
      "రాహుల్": 2426,
      "దర్శన": 2427,
      "చెబుతున్నారు": 2428,
      "వస్తే": 2429,
      "ఏళ్ల": 2430,
      "బాధ్యత": 2431,
      "సుమారు": 2432,
      "మార్పు": 2433,
      "ఆరు": 2434,
      "మహారా": 2435,
      "చున్న": 2436,
      "తప్పి": 2437,
      "ఎదురు": 2438,
      "ప్ల": 2439,
      "పరిమి": 2440,
      "తీసుకొ": 2441,
      "యను": 2442,
      "పండి": 2443,
      "వేర్": 2444,
      "ప్రైవే": 2445,
      "త్వా": 2446,
      "ారావు": 2447,
      "తకు": 2448,
      "నీవు": 2449,
      "వహ": 2450,
      "రైతులు": 2451,
      "నింగ్": 2452,
      "తరులు": 2453,
      "సౌకర్": 2454,
      "దండ్ర": 2455,
      "ండీ": 2456,
      "తెలియజే": 2457,
      "గురువారం": 2458,
      "చేస్తారు": 2459,
      "ప్రభావం": 2460,
      "ట్లను": 2461,
      "ఆదేశి": 2462,
      "రక్త": 2463,
      "నట్లు": 2464,
      "మధు": 2465,
      "చేరు": 2466,
      "న్యూస్": 2467,
      "లియా": 2468,
      "కాదని": 2469,
      "రికార్డు": 2470,
      "సిరీ": 2471,
      "బడ్జె": 2472,
      "పరిశ్రమ": 2473,
      "త్యం": 2474,
      "చేసుకుంది": 2475,
      "గ్రంథ": 2476,
      "21": 2477,
      "చేసేందుకు": 2478,
      "ంగు": 2479,
      "స్ట్రే": 2480,
      "ఆసు": 2481,
      "ందరి": 2482,
      "పూర్ణ": 2483,
      "ఎక్క": 2484,
      "ప్రాణ": 2485,
      "హైకోర్టు": 2486,
      "రగ": 2487,
      "కార్మి": 2488,
      "హెచ్చరి": 2489,
      "నిరా": 2490,
      "పిల్లలు": 2491,
      "పన్ను": 2492,
      "ఆరోపణ": 2493,
      "ప్రతీ": 2494,
      "యాద": 2495,
      "కళ్యాణ్": 2496,
      "ఒక్": 2497,
      "ందర": 2498,
      "స్టె": 2499,
      "23": 2500,
      "మరొక": 2501,
      "అంతర్జాతీయ": 2502,
      "సబ్": 2503,
      "అక్": 2504,
      "సామాజి": 2505,
      "మహేష్": 2506,
      "గాల": 2507,
      "ప్రాంతంలో": 2508,
      "ఇబ్బ": 2509,
      "లేఖ": 2510,
      "నటించిన": 2511,
      "ఉత్తర": 2512,
      "ంతు": 2513,
      "న్నె": 2514,
      "హిట్": 2515,
      "విద్యుత్": 2516,
      "పండు": 2517,
      "రాశి": 2518,
      "విజయ్": 2519,
      "రాజీ": 2520,
      "క్రె": 2521,
      "వెళ్ళి": 2522,
      "రైల్": 2523,
      "కోరారు": 2524,
      "నంది": 2525,
      "ప్రశ్న": 2526,
      "లియన్": 2527,
      "మూర్తి": 2528,
      "కర్మ": 2529,
      "హాలు": 2530,
      "పోస్టు": 2531,
      "హామీ": 2532,
      "ప్రస": 2533,
      "ంత్రం": 2534,
      "000": 2535,
      "వేద": 2536,
      ").": 2537,
      "వర్ణ": 2538,
      "సూచించారు": 2539,
      "పెడు": 2540,
      "ఇంగ్": 2541,
      "కడ": 2542,
      "వాల్సి": 2543,
      "చిరం": 2544,
      "మంగళవారం": 2545,
      "మనకు": 2546,
      "పల్": 2547,
      "రొ": 2548,
      "జరిగే": 2549,
      "షాలు": 2550,
      "సమీప": 2551,
      "ారాన్ని": 2552,
      "పూజ": 2553,
      "ప్రాంతాల్లో": 2554,
      "న్యం": 2555,
      "సందే": 2556,
      "ంపఁ": 2557,
      "ారిటీ": 2558,
      "ఆయా": 2559,
      "పోస్ట్": 2560,
      "ంజ": 2561,
      "ఆదివారం": 2562,
      "దీర్": 2563,
      "ఆఫీ": 2564,
      "వీరు": 2565,
      "ంచినట్లు": 2566,
      "బుధవారం": 2567,
      "అరు": 2568,
      "ష్ణు": 2569,
      "నాయుడు": 2570,
      "పాలన": 2571,
      "స్తులు": 2572,
      "ఘన": 2573,
      "మార్ట్": 2574,
      "ఎక్స్": 2575,
      "నాట": 2576,
      "అందుబాటులో": 2577,
      "వేరు": 2578,
      "కర్త": 2579,
      "ఉంటుందని": 2580,
      "లగు": 2581,
      "ఇబ్బందు": 2582,
      "నిపుణ": 2583,
      "స్థానం": 2584,
      "కీర్": 2585,
      "భక్తి": 2586,
      "అడ్డు": 2587,
      "ప్రమాదం": 2588,
      "ఓవర్": 2589,
      "యాం": 2590,
      "వినియోగ": 2591,
      "రద్దు": 2592,
      "ల్ప": 2593,
      "శాసన": 2594,
      "ష్టా": 2595,
      "రంగు": 2596,
      "తాడు": 2597,
      "లిక": 2598,
      "యులు": 2599,
      "చైర్మన్": 2600,
      "సింహ": 2601,
      "బడుతుంది": 2602,
      "న్లో": 2603,
      "సంక్షే": 2604,
      "ఠి": 2605,
      "బిగ్": 2606,
      "ళ్లలో": 2607,
      "సాహ": 2608,
      "త్తులు": 2609,
      "60": 2610,
      "వ్యాధి": 2611,
      "జాల": 2612,
      ".\"": 2613,
      "వృత్తి": 2614,
      "అవకాశాలు": 2615,
      "కృషి": 2616,
      "తల్లిదండ్ర": 2617,
      "దైనా": 2618,
      "చిరంజీవి": 2619,
      "న్సీ": 2620,
      "నేడు": 2621,
      "రాజధాని": 2622,
      "తిన": 2623,
      "జయ": 2624,
      "ఆర్ఎస్": 2625,
      "గవర్": 2626,
      "సంపాది": 2627,
      "ంట్లు": 2628,
      "సామాజిక": 2629,
      "గుండె": 2630,
      "వంతు": 2631,
      "కప్": 2632,
      "శాంతి": 2633,
      "వార్త": 2634,
      "త్వరలో": 2635,
      "సర్వే": 2636,
      "చక్ర": 2637,
      "80": 2638,
      "గట్టి": 2639,
      "విమర్శి": 2640,
      "శాం": 2641,
      "సరైన": 2642,
      "ాలనుకు": 2643,
      "హౌ": 2644,
      "పడుతున్న": 2645,
      "టూ": 2646,
      "లాలు": 2647,
      "నగర": 2648,
      "స్మార్ట్": 2649,
      "టీసీ": 2650,
      "జనా": 2651,
      "చదవ": 2652,
      "ఆశ్": 2653,
      "ద్రి": 2654,
      "నివ": 2655,
      "ప్రసాద్": 2656,
      "ఎవర": 2657,
      "ఉంటారు": 2658,
      "ముగ్": 2659,
      "శనివారం": 2660,
      "సాధారణంగా": 2661,
      "బ్యూ": 2662,
      "దుపు": 2663,
      "సంఘటన": 2664,
      "ట్వీ": 2665,
      "య్యి": 2666,
      "మరణి": 2667,
      "నామా": 2668,
      "కుం": 2669,
      "ఇంటికి": 2670,
      "క్రితం": 2671,
      "ళ్లకు": 2672,
      "నామ": 2673,
      "ట్రై": 2674,
      "మానవ": 2675,
      "ప్లాన్": 2676,
      "రైల్వే": 2677,
      "ఆస్ప": 2678,
      "దిగు": 2679,
      "ప్రకటించారు": 2680,
      "ంచడంతో": 2681,
      "ముఖ్యమైన": 2682,
      "పాకి": 2683,
      "దీనిని": 2684,
      "బీఐ": 2685,
      "విరా": 2686,
      "సీజన్": 2687,
      "నెలకొ": 2688,
      "కనీసం": 2689,
      "కేసులో": 2690,
      "దరఖా": 2691,
      "ష్యా": 2692,
      "చుట్ట": 2693,
      "గ్రహం": 2694,
      "ంచెను": 2695,
      "ార్డు": 2696,
      "విష్ణు": 2697,
      "ప్రయోజ": 2698,
      "వివరాలు": 2699,
      "నిర్మాణ": 2700,
      "ండ్ల": 2701,
      "తెలంగాణలో": 2702,
      "వ్యవసాయ": 2703,
      "ుని": 2704,
      "బ్రే": 2705,
      "పురుష": 2706,
      "శ్చి": 2707,
      "బహి": 2708,
      "ారాలు": 2709,
      "వంతమైన": 2710,
      "దారులు": 2711,
      "ప్రయాణి": 2712,
      "రోడ్": 2713,
      "తెరకెక్కి": 2714,
      "తత్": 2715,
      "సంవత్సరాల": 2716,
      "వంట": 2717,
      "చేప": 2718,
      "రింగ్": 2719,
      "హర్": 2720,
      "శ్రీనివాస్": 2721,
      "ఠా": 2722,
      "స్తి": 2723,
      "ంజ్": 2724,
      "వస్తున్న": 2725,
      "లక్షణ": 2726,
      "వెలుగు": 2727,
      "ఁగా": 2728,
      "వాళ్ల": 2729,
      "ఆకర్": 2730,
      "ఐపీ": 2731,
      "పోతుంది": 2732,
      "ంచలేదు": 2733,
      "మహిళా": 2734,
      "సెల్": 2735,
      "మంద": 2736,
      "టన్": 2737,
      "పాజి": 2738,
      "బ్యాంకు": 2739,
      "ఈరోజు": 2740,
      "28": 2741,
      "ధో": 2742,
      "సుఖ": 2743,
      "రవా": 2744,
      "లోనూ": 2745,
      "వున": 2746,
      "బాలి": 2747,
      "అయింది": 2748,
      "న్నే": 2749,
      "ప్రాధా": 2750,
      "ఖాతా": 2751,
      "తిరుగు": 2752,
      "గ్గా": 2753,
      "తారా": 2754,
      "స్నేహి": 2755,
      "పరిశో": 2756,
      "నీయ": 2757,
      "ప్రవేశ": 2758,
      "ప్రారంభం": 2759,
      "ంచ్": 2760,
      "పిన": 2761,
      "చ్చితంగా": 2762,
      "పిక్": 2763,
      "ఉదాహరణ": 2764,
      "పోషి": 2765,
      "లాండ్": 2766,
      "గడి": 2767,
      "ఆహార": 2768,
      "యోగం": 2769,
      "స్పీ": 2770,
      "పెట్టారు": 2771,
      "మ్యూ": 2772,
      "పిల్లల": 2773,
      "అతడు": 2774,
      "బిడ్డ": 2775,
      "పలువు": 2776,
      "వేత్త": 2777,
      "షేర్": 2778,
      "ముంబై": 2779,
      "చూపు": 2780,
      "అయ్యి": 2781,
      "ఉండగా": 2782,
      "ఇండస్ట్రీ": 2783,
      "ఎదుర్కొ": 2784,
      "సహజ": 2785,
      "నెస్": 2786,
      "పార్ల": 2787,
      "విభ": 2788,
      "26": 2789,
      "చున్నది": 2790,
      "చం": 2791,
      "మించి": 2792,
      "మండి": 2793,
      "టిల్": 2794,
      "వ్యాఖ్యా": 2795,
      "సంబంధం": 2796,
      "అర్జు": 2797,
      "రాజే": 2798,
      "టాక్": 2799,
      "వలసి": 2800,
      "ఆధారంగా": 2801,
      "మనసు": 2802,
      "నిర్మాత": 2803,
      "వచ్చాయి": 2804,
      "మాకు": 2805,
      "సుప్రీ": 2806,
      "జరా": 2807,
      "రాలే": 2808,
      "చేయా": 2809,
      "రానికి": 2810,
      "అద్భుతమైన": 2811,
      "్రో": 2812,
      "రాయి": 2813,
      "టిఫి": 2814,
      "మీటర్ల": 2815,
      "ద్వి": 2816,
      "జరుగుతున్న": 2817,
      "దీనిపై": 2818,
      "మనిషి": 2819,
      "షీ": 2820,
      "ప్రయత్నం": 2821,
      "బాస్": 2822,
      "సారు": 2823,
      "ంచుకున్న": 2824,
      "డిసె": 2825,
      "డ్రా": 2826,
      "సమావేశంలో": 2827,
      "లవ": 2828,
      "మళ్ళ": 2829,
      "ఒత్తి": 2830,
      "చెప్పే": 2831,
      "కలా": 2832,
      "నేషనల్": 2833,
      "మండలం": 2834,
      "ఏడు": 2835,
      "దేశాల": 2836,
      "కార్పొ": 2837,
      "కాస్త": 2838,
      "క్షలు": 2839,
      "ట్యూ": 2840,
      "ఏదైనా": 2841,
      "ఆదా": 2842,
      "27": 2843,
      "ఫ్ట్": 2844,
      "శాడు": 2845,
      "తీసుకె": 2846,
      "ొచ్చు": 2847,
      "నుల": 2848,
      "ఇచ్చే": 2849,
      "లక్ష్మీ": 2850,
      "ఫొ": 2851,
      "సినిమాను": 2852,
      "గ్యం": 2853,
      "మల్": 2854,
      "ఆధ్": 2855,
      "నిద్ర": 2856,
      "అటు": 2857,
      "పాన్": 2858,
      "బలి": 2859,
      "రావడం": 2860,
      "దేశాలు": 2861,
      "హీరోగా": 2862,
      "సూర్య": 2863,
      "ఎయిర్": 2864,
      "ఆశ": 2865,
      "నిర్మాణం": 2866,
      "వసూ": 2867,
      "ులను": 2868,
      "చెన్న": 2869,
      "కూతు": 2870,
      "కూర్చు": 2871,
      "చేయండి": 2872,
      "పైకి": 2873,
      "బ్లాక్": 2874,
      "ంచగా": 2875,
      "సినిమాకు": 2876,
      "ప్యూ": 2877,
      "వర్గం": 2878,
      "దీర్ఘ": 2879,
      "ఉండి": 2880,
      "ాలన్నారు": 2881,
      "కలిగిన": 2882,
      "ఇచ్చి": 2883,
      "ంచారని": 2884,
      "పద్": 2885,
      "జాబి": 2886,
      "విద్యార్థులు": 2887,
      "పరుగులు": 2888,
      "తః": 2889,
      "దర్యాప్": 2890,
      "దీన్ని": 2891,
      "లేరు": 2892,
      "ఆధ్వర్": 2893,
      "వంతంగా": 2894,
      "ఏప్రి": 2895,
      "సాయం": 2896,
      "బున": 2897,
      "నీకు": 2898,
      "నల్ల": 2899,
      "గడు": 2900,
      "రాము": 2901,
      "స్తాడు": 2902,
      "దర్యాప్తు": 2903,
      "వెంకటే": 2904,
      "క్రే": 2905,
      "చిత్రంలో": 2906,
      "బడ్జెట్": 2907,
      "యాల్లో": 2908,
      "గుర్తింపు": 2909,
      "పొందిన": 2910,
      "జీవితం": 2911,
      "గాక": 2912,
      "అర": 2913,
      "ళం": 2914,
      "సంఘం": 2915,
      "తేజ": 2916,
      "పవర్": 2917,
      "యున్న": 2918,
      "ప్రణా": 2919,
      "స్నా": 2920,
      "ైర్": 2921,
      "వివరించారు": 2922,
      "శర్మ": 2923,
      "సాయంత్రం": 2924,
      "అంచనా": 2925,
      "మ్య": 2926,
      "హన": 2927,
      "మద్య": 2928,
      "ఎవ": 2929,
      "తీసుకుని": 2930,
      "అన్నాడు": 2931,
      "క్షా": 2932,
      "దాంతో": 2933,
      "కనుక": 2934,
      "చది": 2935,
      "||": 2936,
      "ంటాడు": 2937,
      "అడ్": 2938,
      "కంటె": 2939,
      "ఫొటో": 2940,
      "పూర్త": 2941,
      "శిక్షణ": 2942,
      "ందనే": 2943,
      "యేటర్": 2944,
      "కుడి": 2945,
      "టాప్": 2946,
      "రాక": 2947,
      "దురు": 2948,
      "చేస్తోంది": 2949,
      "జనవరి": 2950,
      "గ్రూ": 2951,
      "జయ్": 2952,
      "మాయ": 2953,
      "గది": 2954,
      "రేట్": 2955,
      "కట్టు": 2956,
      "కడు": 2957,
      "పెన్": 2958,
      "ఉత్తమ": 2959,
      "లెక్క": 2960,
      "పుట్టిన": 2961,
      "వాది": 2962,
      "డ్స్": 2963,
      "సినిమ": 2964,
      "నిర్ధ": 2965,
      "సుప్రీం": 2966,
      "స్వరూ": 2967,
      "శబ్ద": 2968,
      "గృహ": 2969,
      "పేద": 2970,
      "మాం": 2971,
      "తీసి": 2972,
      "గ్రే": 2973,
      "సిరీస్": 2974,
      "తెలుగులో": 2975,
      "కొట్ట": 2976,
      "సంతోష": 2977,
      "తదితరులు": 2978,
      "ళు": 2979,
      "క్రికెట్": 2980,
      "పేర్కొంది": 2981,
      "పోయాడు": 2982,
      "మరీ": 2983,
      "రుచి": 2984,
      "దర్శకత్వంలో": 2985,
      "మానా": 2986,
      "విమర్శలు": 2987,
      "కలిపి": 2988,
      "అభిమానులు": 2989,
      "తమకు": 2990,
      "కలుగు": 2991,
      "తీవ్రంగా": 2992,
      "ంటాయి": 2993,
      "తగ్గ": 2994,
      "కావడం": 2995,
      "బుక్": 2996,
      "బిల్లు": 2997,
      "బట్ట": 2998,
      "భారీగా": 2999,
      "మైనా": 3000,
      "ాడు": 3001,
      "కెట్లు": 3002,
      "మిగిలిన": 3003,
      "లింగ": 3004,
      "వుంది": 3005,
      "నియమి": 3006,
      "సలు": 3007,
      "ప్రతిపక్ష": 3008,
      "వాల్సిన": 3009,
      "బద్ధ": 3010,
      "గోదా": 3011,
      "తాన్ని": 3012,
      "ఖాన్": 3013,
      "వారిలో": 3014,
      "నాని": 3015,
      "తనను": 3016,
      "హిత": 3017,
      "బరువు": 3018,
      "అవసరమైన": 3019,
      "ళ్లను": 3020,
      "చూస్తే": 3021,
      "నెలల": 3022,
      "వేసిన": 3023,
      "శ్వరు": 3024,
      "తున్నాడు": 3025,
      "ారట": 3026,
      "ఆయనకు": 3027,
      "తయారీ": 3028,
      "కన్నా": 3029,
      "కూర": 3030,
      "గాయి": 3031,
      "మాస్": 3032,
      "ఆత్మహ": 3033,
      "మృత": 3034,
      "రని": 3035,
      "హ్యా": 3036,
      "మాటలు": 3037,
      "ల్చి": 3038,
      "నాణ్య": 3039,
      "పరిణా": 3040,
      "రెండవ": 3041,
      "మెంట్స్": 3042,
      "సత్": 3043,
      "మితి": 3044,
      "చిత్రాన్ని": 3045,
      "శంకర్": 3046,
      "బరి": 3047,
      "నందు": 3048,
      "ఆసుపత్రి": 3049,
      "బాలు": 3050,
      "ఆధ్వర్యంలో": 3051,
      "బ్రహ్": 3052,
      "మున్సి": 3053,
      "విరు": 3054,
      "తెచ్చు": 3055,
      "చేర్": 3056,
      "ాలపై": 3057,
      "శ్వర్": 3058,
      "ఆహ్": 3059,
      "ముతో": 3060,
      "నూతన": 3061,
      "భాగా": 3062,
      "దరఖాస్తు": 3063,
      "ంచక": 3064,
      "సురే": 3065,
      "రుగ": 3066,
      "ట్లే": 3067,
      "మాను": 3068,
      "ంతర": 3069,
      "సంబంధ": 3070,
      "ప్రణాళి": 3071,
      "కథా": 3072,
      "బ్యాంక్": 3073,
      "అవగా": 3074,
      "పలువురు": 3075,
      "చౌ": 3076,
      "డల్": 3077,
      "సాంకే": 3078,
      "పెట్టే": 3079,
      "ప్రత్యేకంగా": 3080,
      "పదవి": 3081,
      "పర్యటన": 3082,
      "గూర్": 3083,
      "గుజరా": 3084,
      "ణానికి": 3085,
      "అందరికీ": 3086,
      "కేంద్రా": 3087,
      "వయసు": 3088,
      "చరణ్": 3089,
      "రష్యా": 3090,
      "వచ్చారు": 3091,
      "ఇబ్బంది": 3092,
      "ాలె": 3093,
      "అందజే": 3094,
      "ఘు": 3095,
      "స్తుందని": 3096,
      "తెల్ల": 3097,
      "నిర్వహ": 3098,
      "యతీ": 3099,
      "స్తున్నాడు": 3100,
      "గానీ": 3101,
      "కొడుకు": 3102,
      "కెప్టె": 3103,
      "జరుపు": 3104,
      "కేటీఆర్": 3105,
      "సారిగా": 3106,
      "బుద్ధి": 3107,
      "విధానం": 3108,
      "నీతి": 3109,
      "స్తున్నట్లు": 3110,
      "వెల్": 3111,
      "మీర్": 3112,
      "టీవీ": 3113,
      "శృ": 3114,
      "ండెను": 3115,
      "మళ్ళీ": 3116,
      "శేఖర్": 3117,
      "ఎప్పుడూ": 3118,
      "ండ్లు": 3119,
      "చేర": 3120,
      "పట్టణ": 3121,
      "గాను": 3122,
      "ముందే": 3123,
      "ప్రశ్నించారు": 3124,
      "నాలను": 3125,
      "అల్లు": 3126,
      "్రు": 3127,
      "పంపిణీ": 3128,
      "చైత": 3129,
      "య్యాడు": 3130,
      "ఏప్రిల్": 3131,
      "జనీ": 3132,
      "దాడు": 3133,
      "థియేటర్": 3134,
      "పాప": 3135,
      "పరిచయం": 3136,
      "లేవు": 3137,
      "కూడదు": 3138,
      "మెడి": 3139,
      "ప్రస్తుత": 3140,
      "చార్": 3141,
      "బోయే": 3142,
      "స్తున్నారని": 3143,
      "సెంటర్": 3144,
      "29": 3145,
      "ఫ్రె": 3146,
      "చార్య": 3147,
      "పంప": 3148,
      "పత్తి": 3149,
      "కని": 3150,
      "అక్టో": 3151,
      "పొడి": 3152,
      "దేశీ": 3153,
      "నిలు": 3154,
      "ఇక్క": 3155,
      "టెడ్": 3156,
      "ఎలక్": 3157,
      "మునందు": 3158,
      "అక్ష": 3159,
      "సమావేశం": 3160,
      "క్కా": 3161,
      "పట్": 3162,
      "రాం": 3163,
      "వచ్చును": 3164,
      "దూరం": 3165,
      "రీర్": 3166,
      "అమరావ": 3167,
      "నరేంద్ర": 3168,
      "నిరో": 3169,
      "సూత్ర": 3170,
      "విశ్వా": 3171,
      "మొదట": 3172,
      "కోరుకు": 3173,
      "ప్రదర్శి": 3174,
      "కొత్తగా": 3175,
      "రచయి": 3176,
      "70": 3177,
      "కునే": 3178,
      "కున్నారు": 3179,
      "కృష్": 3180,
      "బ్రాహ్మ": 3181,
      "సామర్థ": 3182,
      "జూన్": 3183,
      "సెప్టె": 3184,
      "ట్వీట్": 3185,
      "కటి": 3186,
      "ముందుగా": 3187,
      "క్షేత్ర": 3188,
      "ల్లోని": 3189,
      "పబ్": 3190,
      "శము": 3191,
      "ఆరోపించారు": 3192,
      "అరెస్టు": 3193,
      "నిరు": 3194,
      "పటి": 3195,
      "సిక": 3196,
      "సంగ": 3197,
      "తనం": 3198,
      "ఏర్పా": 3199,
      "పడుతున్నారు": 3200,
      "మూడో": 3201,
      "అంశం": 3202,
      "ఐటీ": 3203,
      "లొ": 3204,
      "కెరీర్": 3205,
      "వులను": 3206,
      "ఆకట్టుకు": 3207,
      "శుభ్ర": 3208,
      "వ్యతిరేకంగా": 3209,
      "బోర్డు": 3210,
      "ఎవరూ": 3211,
      "అవార్డు": 3212,
      "ఆస్పత్రి": 3213,
      "షాక్": 3214,
      "కాన్ని": 3215,
      "తరగతి": 3216,
      "అబ్": 3217,
      "పోర్ట్": 3218,
      "గతా": 3219,
      "యితే": 3220,
      "పోయినా": 3221,
      "దను": 3222,
      "దుల": 3223,
      "రాణి": 3224,
      "గుజరాత్": 3225,
      "హ్య": 3226,
      "కావడంతో": 3227,
      "బులు": 3228,
      "నాయక": 3229,
      "అగ్ని": 3230,
      "సాంకేతిక": 3231,
      "ంచనున్నారు": 3232,
      "సిద్ధం": 3233,
      "ధరి": 3234,
      "2023": 3235,
      "కామె": 3236,
      "డితే": 3237,
      "అన్": 3238,
      "చూసిన": 3239,
      "199": 3240,
      "రాజా": 3241,
      "ఆటో": 3242,
      "ఆత్మహత్య": 3243,
      "ఎస్పీ": 3244,
      "లక్ష్మి": 3245,
      "ట్టర్": 3246,
      "జాన్": 3247,
      "సాను": 3248,
      "దక్షిణ": 3249,
      "ఏక": 3250,
      "వేగంగా": 3251,
      "పించి": 3252,
      "కుండ": 3253,
      "వసర": 3254,
      "రూపంలో": 3255,
      "!!": 3256,
      "ప్రభాస్": 3257,
      "కంట": 3258,
      "నియోజకవర్గ": 3259,
      "శరీర": 3260,
      "కార్యక్రమం": 3261,
      "నన్న": 3262,
      "అభిప్రాయ": 3263,
      "స్తారని": 3264,
      "మాలు": 3265,
      "స్థాని": 3266,
      "చెప్పింది": 3267,
      "స్థాన్": 3268,
      "ల్యా": 3269,
      "రాష్ట్రం": 3270,
      "వడ్": 3271,
      "ఇతి": 3272,
      "మిన": 3273,
      "కోట్": 3274,
      "సభలో": 3275,
      "కర్ణా": 3276,
      "పరంగా": 3277,
      "డాల": 3278,
      "సంస్థలు": 3279,
      "మార్గం": 3280,
      "ఉపయోగ": 3281,
      "కరంగా": 3282,
      "బస్సు": 3283,
      "చుట్టూ": 3284,
      "ఆమో": 3285,
      "తెలుసా": 3286,
      "జన్మ": 3287,
      "రియల్": 3288,
      "నిర్వహణ": 3289,
      "సులభ": 3290,
      "చిరు": 3291,
      "క్లా": 3292,
      "గవర్నర్": 3293,
      "దుః": 3294,
      "ప్రకటించింది": 3295,
      "విడ": 3296,
      "సరఫ": 3297,
      "నాథ్": 3298,
      "పార్టీకి": 3299,
      "వ్యాక్సి": 3300,
      "పిటి": 3301,
      "క్సెస్": 3302,
      "మంచిది": 3303,
      "సిపి": 3304,
      "హాజర": 3305,
      "వాళ్ళు": 3306,
      "సరిగా": 3307,
      "రిజర్": 3308,
      "దార్": 3309,
      "మొబై": 3310,
      "రవాణా": 3311,
      "ంచుకొని": 3312,
      "టెస్టు": 3313,
      "పద్య": 3314,
      "సహాయం": 3315,
      "అవగాహన": 3316,
      "రోహి": 3317,
      "చ్చాడు": 3318,
      "మొదలైన": 3319,
      "నిపుణులు": 3320,
      "న్యాయం": 3321,
      "నిర్వహించిన": 3322,
      "ఇచ్చింది": 3323,
      "నున్నట్లు": 3324,
      "మాట్లాడారు": 3325,
      "అధినేత": 3326,
      "అభ్యర్థి": 3327,
      "2019": 3328,
      "ఎన్నికలు": 3329,
      "దృష్ట": 3330,
      "ఆశి": 3331,
      "పర్వ": 3332,
      "సిరి": 3333,
      "మొత్త": 3334,
      "పోయాయి": 3335,
      "క్రమంగా": 3336,
      "కెమె": 3337,
      "విజయవాడ": 3338,
      "ఆడి": 3339,
      "అమి": 3340,
      "గల్": 3341,
      "ప్రభుత్వానికి": 3342,
      "తోనే": 3343,
      "క్ట": 3344,
      "జీవితంలో": 3345,
      "ద్దీ": 3346,
      "గోదావరి": 3347,
      "మైనది": 3348,
      "ఆన్లైన్": 3349,
      "వర్ష": 3350,
      "అదుపు": 3351,
      "విషయాలు": 3352,
      "పంచాయతీ": 3353,
      "దక్కి": 3354,
      "దళి": 3355,
      "ఎప్పుడు": 3356,
      "ంచబడింది": 3357,
      "ర్స్": 3358,
      "కత": 3359,
      "దూరంగా": 3360,
      "జెపి": 3361,
      "డలు": 3362,
      "చిత్త": 3363,
      "షనర్": 3364,
      "రైతులకు": 3365,
      "టెస్ట్": 3366,
      "ఆప్": 3367,
      "ఉన్నట్లు": 3368,
      "వంత్": 3369,
      "ఊహి": 3370,
      "పోవు": 3371,
      "35": 3372,
      "కాపా": 3373,
      "చెంద": 3374,
      "ఖాళీ": 3375,
      "ఉండటం": 3376,
      "రస": 3377,
      "మనస్సు": 3378,
      "పాయింట్": 3379,
      "ంతం": 3380,
      "చాల": 3381,
      "ఇవ్వాలని": 3382,
      "వ్యాప": 3383,
      "వర్మ": 3384,
      "సమాధానం": 3385,
      "వతి": 3386,
      "ధాలు": 3387,
      "తేడా": 3388,
      "వారీ": 3389,
      "ఇబ్బందులు": 3390,
      "సమర్థ": 3391,
      "బోతున్న": 3392,
      "డిస్": 3393,
      "లక్షణాలు": 3394,
      "ఇప్పటికీ": 3395,
      "రమే": 3396,
      "ట్యా": 3397,
      "శిక్ష": 3398,
      "యజ": 3399,
      "పరిష్కరి": 3400,
      "ఘో": 3401,
      "ంచుకుని": 3402,
      "చెప్పాడు": 3403,
      "ఆరోగ్యం": 3404,
      "నొప్పి": 3405,
      "భయం": 3406,
      "వర్క్": 3407,
      "సర్వీ": 3408,
      "భారతీయ": 3409,
      "మిత్ర": 3410,
      "అన్నీ": 3411,
      "జ్యో": 3412,
      "యన్స్": 3413,
      "తప్పని": 3414,
      "స్యా": 3415,
      "పోలీసులకు": 3416,
      "ష్ట్ర": 3417,
      "ముగ్గురు": 3418,
      "ప్రవేశి": 3419,
      "గంటలకు": 3420,
      "యగు": 3421,
      "స్పి": 3422,
      "కరె": 3423,
      "ఎంటర్": 3424,
      "చేసుకుని": 3425,
      "క్రో": 3426,
      "మధ్యా": 3427,
      "మ్మడి": 3428,
      "సమే": 3429,
      "వలెను": 3430,
      "ఏమీ": 3431,
      "అయ్యారు": 3432,
      "కూడిన": 3433,
      "శ్యా": 3434,
      "ఛార్": 3435,
      "డూ": 3436,
      "చుగా": 3437,
      "కాయ": 3438,
      "అతనికి": 3439,
      "సంక్షేమ": 3440,
      "రచి": 3441,
      "లక్షలు": 3442,
      "వాణి": 3443,
      "బిజెపి": 3444,
      "కురి": 3445,
      "ఎప్పటి": 3446,
      "శాన్ని": 3447,
      "\"\"": 3448,
      "అవ్వ": 3449,
      "ఆహారం": 3450,
      "ంచును": 3451,
      "కొట్టి": 3452,
      "ఖీ": 3453,
      "ఓడి": 3454,
      "నిన్న": 3455,
      "రైలు": 3456,
      "ఎంట": 3457,
      "పదే": 3458,
      "రౌ": 3459,
      "ట్టుగా": 3460,
      "ప్రయోజన": 3461,
      "ఫుల్": 3462,
      "గ్రామంలో": 3463,
      "దాన": 3464,
      "డల": 3465,
      "ధరలు": 3466,
      "ప్రేక్షకుల": 3467,
      "ంచినా": 3468,
      "జాబ్": 3469,
      "అదనపు": 3470,
      "ఆమెను": 3471,
      "భవిష్యత్తు": 3472,
      "ప్రశం": 3473,
      "బీసీ": 3474,
      "జనసేన": 3475,
      "రాజ్యా": 3476,
      "దొంగ": 3477,
      "జరుగుతుంది": 3478,
      "వేశారు": 3479,
      "ఎల్ల": 3480,
      "ఒప్ప": 3481,
      "నిల్": 3482,
      "వదిలి": 3483,
      "రిజి": 3484,
      "జున": 3485,
      "పాత్రలో": 3486,
      "జాబితా": 3487,
      "షన్స్": 3488,
      "నష్టం": 3489,
      "నాటికి": 3490,
      "తానికి": 3491,
      "తాత్": 3492,
      "టిక్": 3493,
      "సెట్": 3494,
      "ంటున్నా": 3495,
      "చేసినట్లు": 3496,
      "బల్": 3497,
      "కస్ట": 3498,
      "కాలను": 3499,
      "హాట్": 3500,
      "బంధన": 3501,
      "రులు": 3502,
      "డేటా": 3503,
      "సిద్ధి": 3504,
      "నాం": 3505,
      "కారులు": 3506,
      "అంటారు": 3507,
      "ఏమిటి": 3508,
      "పరీక్షలు": 3509,
      "లక్ష్మ": 3510,
      "ల్లం": 3511,
      "చదవండి": 3512,
      "సాగ": 3513,
      "31": 3514,
      "తీసుకోవాలని": 3515,
      "ఒకరు": 3516,
      "అంగీకరి": 3517,
      "నిష్": 3518,
      "చేసుకున్నారు": 3519,
      "బాయి": 3520,
      "జంట": 3521,
      "రైతుల": 3522,
      "ఉన్నప్పుడు": 3523,
      "పట్టుకు": 3524,
      "ఫీచర్": 3525,
      "నొక": 3526,
      "ప్రారంభించారు": 3527,
      "డింగ్": 3528,
      "సరే": 3529,
      "ఆరోపణలు": 3530,
      "చిత్రానికి": 3531,
      "ాలే": 3532,
      "సల్": 3533,
      "లోకే": 3534,
      "కుటుంబం": 3535,
      "ందన": 3536,
      "గెలు": 3537,
      "నిజానికి": 3538,
      "పరిస్థితులు": 3539,
      "డిసెంబర్": 3540,
      "ఆయు": 3541,
      "హిందూ": 3542,
      "వేలు": 3543,
      "కావ్య": 3544,
      "నిరసన": 3545,
      "స్తాన్": 3546,
      "కరించి": 3547,
      "హాన్ని": 3548,
      "వస": 3549,
      "ముస్": 3550,
      "సింగ": 3551,
      "కర్ణాటక": 3552,
      "ండియా": 3553,
      "భవం": 3554,
      "ంప్": 3555,
      "చారి": 3556,
      "దిన": 3557,
      "వెంకట": 3558,
      "కోవిడ్": 3559,
      "డబ్బులు": 3560,
      "డిపి": 3561,
      "ఫ్ర": 3562,
      "కెప్టెన్": 3563,
      "ఎటువంటి": 3564,
      "ములకు": 3565,
      "జైలు": 3566,
      "గాడు": 3567,
      "షియల్": 3568,
      "బ్రవరి": 3569,
      "చేశారని": 3570,
      "స్థితి": 3571,
      "అరెస్ట్": 3572,
      "పోలి": 3573,
      "నేటి": 3574,
      "మహిళలు": 3575,
      "ఆమెకు": 3576,
      "నటుడు": 3577,
      "హరీ": 3578,
      "జాతి": 3579,
      "రోజూ": 3580,
      "ప్య": 3581,
      "టర్లు": 3582,
      "ంచుకున్నారు": 3583,
      "నంత": 3584,
      "వ్యక్తిగత": 3585,
      "ారన్నారు": 3586,
      "నిజం": 3587,
      "త్వరలోనే": 3588,
      "ప్రపంచంలో": 3589,
      "నవం": 3590,
      "కఠి": 3591,
      "2022": 3592,
      "చల్ల": 3593,
      "500": 3594,
      "నడ": 3595,
      "సందర్భంలో": 3596,
      "ఫిబ్రవరి": 3597,
      "చీఫ్": 3598,
      "కోహ్": 3599,
      "మవుతుంది": 3600,
      "పథకం": 3601,
      "బ్యాక్": 3602,
      "విల": 3603,
      "ర్ల": 3604,
      "ప్రకృతి": 3605,
      "కలో": 3606,
      "వాయు": 3607,
      "వీలు": 3608,
      "ంటోంది": 3609,
      "వివాహ": 3610,
      "ధుల": 3611,
      "ల్సీ": 3612,
      "ప్రాధాన్య": 3613,
      "భౌ": 3614,
      "ఫిక్": 3615,
      "సరఫరా": 3616,
      "పుణ్య": 3617,
      "తరచుగా": 3618,
      "లాడు": 3619,
      "కూలంగా": 3620,
      "సేవల": 3621,
      "వేరే": 3622,
      "స్థిర": 3623,
      "మార్పులు": 3624,
      "'.": 3625,
      "చనలు": 3626,
      "పక్కన": 3627,
      "జార్": 3628,
      "మొబైల్": 3629,
      "మెరుగు": 3630,
      "వేసుకు": 3631,
      "పశ్చి": 3632,
      "ఇన్ని": 3633,
      "తగ్గు": 3634,
      "ఆల్": 3635,
      "పెంచు": 3636,
      "ప్పుడే": 3637,
      "శాలను": 3638,
      "పెట్టుబడి": 3639,
      "వుండ": 3640,
      "సిద్ధంగా": 3641,
      "తోపాటు": 3642,
      "వేడి": 3643,
      "చెన్నై": 3644,
      "విద్యార్థి": 3645,
      "ఎమ్మెల్సీ": 3646,
      "త్వరగా": 3647,
      "కరం": 3648,
      "స్తోందని": 3649,
      "కనుగొ": 3650,
      "పార్టీలో": 3651,
      "మఱి": 3652,
      "',": 3653,
      "భావం": 3654,
      "వేదన": 3655,
      "గౌరవ": 3656,
      "తీర్పు": 3657,
      "వరద": 3658,
      "తేదీన": 3659,
      "శతా": 3660,
      "ఒత్తిడి": 3661,
      "మహారాష్ట్ర": 3662,
      "ప్రియ": 3663,
      "కామ": 3664,
      "దాఖ": 3665,
      "కాద": 3666,
      "నిజంగా": 3667,
      "గణి": 3668,
      "45": 3669,
      "ద్యో": 3670,
      "ఉండాలని": 3671,
      "ఏకంగా": 3672,
      "నిబంధన": 3673,
      "ఆయ": 3674,
      "తదితర": 3675,
      "ఫైన": 3676,
      "ప్రేమి": 3677,
      "మంత్రులు": 3678,
      "యూనిట్": 3679,
      "ఫేస్": 3680,
      "కనె": 3681,
      "రథ": 3682,
      "కట్": 3683,
      "సచి": 3684,
      "రుల": 3685,
      "కొన్న": 3686,
      "మేనే": 3687,
      "ధైర్": 3688,
      "అయ్యే": 3689,
      "హిందీ": 3690,
      "వ్యవహార": 3691,
      "పబ్లి": 3692,
      "ట్విట్టర్": 3693,
      "కొర": 3694,
      "పెరి": 3695,
      "ముక్క": 3696,
      "రేటు": 3697,
      "హత": 3698,
      "భాగంలో": 3699,
      "ణాన్ని": 3700,
      "డిగ్రీ": 3701,
      "కొంతమంది": 3702,
      "ంగం": 3703,
      "అర్జున్": 3704,
      "నాయకుడు": 3705,
      "తుండ": 3706,
      "జంతు": 3707,
      "ళా": 3708,
      "నువ్వు": 3709,
      "విమర్శించారు": 3710,
      "మిగతా": 3711,
      "ఫ్యాన్స్": 3712,
      "కల్ప": 3713,
      "మెంటు": 3714,
      "సెన్": 3715,
      "సినిమాల": 3716,
      "ఙ్": 3717,
      "యింది": 3718,
      "సమ్": 3719,
      "స్థల": 3720,
      "లాభ": 3721,
      "యంత": 3722,
      "వర్ణి": 3723,
      "వినియోగి": 3724,
      "గుడ్": 3725,
      "వుగా": 3726,
      "ప్రస్తా": 3727,
      "తెలిసిన": 3728,
      "ఆకా": 3729,
      "రాలి": 3730,
      "పల్లె": 3731,
      "తిరుపతి": 3732,
      "వ్యాఖ్యాని": 3733,
      "ఇరు": 3734,
      "హిం": 3735,
      "కృష్ణా": 3736,
      "రేపు": 3737,
      "ంచాల్సి": 3738,
      "ఉండదు": 3739,
      "ప్రాజెక్ట్": 3740,
      "పోతున్న": 3741,
      "చోట": 3742,
      "దేవా": 3743,
      "ఉపాధ్యా": 3744,
      "ండుట": 3745,
      "యాజ": 3746,
      "ణము": 3747,
      "నేరుగా": 3748,
      "మధ్యాహ్": 3749,
      "ంపులు": 3750,
      "2021": 3751,
      "కళాశాల": 3752,
      "ట్రిక్": 3753,
      "నిషే": 3754,
      "2020": 3755,
      "బిజి": 3756,
      "బరు": 3757,
      "శరీరం": 3758,
      "పూరి": 3759,
      "స్క్రీ": 3760,
      "చెప్పుకొ": 3761,
      "నృ": 3762,
      "తెలుగుదేశం": 3763,
      "ప్రచార": 3764,
      "అతడి": 3765,
      "అయ్యింది": 3766,
      "చేస్తామని": 3767,
      "బండి": 3768,
      "డెంట్": 3769,
      "సెప్టెంబర్": 3770,
      "త్సవ": 3771,
      "ఆధు": 3772,
      "మంట": 3773,
      "ఎత్తున": 3774,
      "ధృ": 3775,
      "సైట్": 3776,
      "క్రింద": 3777,
      "కోట": 3778,
      "టైటిల్": 3779,
      "ఫ్రి": 3780,
      "సంభవి": 3781,
      "ఉన్నాయని": 3782,
      "వర్గాల": 3783,
      "అగ్ర": 3784,
      "కారము": 3785,
      "విస్": 3786,
      "శత్రు": 3787,
      "ఎవరైనా": 3788,
      "పెట్టింది": 3789,
      "కమ్యూ": 3790,
      "వాయిదా": 3791,
      "చట్టం": 3792,
      "విశ్లే": 3793,
      "వీటిని": 3794,
      "జిల్ల": 3795,
      "లేకపోతే": 3796,
      "పుల": 3797,
      "మరు": 3798,
      "కరా": 3799,
      "వెళ్లే": 3800,
      "యుఁ": 3801,
      "అందువలన": 3802,
      "అల్": 3803,
      "నుంచే": 3804,
      "కాంత్": 3805,
      "కుంటే": 3806,
      "99": 3807,
      "గను": 3808,
      "టీమ్": 3809,
      "నేర్": 3810,
      "ంచని": 3811,
      "తగా": 3812,
      "నాశ": 3813,
      "త్యు": 3814,
      "హద్దు": 3815,
      "నాన్న": 3816,
      "మొత్తా": 3817,
      "స్థాన": 3818,
      "తమిళనాడు": 3819,
      "హను": 3820,
      "జుట్టు": 3821,
      "ఎడ": 3822,
      "లుక్": 3823,
      "ారే": 3824,
      "వాన్": 3825,
      "కేజీ": 3826,
      "సాహిత్య": 3827,
      "సాక్షి": 3828,
      "మ్యూజి": 3829,
      "ఆఫర్": 3830,
      "రాజీనామా": 3831,
      "కుక్క": 3832,
      "వాతావరణ": 3833,
      "కార్యకర్": 3834,
      "దారుణ": 3835,
      "అటువంటి": 3836,
      "ఇండియన్": 3837,
      "ఇటువంటి": 3838,
      "సినిమాతో": 3839,
      "చైతన్య": 3840,
      "ఎంట్రీ": 3841,
      "చ్చె": 3842,
      "?\"": 3843,
      "ఫస్ట్": 3844,
      "యూనివర్": 3845,
      "గ్రామ్": 3846,
      "కొంచె": 3847,
      "బయలు": 3848,
      "రచన": 3849,
      "గమన": 3850,
      "తీసుకున్నారు": 3851,
      "అనంత": 3852,
      "సేవలు": 3853,
      "పిలి": 3854,
      "రంగంలో": 3855,
      "తేలి": 3856,
      "అమరావతి": 3857,
      "రూపాయలు": 3858,
      "బది": 3859,
      "సంతా": 3860,
      "వారా": 3861,
      "సమంత": 3862,
      "సంస్థల": 3863,
      "బడ్డా": 3864,
      "అక్టోబర్": 3865,
      "పచ్చ": 3866,
      "రాదు": 3867,
      "బారి": 3868,
      "అఖి": 3869,
      "వెలు": 3870,
      "ంగల్": 3871,
      "రుణ": 3872,
      "నామి": 3873,
      "క్ష్": 3874,
      "హెల్": 3875,
      "కుటుంబా": 3876,
      "ప్రాథ": 3877,
      "ప్రత్యక్ష": 3878,
      "సంబంధిత": 3879,
      "నేర్చు": 3880,
      "మార్చ": 3881,
      "దూర": 3882,
      "అభిమాను": 3883,
      "లబ్": 3884,
      "ారనే": 3885,
      "తీసుకొని": 3886,
      "ఆగస్టు": 3887,
      "దిగ": 3888,
      "వడ్డీ": 3889,
      "వైన": 3890,
      "కలను": 3891,
      "నిక్": 3892,
      "లిమి": 3893,
      "కరించారు": 3894,
      "్యాన్ని": 3895,
      "దర్శకత్వం": 3896,
      "లక్ష్యం": 3897,
      "ఎనిమి": 3898,
      "సక్సెస్": 3899,
      "వేధి": 3900,
      "ఆశ్ర": 3901,
      "గుణంగా": 3902,
      "ంద్రి": 3903,
      "రణ్": 3904,
      "జైన్": 3905,
      "వేదికగా": 3906,
      "కావున": 3907,
      "ఒకరి": 3908,
      "దిగి": 3909,
      "వచ్చని": 3910,
      "తూర్": 3911,
      "కాలేజీ": 3912,
      "పవి": 3913,
      "జేసి": 3914,
      "ఒక్కో": 3915,
      "పరిధిలో": 3916,
      "ద్దాం": 3917,
      "75": 3918,
      "ఉన్నది": 3919,
      "రఘు": 3920,
      "బెంగళ": 3921,
      "బిజీ": 3922,
      "చూడాలి": 3923,
      "చూసే": 3924,
      "విమాన": 3925,
      "వరుసగా": 3926,
      "ఉద్యోగ": 3927,
      "నికే": 3928,
      "సందర్శి": 3929,
      "ప్రదర్శన": 3930,
      "దిగా": 3931,
      "బొమ్మ": 3932,
      "కుమారుడు": 3933,
      "పొర": 3934,
      "ఉన్నత": 3935,
      "ంక్": 3936,
      "సిద్ధా": 3937,
      "కరీ": 3938,
      "చేపట్టిన": 3939,
      "యుల": 3940,
      "వర్గాలు": 3941,
      "వివే": 3942,
      "చేతి": 3943,
      "ప్త": 3944,
      "కంటి": 3945,
      "పెట్రో": 3946,
      "దాటి": 3947,
      "టీమి": 3948,
      "భర": 3949,
      "ంచడంలో": 3950,
      "స్ర": 3951,
      "అంతేకాదు": 3952,
      "నాల్": 3953,
      "తంత్ర": 3954,
      "తులతో": 3955,
      "ఆశ్చర్య": 3956,
      "పిలుపు": 3957,
      "నాయకు": 3958,
      "సన్న": 3959,
      "జిల్లాలోని": 3960,
      "తాల": 3961,
      "స్టీ": 3962,
      "శాంత": 3963,
      "నేల": 3964,
      "ందట": 3965,
      "భై": 3966,
      "స్టై": 3967,
      "తోందని": 3968,
      "శె": 3969,
      "టీమిండియా": 3970,
      "గై": 3971,
      "వివాహం": 3972,
      "అప్పగి": 3973,
      "చోట్ల": 3974,
      "ఆస్ట్రే": 3975,
      "అంశాల": 3976,
      "పశ్చిమ": 3977,
      "ందున": 3978,
      "ఇందుకు": 3979,
      "ఫలితంగా": 3980,
      "యాదవ్": 3981,
      "నివేదిక": 3982,
      "గుంటూ": 3983,
      "ఉత్పత్తులు": 3984,
      "డిజి": 3985,
      "90": 3986,
      "కార్యక్రమాలు": 3987,
      "అదనంగా": 3988,
      "యైన": 3989,
      "రేవంత్": 3990,
      "దాకా": 3991,
      "రూపాయల": 3992,
      "మంజూ": 3993,
      "రాష్ట్రాల్లో": 3994,
      "నిధులు": 3995,
      "అనారో": 3996,
      "మిలీ": 3997,
      "ధార": 3998,
      "వేరి": 3999,
      "శ్రీనివాస": 4000,
      "నెల్ల": 4001,
      "మహమ్మ": 4002,
      "ఉమ్మడి": 4003,
      "పిటిషన్": 4004,
      "పెద్దగా": 4005,
      "సంప్రది": 4006,
      "ఫలితాలు": 4007,
      "అడిగి": 4008,
      "బాక్": 4009,
      "ఒకసారి": 4010,
      "చేతిలో": 4011,
      "అలవా": 4012,
      "దివ్య": 4013,
      "మద్యం": 4014,
      "నెలలో": 4015,
      "ంఛ": 4016,
      "ఎస్సీ": 4017,
      "ంచకుండా": 4018,
      "విక్రమ్": 4019,
      "రమణ": 4020,
      "మ్మల్ని": 4021,
      "స్తం": 4022,
      "డేట్": 4023,
      "ప్రయత్నాలు": 4024,
      "చేసినా": 4025,
      "స్వయంగా": 4026,
      "యై": 4027,
      "షెడ్యూ": 4028,
      "వాళ": 4029,
      "వును": 4030,
      "చూడండి": 4031,
      "పరిస్థితుల్లో": 4032,
      "శ్రద్ధ": 4033,
      "బిజినెస్": 4034,
      "వస్తాయి": 4035,
      "ఉగ్ర": 4036,
      "కోటి": 4037,
      "బస్": 4038,
      "సమాజ": 4039,
      "కోవచ్చు": 4040,
      "పిల్": 4041,
      "ప్రమో": 4042,
      "నౌ": 4043,
      "ఎర్ర": 4044,
      "కట్టి": 4045,
      "నిలిచి": 4046,
      "రోగ": 4047,
      "జోడి": 4048,
      "సంజయ్": 4049,
      "వాతావర": 4050,
      "పాజిటివ్": 4051,
      "నప్పుడు": 4052,
      "ఇటు": 4053,
      "దేహ": 4054,
      "ఏర్పాట్లు": 4055,
      "ంచేలా": 4056,
      "పుష్ప": 4057,
      "మేలు": 4058,
      "సేపు": 4059,
      "జరుగుతోంది": 4060,
      "ఏపీలో": 4061,
      "కీర్తి": 4062,
      "అలం": 4063,
      "తరలించారు": 4064,
      "పోర్టు": 4065,
      "పార్ట్": 4066,
      "చేసారు": 4067,
      "రాన్ని": 4068,
      "హౌస్": 4069,
      "ఆరా": 4070,
      "సంఖ్యలో": 4071,
      "కపోతే": 4072,
      "డెన్": 4073,
      "జ్యోతి": 4074,
      "మెద": 4075,
      "కన్ను": 4076,
      "త్వము": 4077,
      "స్తున్నది": 4078,
      "బార్": 4079,
      "నాగార్": 4080,
      "వినియోగదారు": 4081,
      "విశేషం": 4082,
      "నాణ్యత": 4083,
      "వరల్డ్": 4084,
      "తెలియదు": 4085,
      "శ్లో": 4086,
      "మండిపడ్డారు": 4087,
      "ప్రజలను": 4088,
      "ఫ్రా": 4089,
      "చేస్తున్నారని": 4090,
      "జాగ్రత్తగా": 4091,
      "బహిరంగ": 4092,
      "నిరూ": 4093,
      "ఆవిష్": 4094,
      "అర్ధ": 4095,
      "గరి": 4096,
      "గుంటూరు": 4097,
      "వుడు": 4098,
      "దంప": 4099,
      "చాలామంది": 4100,
      "బీఆర్ఎస్": 4101,
      "గ్రూప్": 4102,
      "రస్": 4103,
      "మన్న": 4104,
      "విన్న": 4105,
      "పుట్టి": 4106,
      "ఉపాధి": 4107,
      "తల్లిదండ్రులు": 4108,
      "బుల": 4109,
      "నవ్వు": 4110,
      "ఇటీవ": 4111,
      "దము": 4112,
      "లైట్": 4113,
      "తూనే": 4114,
      "సమాన": 4115,
      "ఈసారి": 4116,
      "ఆదేశించారు": 4117,
      "అంబ": 4118,
      "పశు": 4119,
      "లైంది": 4120,
      "జింగ్": 4121,
      "నిమిష": 4122,
      "గలరు": 4123,
      "వ్యక్తులు": 4124,
      "పాస్": 4125,
      "ఉద్దేశ": 4126,
      "క్రై": 4127,
      "తాం": 4128,
      "వైద్యులు": 4129,
      "సాధ్యం": 4130,
      "పల": 4131,
      "డ్రైవర్": 4132,
      "2024": 4133,
      "భర్తీ": 4134,
      "ంపి": 4135,
      "ఉష్ణ": 4136,
      "ప్రభావ": 4137,
      "నిన్ను": 4138,
      "ంగ్స్": 4139,
      "హృద": 4140,
      "నల": 4141,
      "భరి": 4142,
      "ముంద": 4143,
      "ఆర్టీసీ": 4144,
      "నెటి": 4145,
      "దశలో": 4146,
      "ఉన్నాడు": 4147,
      "నూనె": 4148,
      "ధను": 4149,
      "వేయి": 4150,
      "విచారి": 4151,
      "గ్రి": 4152,
      "కౌంట్": 4153,
      "మౌళి": 4154,
      "మత్": 4155,
      "మిని": 4156,
      "వయస్సు": 4157,
      "విదేశీ": 4158,
      "లాది": 4159,
      "సీమ": 4160,
      "గౌర": 4161,
      "మిలియన్": 4162,
      "శర": 4163,
      "సంగీత": 4164,
      "దేశానికి": 4165,
      "వాడి": 4166,
      "కోలు": 4167,
      "గర్భ": 4168,
      "మొదల": 4169,
      "గడ్డ": 4170,
      "స్వాత": 4171,
      "పెట్టుబడు": 4172,
      "చేపట్టారు": 4173,
      "సలహా": 4174,
      "అధికారంలోకి": 4175,
      "టిడిపి": 4176,
      "గలిగి": 4177,
      "హోదా": 4178,
      "స్టేట్": 4179,
      "లెట్": 4180,
      "నిత్య": 4181,
      "హృదయ": 4182,
      "పుట్ట": 4183,
      "పెరిగింది": 4184,
      "అంతకు": 4185,
      "ఎపి": 4186,
      "తాయని": 4187,
      "నంబర్": 4188,
      "మండలి": 4189,
      "రళ": 4190,
      "లని": 4191,
      "ప్రైవేట్": 4192,
      "ఇప్పటివరకు": 4193,
      "ఇవ్వడం": 4194,
      "సంగీతం": 4195,
      "గులకు": 4196,
      "తున్నాను": 4197,
      "ప్పున": 4198,
      "రాలేదు": 4199,
      "డవు": 4200,
      "స్యం": 4201,
      "కొక్క": 4202,
      "ఆస్ట్రేలియా": 4203,
      "నివసి": 4204,
      "లోక్": 4205,
      "తున్నారని": 4206,
      "చేయడంతో": 4207,
      "మున్సిపల్": 4208,
      "రాష్ట్రాల": 4209,
      "సగ": 4210,
      "గాన": 4211,
      "ఖచ్చితంగా": 4212,
      "రోజులుగా": 4213,
      "మిషన్": 4214,
      "గ్లా": 4215,
      "కావాలని": 4216,
      "అట్టి": 4217,
      "అనగా": 4218,
      "జల్": 4219,
      "కండ": 4220,
      "గును": 4221,
      "శ్రు": 4222,
      "సాధించిన": 4223,
      "హోం": 4224,
      "ముస్లిం": 4225,
      "కైనా": 4226,
      "చతు": 4227,
      "నాలజీ": 4228,
      "గార": 4229,
      "అత్యా": 4230,
      "బాహు": 4231,
      "మానసిక": 4232,
      "వజ": 4233,
      "బృందం": 4234,
      "ఫ్లా": 4235,
      "బెంగళూరు": 4236,
      "వస్తా": 4237,
      "జాన": 4238,
      "కమ్యూని": 4239,
      "భావన": 4240,
      "పెను": 4241,
      "తరహా": 4242,
      "ాలన్న": 4243,
      "థ్": 4244,
      "దేశాల్లో": 4245,
      "రెడీ": 4246,
      "స్తున్నాను": 4247,
      "నియంత్ర": 4248,
      "పద్మ": 4249,
      "కష్టం": 4250,
      "మంచు": 4251,
      "డను": 4252,
      "జీవన": 4253,
      "చెందు": 4254,
      "రామా": 4255,
      "ములలో": 4256,
      "పార్టీలు": 4257,
      "యింట్": 4258,
      "ంచుకుంది": 4259,
      "అందువల్ల": 4260,
      "ఎగ్": 4261,
      "భ్ర": 4262,
      "ద్వే": 4263,
      "ఇష్టం": 4264,
      "రాక్ష": 4265,
      "యొక": 4266,
      "నవంబర్": 4267,
      "వినో": 4268,
      "శైలి": 4269,
      "వాక్య": 4270,
      "బాల్": 4271,
      "లైఫ్": 4272,
      "డాన్ని": 4273,
      "టెక్నాలజీ": 4274,
      "సినిమాల్లో": 4275,
      "వులకు": 4276,
      "ఇదిలా": 4277,
      "తీసుకోవడం": 4278,
      "సోదరు": 4279,
      "గలదు": 4280,
      "ముద్ర": 4281,
      "సంచలన": 4282,
      "ఫ్యామిలీ": 4283,
      "అద్ద": 4284,
      "బైక్": 4285,
      "సుప్రీంకోర్టు": 4286,
      "తెలిసింది": 4287,
      "పము": 4288,
      "మధ్యలో": 4289,
      "వాట్": 4290,
      "ళ్లుగా": 4291,
      "అక్రమ": 4292,
      "నార్": 4293,
      "తూర్పు": 4294,
      "ఇద్దరి": 4295,
      "గొడవ": 4296,
      "ఇంద్ర": 4297,
      "చాడు": 4298,
      "పునరు": 4299,
      "కార్యాలయంలో": 4300,
      "ృప్తి": 4301,
      "పరచ": 4302,
      "గ్రామానికి": 4303,
      "ఈనాడు": 4304,
      "హీన": 4305,
      "దుర": 4306,
      "ఉదాహరణకు": 4307,
      "నోటీ": 4308,
      "సమర్పి": 4309,
      "యాక్షన్": 4310,
      "స్పెషల్": 4311,
      "దేవాల": 4312,
      "న్యూఢిల్లీ": 4313,
      "గలు": 4314,
      "చాలు": 4315,
      "తదు": 4316,
      "అనుసరి": 4317,
      "అధ్యయ": 4318,
      "ఆధునిక": 4319,
      "వస్తున్నాయి": 4320,
      "టికెట్": 4321,
      "వారే": 4322,
      "ఖండ": 4323,
      "పెరగ": 4324,
      "బాలయ్య": 4325,
      "శ్వరరావు": 4326,
      "హాజరు": 4327,
      "రెండే": 4328,
      "జడ్": 4329,
      "ట్రె": 4330,
      "హోటల్": 4331,
      "ంచటం": 4332,
      "రోజుకు": 4333,
      "ఆడు": 4334,
      "ఔష": 4335,
      "దేశంలోని": 4336,
      "నేర": 4337,
      "ఆర్ఆర్": 4338,
      "మార్కెట్లో": 4339,
      "శిశు": 4340,
      "కార్యకలా": 4341,
      "జనరల్": 4342,
      "లేకపో": 4343,
      "నాగార్జున": 4344,
      "ఉండేది": 4345,
      "పరిమా": 4346,
      "సమస్యలను": 4347,
      "రామకృష్ణ": 4348,
      "ఓటు": 4349,
      "వెల": 4350,
      "నియంత్రణ": 4351,
      "రావడంతో": 4352,
      "ఆకర్షి": 4353,
      "ఎంసీ": 4354,
      "ంచబడుతుంది": 4355,
      "ండింగ్": 4356,
      "లైంగి": 4357,
      "బడతాయి": 4358,
      "మెట్రో": 4359,
      "ందన్న": 4360,
      "దళ": 4361,
      "ఆదాయం": 4362,
      "అనుగుణంగా": 4363,
      "ంచాల్సిన": 4364,
      "సెర్": 4365,
      "కమిషనర్": 4366,
      "విస్తృ": 4367,
      "రన్": 4368,
      "మోసం": 4369,
      "కురు": 4370,
      "షిప్": 4371,
      "సదు": 4372,
      "రియ": 4373,
      "తనిఖీ": 4374,
      "2014": 4375,
      "జేయు": 4376,
      "33": 4377,
      "నలి": 4378,
      "వందల": 4379,
      "దానం": 4380,
      "ప్రమాణ": 4381,
      "నున్నాయి": 4382,
      "వాఁడు": 4383,
      "సన్నివే": 4384,
      "రాని": 4385,
      "భక్తులు": 4386,
      "కున్నా": 4387,
      "క్రియే": 4388,
      "గూర్చి": 4389,
      "యాక్": 4390,
      "తరం": 4391,
      "టప్పుడు": 4392,
      "ఆగ్రహం": 4393,
      "కూతురు": 4394,
      "ప్రాంతం": 4395,
      "గుల్": 4396,
      "చేతులు": 4397,
      "దేశవ్యాప్తంగా": 4398,
      "విద్యార్థులకు": 4399,
      "ఇంటర్వ్యూ": 4400,
      "మినహా": 4401,
      "ప్రచు": 4402,
      "యున్నది": 4403,
      "కేరళ": 4404,
      "ఇల్లు": 4405,
      "కోహ్లీ": 4406,
      "గలుగు": 4407,
      "వెల్లడించింది": 4408,
      "ఫిల్": 4409,
      "తెలుపు": 4410,
      "చింత": 4411,
      "బదిలీ": 4412,
      "్యాత్": 4413,
      "కాలేదు": 4414,
      "పంచ్": 4415,
      "రణి": 4416,
      "మంతా": 4417,
      "భాగస్వా": 4418,
      "కంఠ": 4419,
      "ంచీ": 4420,
      "అందించారు": 4421,
      "కోండి": 4422,
      "సియా": 4423,
      "రోజున": 4424,
      "విడుద": 4425,
      "పాదయాత్ర": 4426,
      "కాలంగా": 4427,
      "--": 4428,
      "ఫాలో": 4429,
      "ంత్రి": 4430,
      "వాహన": 4431,
      "స్వాధీ": 4432,
      "విద్యాల": 4433,
      "వర్షం": 4434,
      "మించిన": 4435,
      "చొప్పున": 4436,
      "ధక": 4437,
      "నాటక": 4438,
      "కెమెరా": 4439,
      "లక్ష్యంగా": 4440,
      "స్తూనే": 4441,
      "ఉత్తర్": 4442,
      "ద్రో": 4443,
      "దశా": 4444,
      "స్ఫ": 4445,
      "షర్": 4446,
      "న్సర్": 4447,
      "కండి": 4448,
      "ఇవ": 4449,
      "గన్": 4450,
      "జీర్": 4451,
      "వెళ్లిన": 4452,
      "పిలు": 4453,
      "మధ్యాహ్నం": 4454,
      "ఎవరో": 4455,
      "వేసింది": 4456,
      "విన్": 4457,
      "దుఃఖ": 4458,
      "పవిత్ర": 4459,
      "గుర్తించారు": 4460,
      "బాయ్": 4461,
      "ప్రాణాలు": 4462,
      "వత్": 4463,
      "ప్రభావి": 4464,
      "వారితో": 4465,
      "ఇన్స్టా": 4466,
      "స్పీకర్": 4467,
      "సేకరి": 4468,
      "డ్యా": 4469,
      "గని": 4470,
      "పలి": 4471,
      "గతం": 4472,
      "జూలై": 4473,
      "స్పా": 4474,
      "ంచుకోవడం": 4475,
      "ఆన": 4476,
      "గిల్": 4477,
      "స్మా": 4478,
      "సంపద": 4479,
      "ఒప్పు": 4480,
      "తీవ్రమైన": 4481,
      "సొంతం": 4482,
      "వసూలు": 4483,
      "2018": 4484,
      "కారి": 4485,
      "జొ": 4486,
      "పేర్": 4487,
      "మారా": 4488,
      "కానుంది": 4489,
      "\".": 4490,
      "పెడ": 4491,
      "యుద్ధం": 4492,
      "కత్తి": 4493,
      "వద్దకు": 4494,
      "వచ్ఛ": 4495,
      "ఇంజి": 4496,
      "నవి": 4497,
      "భవన": 4498,
      "ఁగు": 4499,
      "ద్రవ్య": 4500,
      "స్పష్టంగా": 4501,
      "నాయక్": 4502,
      "స్లా": 4503,
      "తున్నది": 4504,
      "ర్య": 4505,
      "ఇతరు": 4506,
      "కూలి": 4507,
      "విస్తరి": 4508,
      "దక్షిణా": 4509,
      "నాయి": 4510,
      "శత": 4511,
      "జిల్": 4512,
      "లోపల": 4513,
      "క్రింది": 4514,
      "నగరం": 4515,
      "స్త్రి": 4516,
      "స్క్రీన్": 4517,
      "ఆలయ": 4518,
      "స్మి": 4519,
      "గంగ": 4520,
      "సిస్ట": 4521,
      "ర్యాల": 4522,
      "ద్వా": 4523,
      "నాల్లో": 4524,
      "ప్రాథమిక": 4525,
      "ఉద్యోగం": 4526,
      "గ్రీన్": 4527,
      "బంగారు": 4528,
      "అల్ల": 4529,
      "నెర": 4530,
      "ధూ": 4531,
      "త్సహి": 4532,
      "ఒకవేళ": 4533,
      "యేషన్": 4534,
      "విభజన": 4535,
      "సవి": 4536,
      "టార్గె": 4537,
      "సీబీఐ": 4538,
      "వేత": 4539,
      "బలమైన": 4540,
      "చేసుకోవచ్చు": 4541,
      "నార": 4542,
      "తుందో": 4543,
      "ందాం": 4544,
      "కనిపిస్తుంది": 4545,
      "రాజమౌళి": 4546,
      "ందంటే": 4547,
      "బాలకృష్ణ": 4548,
      "ఘి": 4549,
      "వద": 4550,
      "కిల్": 4551,
      "?\\": 4552,
      "చెప్పాలి": 4553,
      "సభ్యు": 4554,
      "ఈవె": 4555,
      "గార్": 4556,
      "మట్టి": 4557,
      "అందుబాటులోకి": 4558,
      "ందరూ": 4559,
      "స్వే": 4560,
      "ముద్దు": 4561,
      "తమ్": 4562,
      "వ్యాక్సిన్": 4563,
      "క్రీడా": 4564,
      "వదిలే": 4565,
      "చ్చట": 4566,
      "నిశ్చ": 4567,
      "ళ్ళి": 4568,
      "బంగారం": 4569,
      "నిండి": 4570,
      "వాటిలో": 4571,
      "పక": 4572,
      "ఏది": 4573,
      "సహకార": 4574,
      "నైనా": 4575,
      "గ్స్": 4576,
      "శూ": 4577,
      "వర్షాలు": 4578,
      "ఇస్తా": 4579,
      "కామెంట్స్": 4580,
      "వరీ": 4581,
      "బోధి": 4582,
      "పద్ధతి": 4583,
      "సరిహద్దు": 4584,
      "రోహిత్": 4585,
      "టికల్": 4586,
      "మోడల్": 4587,
      "తప్పకుండా": 4588,
      "ఈమె": 4589,
      "నీటిని": 4590,
      "తుకు": 4591,
      "ఎక్": 4592,
      "మ్యాచ్లో": 4593,
      "ప్రతినిధి": 4594,
      "ందరికీ": 4595,
      "కానికి": 4596,
      "త్సవం": 4597,
      "ట్రే": 4598,
      "జను": 4599,
      "ట్లయితే": 4600,
      "భేటీ": 4601,
      "లేదన్నారు": 4602,
      "కారా": 4603,
      "అందమైన": 4604,
      "36": 4605,
      "కఠిన": 4606,
      "తెగ": 4607,
      "దగిన": 4608,
      "వరంగల్": 4609,
      "నిరూపి": 4610,
      "ఉచిత": 4611,
      "ముఖం": 4612,
      "ప్రమ": 4613,
      "శాంత్": 4614,
      "బన్": 4615,
      "స్పందన": 4616,
      "ఉద్యోగులు": 4617,
      "సమూ": 4618,
      "లోడ్": 4619,
      "దాఖలు": 4620,
      "తొమ్మి": 4621,
      "మునఁ": 4622,
      "డిజిటల్": 4623,
      "అన్నది": 4624,
      "రాసిన": 4625,
      "అనుభవి": 4626,
      "వినియోగం": 4627,
      "గొండ": 4628,
      "మాధ": 4629,
      "సరిగ్గా": 4630,
      "ట్రైలర్": 4631,
      "విజన్": 4632,
      "సాలు": 4633,
      "కవిత": 4634,
      "భద్రత": 4635,
      "ఖరి": 4636,
      "ఇవాళ": 4637,
      "మెడికల్": 4638,
      "చెప్పడం": 4639,
      "మయ్య": 4640,
      "మున్న": 4641,
      "కమిషన్": 4642,
      "కడుపు": 4643,
      "ఆటగా": 4644,
      "విటమి": 4645,
      "స్వీకరి": 4646,
      "ంచుకునే": 4647,
      "క్రాంతి": 4648,
      "కాంట": 4649,
      "కొంచెం": 4650,
      "రాఘ": 4651,
      "స్కూల్": 4652,
      "పంజాబ్": 4653,
      ".)": 4654,
      "సాగర్": 4655,
      "అనుకూలంగా": 4656,
      "కనిపించే": 4657,
      "సాధన": 4658,
      "బాధ్యతలు": 4659,
      "అందిస్తుంది": 4660,
      "ఎండ": 4661,
      "ణ్ణి": 4662,
      "ప్రోత్సహి": 4663,
      "ప్రతినిధులు": 4664,
      "పిల్లలకు": 4665,
      "కాంత": 4666,
      "పరమైన": 4667,
      "చిక్కు": 4668,
      "తెలియని": 4669,
      "ఉండవచ్చు": 4670,
      "దృష్టిలో": 4671,
      "వ్యతిరేక": 4672,
      "వాన": 4673,
      "మరిన్ని": 4674,
      "పండుగ": 4675,
      "యుక్": 4676,
      "పరమా": 4677,
      "లంక": 4678,
      "మస్": 4679,
      "వన్డే": 4680,
      "కార్డ్": 4681,
      "విడిచి": 4682,
      "టీజర్": 4683,
      "నవ్": 4684,
      "చెక్": 4685,
      "లవ్": 4686,
      "కోసమే": 4687,
      "దుగా": 4688,
      "ులర్": 4689,
      "బలం": 4690,
      "కుమార్తె": 4691,
      "సదుపా": 4692,
      "సీతారా": 4693,
      "సరించి": 4694,
      "బోధ": 4695,
      "కర్నూ": 4696,
      "శ్మీర్": 4697,
      "అనుకున్న": 4698,
      "వివరాలను": 4699,
      "మంజూరు": 4700,
      "కొనే": 4701,
      "ణులు": 4702,
      "గొట్ట": 4703,
      "ఆధ్యాత్": 4704,
      "నేతల": 4705,
      "నిల్వ": 4706,
      "తదుపరి": 4707,
      "కాపాడు": 4708,
      "రేంజ్": 4709,
      "పబ్లిక్": 4710,
      "తప": 4711,
      "మయిన": 4712,
      "స్టెంట్": 4713,
      "నమూ": 4714,
      "విషా": 4715,
      "దోష": 4716,
      "ఱకు": 4717,
      "ఉద్యమ": 4718,
      "ఆవేదన": 4719,
      "రచయిత": 4720,
      "వేసే": 4721,
      "ప్రయోజనం": 4722,
      "నగరంలో": 4723,
      "మానాలు": 4724,
      "దరణ": 4725,
      "ల్సిందే": 4726,
      "సంపూర్ణ": 4727,
      "మనే": 4728,
      "198": 4729,
      "పార్టీల": 4730,
      "ఐపీఎల్": 4731,
      "అంటు": 4732,
      "సెక్స్": 4733,
      "స్వి": 4734,
      "స్తుంటే": 4735,
      "గదా": 4736,
      "భాషా": 4737,
      "మేర": 4738,
      "డట": 4739,
      "టిఫికేషన్": 4740,
      "చెట్టు": 4741,
      "టార్గెట్": 4742,
      "డిజైన్": 4743,
      "రంగం": 4744,
      "ఖు": 4745,
      "దుకా": 4746,
      "ంచదు": 4747,
      "ప్రసిద్ధ": 4748,
      "కల్యాణ్": 4749,
      "స్థలం": 4750,
      "సునీ": 4751,
      "కావచ్చు": 4752,
      "పుత్ర": 4753,
      "ఓపెన్": 4754,
      "32": 4755,
      "చివరకు": 4756,
      "నగదు": 4757,
      "మయ": 4758,
      "ఢీ": 4759,
      "సీఐ": 4760,
      "కుంది": 4761,
      "నమ్మకం": 4762,
      "సామాన్య": 4763,
      "పత్రిక": 4764,
      "కప్పు": 4765,
      "జెండా": 4766,
      "యించి": 4767,
      "పరిగణి": 4768,
      "ోగ్ర": 4769,
      "ఎడి": 4770,
      "సర్కారు": 4771,
      "టెలి": 4772,
      "వాతావరణం": 4773,
      "వేడుక": 4774,
      "తుండగా": 4775,
      "వలయును": 4776,
      "గమనార్": 4777,
      "మగ": 4778,
      "చెను": 4779,
      "సర్కార్": 4780,
      "సభ్యుల": 4781,
      "మనీ": 4782,
      "లోకేష్": 4783,
      "మిడి": 4784,
      "రమేష్": 4785,
      "సరికి": 4786,
      "ప్రకటనలు": 4787,
      "చారాన్ని": 4788,
      "చర్మం": 4789,
      "క్రమంలోనే": 4790,
      "భారతీ": 4791,
      "న్నింటి": 4792,
      "నిర్ధారి": 4793,
      "జ్ఞానం": 4794,
      "కస్టమర్": 4795,
      "ప్రెస్": 4796,
      "ఎస్టీ": 4797,
      "శాశ్వ": 4798,
      "తోడు": 4799,
      "తుంటే": 4800,
      "ధన్య": 4801,
      "జనాభా": 4802,
      "భావిస్తున్నారు": 4803,
      "అక్కడే": 4804,
      "తమై": 4805,
      "యుక్త": 4806,
      "అత్యధిక": 4807,
      "తక్కువగా": 4808,
      "కిలోమీటర్ల": 4809,
      "ప్రభుత్వాన్ని": 4810,
      "తెలుస్తుంది": 4811,
      "ఆధారపడి": 4812,
      "అట": 4813,
      "విలువైన": 4814,
      "మము": 4815,
      "భూతి": 4816,
      "యుండ": 4817,
      "కుర్": 4818,
      "ఆపరేషన్": 4819,
      "..!": 4820,
      "ధే": 4821,
      "అధికంగా": 4822,
      "పట్టించుకో": 4823,
      "అమర్": 4824,
      "విపరీ": 4825,
      "పోరాటం": 4826,
      "వొ": 4827,
      "ప్రొడ": 4828,
      "సురక్షి": 4829,
      "సహకరి": 4830,
      "హైదరాబాద్ః": 4831,
      "సురేష్": 4832,
      "వెలి": 4833,
      "లైంగిక": 4834,
      "సాంగ్": 4835,
      "చెప్పా": 4836,
      "భాస్": 4837,
      "మాన్ని": 4838,
      "మెన్": 4839,
      "ప్రొఫె": 4840,
      "నివారి": 4841,
      "వస్త్ర": 4842,
      "సిద్ద": 4843,
      "ప్రార్థ": 4844,
      "గమనార్హం": 4845,
      "వుతుంది": 4846,
      "తరఫు": 4847,
      "ప్రస్తావి": 4848,
      "ఎమ్మెల్యేలు": 4849,
      "చుట్టు": 4850,
      "వంతం": 4851,
      "నెటిజన్": 4852,
      "కార్యకర్తలు": 4853,
      "వర్తన": 4854,
      "బడినది": 4855,
      "కౌంటర్": 4856,
      "కుట్ర": 4857,
      "అసో": 4858,
      "కార్పొరేషన్": 4859,
      "అమ్ము": 4860,
      "నవీ": 4861,
      "\",": 4862,
      "అవుతోంది": 4863,
      "పరమ": 4864,
      "సంచల": 4865,
      "రాష్ట్రపతి": 4866,
      "యోగా": 4867,
      "అనుభవం": 4868,
      "తతో": 4869,
      "ల్లోనే": 4870,
      "ముర": 4871,
      "వాగ్": 4872,
      "ఫ్రెండ్": 4873,
      "నరసింహ": 4874,
      "మహిళల": 4875,
      "చెల": 4876,
      "సూచన": 4877,
      "పరిష్కారం": 4878,
      "పాదన": 4879,
      "సమీపంలో": 4880,
      "అన్నా": 4881,
      "స్ట్రా": 4882,
      "క్షు": 4883,
      "దంతా": 4884,
      "ట్రాఫిక్": 4885,
      "నగు": 4886,
      "పరుగుల": 4887,
      "కర్స్": 4888,
      "క్లో": 4889,
      "ఖండి": 4890,
      "గ్లో": 4891,
      "మాస్టర్": 4892,
      "దైవ": 4893,
      "మనము": 4894,
      "ఉష్ణోగ్ర": 4895,
      "శాస్త్రి": 4896,
      "వికెట్": 4897,
      "పసు": 4898,
      "ఫలిత": 4899,
      "పోటు": 4900,
      "పురుషు": 4901,
      "ఎగు": 4902,
      "ఆహ్వాని": 4903,
      "బిల్": 4904,
      "క్షీ": 4905,
      "సకల": 4906,
      "ఉన్నప్పటికీ": 4907,
      "పోలీసుల": 4908,
      "వీటిలో": 4909,
      "):": 4910,
      "బడ్డాయి": 4911,
      "చూసుకు": 4912,
      "కాకు": 4913,
      "గీత": 4914,
      "వాలి": 4915,
      "వివరణ": 4916,
      "ఒడి": 4917,
      "పోయ": 4918,
      "వర్త": 4919,
      "ఇద్దరూ": 4920,
      "పోష": 4921,
      "చేస్తున్నట్లు": 4922,
      "బ్రాండ్": 4923,
      "రవీ": 4924,
      "బ్యూటీ": 4925,
      "మాదిరి": 4926,
      "పర్యవే": 4927,
      "వృద్ధ": 4928,
      "గౌడ్": 4929,
      "ద్దరి": 4930,
      "బెంగా": 4931,
      "వాస్తవ": 4932,
      "48": 4933,
      "ఏజె": 4934,
      "నటన": 4935,
      "నమ్ము": 4936,
      "నలుగురు": 4937,
      "దానిపై": 4938,
      "విక": 4939,
      "జయం": 4940,
      "కాలనీ": 4941,
      "ూరి": 4942,
      "మాస": 4943,
      "ఆగి": 4944,
      "న్నర": 4945,
      "కాన": 4946,
      "వేంక": 4947,
      "ఫ్రీ": 4948,
      "అలీ": 4949,
      "రూపం": 4950,
      "ఉద్యోగాలు": 4951,
      "అంచనాలు": 4952,
      "పట్నం": 4953,
      "సంతోషంగా": 4954,
      "ఈయన": 4955,
      "దేవుడు": 4956,
      "ఏమిట": 4957,
      "నోటిఫికేషన్": 4958,
      "సైని": 4959,
      "పాకిస్తాన్": 4960,
      "విడుదలైన": 4961,
      "ఫోర్": 4962,
      "పార్లమెంట్": 4963,
      "ప్రగతి": 4964,
      "త్తుల": 4965,
      "స్టిక్": 4966,
      "యజ్ఞ": 4967,
      "వెనక్కి": 4968,
      "దేవుని": 4969,
      "వెండి": 4970,
      "చిత్రాలు": 4971,
      "150": 4972,
      "డొ": 4973,
      "స్తోన్న": 4974,
      "చర్చలు": 4975,
      "సేవి": 4976,
      "శీర్": 4977,
      "కంపెనీలు": 4978,
      "కద": 4979,
      "వచ": 4980,
      "ప్రవర్తి": 4981,
      "వైఎస్సార్": 4982,
      "డగు": 4983,
      "నివేది": 4984,
      "ఆధ్యాత్మిక": 4985,
      "శృంగ": 4986,
      "నైన": 4987,
      "సుబ్బ": 4988,
      "బ్యాటింగ్": 4989,
      "షెడ్యూల్": 4990,
      "సంవత్సరాలు": 4991,
      "మండలంలోని": 4992,
      "ఖమ్మ": 4993,
      "విక్రయి": 4994,
      "ంచుకోండి": 4995,
      "ప్రధానంగా": 4996,
      "అమిత్": 4997,
      "సైడ్": 4998,
      "్యము": 4999,
      "నిలిచింది": 5000,
      "ప్రకటించిన": 5001,
      "చూచి": 5002,
      "శక్": 5003,
      "దృశ్య": 5004,
      "భాలు": 5005,
      "రాష్ట్రంలోని": 5006,
      "నాది": 5007,
      "కోర్సు": 5008,
      "అయినప్పటికీ": 5009,
      "కింది": 5010,
      "పరిశోధ": 5011,
      "కౌన్సి": 5012,
      "ఆక్సి": 5013,
      "అభిప్రాయం": 5014,
      "తారని": 5015,
      "పరిశోధన": 5016,
      "క్కె": 5017,
      "ష్టు": 5018,
      "కోరిక": 5019,
      "ముఖ్యం": 5020,
      "చివరికి": 5021,
      "దాడులు": 5022,
      "ఆదేశాలు": 5023,
      "మంటే": 5024,
      "జేయ": 5025,
      "పూడి": 5026,
      "ఎకర": 5027,
      "మహర్": 5028,
      "వాసు": 5029,
      "ఈడీ": 5030,
      "తిన్": 5031,
      "వల్లే": 5032,
      "పాలిటీ": 5033,
      "క్యం": 5034,
      "బయలుదే": 5035,
      "దీక్ష": 5036,
      "అంతేకాకుండా": 5037,
      "ఎనిమిది": 5038,
      "కొల": 5039,
      "సిస్": 5040,
      "అయ్యాయి": 5041,
      "తలె": 5042,
      "ఎరు": 5043,
      "యార్": 5044,
      "అవినీతి": 5045,
      "అయ్యా": 5046,
      "కొరకు": 5047,
      "త్తమ": 5048,
      "ప్రైవేటు": 5049,
      "అప": 5050,
      "వెళు": 5051,
      "సాఫ్ట్": 5052,
      "తమ్ము": 5053,
      "స్తుండగా": 5054,
      "కరాలు": 5055,
      "రెడ్": 5056,
      "పెట్టా": 5057,
      "చేస్తున్నాడు": 5058,
      "మైతే": 5059,
      "పోతున్నారు": 5060,
      "చేయగా": 5061,
      "గుడి": 5062,
      "దీప్": 5063,
      "కాంతి": 5064,
      "ఆం": 5065,
      "వలస": 5066,
      "సులభంగా": 5067,
      "వేషన్": 5068,
      "గోపాల్": 5069,
      "స్పందించారు": 5070,
      "త్మకంగా": 5071,
      "కంప్యూ": 5072,
      "నిలిపి": 5073,
      "రహస్య": 5074,
      "అప్పుడే": 5075,
      "బును": 5076,
      "క్షో": 5077,
      "స్తారా": 5078,
      "బడే": 5079,
      "దిగిన": 5080,
      "34": 5081,
      "కూరు": 5082,
      "పర్యటి": 5083,
      "వాటికి": 5084,
      "క్రూ": 5085,
      "మెరుగ": 5086,
      "బయో": 5087,
      "కాలిక": 5088,
      "చర": 5089,
      "రసా": 5090,
      "గ్రామం": 5091,
      "ఎదుర్": 5092,
      "స్ఫూర్": 5093,
      "వ్యాప్తి": 5094,
      "టెన్": 5095,
      "వస్తోంది": 5096,
      "విరుద్ధ": 5097,
      "దేవర": 5098,
      "నమోద": 5099,
      "కాంట్రా": 5100,
      "భవన్": 5101,
      "దిశగా": 5102,
      "చేసుకొని": 5103,
      "పృ": 5104,
      "టీ20": 5105,
      "గట్టిగా": 5106,
      "విజ్ఞ": 5107,
      "స్థలా": 5108,
      "కనిపిస్తోంది": 5109,
      "ఇంటర్నేషనల్": 5110,
      "పాటలు": 5111,
      "నఁ": 5112,
      "వాస్తవం": 5113,
      "శెట్టి": 5114,
      "స్వాధీనం": 5115,
      "ప్రపంచవ్యాప్తంగా": 5116,
      "స్పద": 5117,
      "పడ్డాడు": 5118,
      "గావి": 5119,
      "పేజీ": 5120,
      "ంచుకోవ": 5121,
      "టైమ్": 5122,
      "పదు": 5123,
      "మిస్": 5124,
      "లేదో": 5125,
      "బాట": 5126,
      "క్యు": 5127,
      "మిక్": 5128,
      "కార్యాలయం": 5129,
      "భోజనం": 5130,
      "మొదలగు": 5131,
      "జని": 5132,
      "నటిస్తున్న": 5133,
      "గ్రామీ": 5134,
      "ఉప్పు": 5135,
      "వ్యాయా": 5136,
      "వాదాలు": 5137,
      "జూనియర్": 5138,
      "జిల్లాల్లో": 5139,
      "కాలము": 5140,
      "కావాలి": 5141,
      "క్రేజ్": 5142,
      "అప్రమ": 5143,
      "ప్రథ": 5144,
      "యూనివర్సిటీ": 5145,
      "పురస్": 5146,
      "బారిన": 5147,
      "కేంద్రంలో": 5148,
      "తామని": 5149,
      "బ్రేక్": 5150,
      "వలయు": 5151,
      "ఒక్కొక్క": 5152,
      "రెన్స్": 5153,
      "తుది": 5154,
      "మాలి": 5155,
      "కుప్ప": 5156,
      "పాక్": 5157,
      "వ్యాఖ్యానించారు": 5158,
      "అప్పట్లో": 5159,
      "సద్": 5160,
      "కప్పుడు": 5161,
      "దళిత": 5162,
      "క్లారిటీ": 5163,
      "గారికి": 5164,
      "రేటింగ్": 5165,
      "వుని": 5166,
      "తయార": 5167,
      "ఒక్కసారిగా": 5168,
      "ఫైనల్": 5169,
      "దినో": 5170,
      "కానున్న": 5171,
      "అసి": 5172,
      "హర": 5173,
      "జాత": 5174,
      "తెచ్చి": 5175,
      "శ్వాస": 5176,
      "తోట": 5177,
      "సుర": 5178,
      "బ్యానర్": 5179,
      "ఎత్తి": 5180,
      "సద": 5181,
      "ఉన్నారని": 5182,
      "ందీ": 5183,
      "స్వచ్ఛ": 5184,
      "సమ్మ": 5185,
      "నీళ్లు": 5186,
      "డియం": 5187,
      "ప్రాధాన్యత": 5188,
      "యంగ్": 5189,
      "అధికారిక": 5190,
      "కృతజ్ఞ": 5191,
      "యువతి": 5192,
      "వాస్తవానికి": 5193,
      "లాంచ్": 5194,
      "నిర్మించిన": 5195,
      "ఇంజనీ": 5196,
      "అధ్యక్షు": 5197,
      "చంద": 5198,
      "రకం": 5199,
      "వేసు": 5200,
      "ెర": 5201,
      "అనుభవ": 5202,
      "సిక్": 5203,
      "క్రమి": 5204,
      "అధ్యక్షులు": 5205,
      "సంక్రాంతి": 5206,
      "పించిన": 5207,
      "పెట్రోల్": 5208,
      "భూత": 5209,
      "ంచబడిన": 5210,
      "ట్యూబ్": 5211,
      "పులి": 5212,
      "ౌండ్": 5213,
      "వేరియం": 5214,
      "చల్": 5215,
      "చేసుకునే": 5216,
      "ైనర్": 5217,
      "బెదిరి": 5218,
      "దర్శనం": 5219,
      "బిజీగా": 5220,
      "సచివాల": 5221,
      "ంలోనే": 5222,
      "దూరంలో": 5223,
      "క్యారె": 5224,
      "ఫలితం": 5225,
      "అశ్": 5226,
      "సత్యనారాయణ": 5227,
      "సాధించింది": 5228,
      "చదివి": 5229,
      "విద్యార్థుల": 5230,
      "అనిల్": 5231,
      "గేమ్": 5232,
      "ఏసీ": 5233,
      "బంగా": 5234,
      "చుచు": 5235,
      "ప్ట్": 5236,
      "త్తే": 5237,
      "యింగ్": 5238,
      "హెచ్చరించారు": 5239,
      "అదుపులోకి": 5240,
      "వార్డు": 5241,
      "చెరువు": 5242,
      "ఆకు": 5243,
      "ముడి": 5244,
      "ప్స్": 5245,
      "పల్ల": 5246,
      "చూసు": 5247,
      "హాస్పి": 5248,
      "రిటై": 5249,
      "యాంటీ": 5250,
      "బాలిక": 5251,
      "లాగా": 5252,
      "లబ్ధి": 5253,
      "రాల్లో": 5254,
      "తద్వారా": 5255,
      "తున్నాయని": 5256,
      "విషయము": 5257,
      "నిర్వాహ": 5258,
      "ీకరణ": 5259,
      "ధ్యం": 5260,
      "పోలింగ్": 5261,
      "్యాలు": 5262,
      "పార్టీని": 5263,
      "కొక": 5264,
      "పాండ": 5265,
      "దృష్టికి": 5266,
      "పత": 5267,
      "ంటికి": 5268,
      "కణ": 5269,
      "ఉండటంతో": 5270,
      "పిరి": 5271,
      "ందలి": 5272,
      "చ్చని": 5273,
      "తీసే": 5274,
      "సీన్": 5275,
      "కాంబి": 5276,
      "కోర": 5277,
      "ంటరి": 5278,
      "అధికారుల": 5279,
      "ంటారని": 5280,
      "సమితి": 5281,
      "యినా": 5282,
      "పెంచే": 5283,
      "అవత": 5284,
      "సెంచ": 5285,
      "ఉచి": 5286,
      "సినిమాకి": 5287,
      "ఫెస్టి": 5288,
      "పిలుపుని": 5289,
      "ఆరం": 5290,
      "55": 5291,
      "బెట్టి": 5292,
      "మోహన": 5293,
      "తై": 5294,
      "ఆరోగ్యా": 5295,
      "విశ్వవిద్యాల": 5296,
      "300": 5297,
      "ఎల్లప్పుడూ": 5298,
      "నిర్వహించ": 5299,
      "పరిధిలోని": 5300,
      "కరీం": 5301,
      "విను": 5302,
      "సతీ": 5303,
      "ప్రసం": 5304,
      "..?": 5305,
      "నెంబర్": 5306,
      "అనుకూల": 5307,
      "గము": 5308,
      "భద్రతా": 5309,
      "చేసుకోవాలి": 5310,
      "మిమ్మల్ని": 5311,
      "భావము": 5312,
      "వెలువ": 5313,
      "పింగ్": 5314,
      "కిరణ్": 5315,
      "38": 5316,
      "వాసన": 5317,
      "ఓటమి": 5318,
      "అస్": 5319,
      "శుభా": 5320,
      "కొద్దిగా": 5321,
      "చూస్తున్న": 5322,
      "తెరి": 5323,
      "జస్టి": 5324,
      "ఢిల్లీలో": 5325,
      "పండ": 5326,
      "శ్రీకృష్ణ": 5327,
      "వేదా": 5328,
      "తడు": 5329,
      "అధికారం": 5330,
      "నియన్": 5331,
      "యిడ్": 5332,
      "లన్నీ": 5333,
      "స్కు": 5334,
      "చేయకుండా": 5335,
      "జాగ్రత్తలు": 5336,
      "వెర్": 5337,
      "చేయాల్సి": 5338,
      "పేర్లు": 5339,
      "తగినంత": 5340,
      "వుంటుంది": 5341,
      "కథలు": 5342,
      "స్వతంత్ర": 5343,
      "శబ్": 5344,
      "ఎక్కడా": 5345,
      "అధ్యయనం": 5346,
      "తిరి": 5347,
      "ద్దరూ": 5348,
      "వ్యవహారం": 5349,
      "వికెట్లు": 5350,
      "మలు": 5351,
      "ఇటీవలే": 5352,
      "తుని": 5353,
      "చెడు": 5354,
      "పిండి": 5355,
      "సస్పె": 5356,
      "నాగే": 5357,
      "అందించిన": 5358,
      "ఆఫీసర్": 5359,
      "మీడియాతో": 5360,
      "పూజా": 5361,
      "రావాలని": 5362,
      "క్తం": 5363,
      "రాష్ట్రానికి": 5364,
      "చేయలేదు": 5365,
      "లోపే": 5366,
      "మ్యూజిక్": 5367,
      "రిక": 5368,
      "కార్తీ": 5369,
      "వాటర్": 5370,
      "నిమ్మ": 5371,
      "సంకే": 5372,
      "వచ్చినా": 5373,
      "తీసుకునే": 5374,
      "కాంబినేషన్": 5375,
      "భేద": 5376,
      "పునర్": 5377,
      "స్కీ": 5378,
      "తేజ్": 5379,
      "కామెడీ": 5380,
      "విషయమై": 5381,
      "రహదారి": 5382,
      "మయ్యే": 5383,
      "ర్నీ": 5384,
      "పసి": 5385,
      "కుంటూ": 5386,
      "ంట్ర": 5387,
      "సర్పంచ్": 5388,
      "సౌందర్": 5389,
      "సులో": 5390,
      "సంవత్సరంలో": 5391,
      "అండగా": 5392,
      "క్కిన": 5393,
      "సెంచరీ": 5394,
      "పేపర్": 5395,
      "సుక": 5396,
      "వెళ్లారు": 5397,
      "తీసుకుంది": 5398,
      "ప్యూటీ": 5399,
      "శక్తిని": 5400,
      "మూసి": 5401,
      "క్లిక్": 5402,
      "ార్ధ": 5403,
      "ప్రమాదంలో": 5404,
      "బలంగా": 5405,
      "విచిత్ర": 5406,
      "మెరు": 5407,
      "అధికారులకు": 5408,
      "భివృద్ధి": 5409,
      "నిర్మాతలు": 5410,
      "మేం": 5411,
      "సామర్థ్యం": 5412,
      "నిజమైన": 5413,
      "ప్రణాళిక": 5414,
      "అలవాటు": 5415,
      "క్రెయిన్": 5416,
      "దారుల": 5417,
      "శ్రామిక": 5418,
      "దిష్ట": 5419,
      "వేచి": 5420,
      "దార": 5421,
      "మతులు": 5422,
      "ణే": 5423,
      "ఘనంగా": 5424,
      "బ్రె": 5425,
      "ట్రాన్స్": 5426,
      "ప్రియా": 5427,
      "పైనే": 5428,
      "బద్ద": 5429,
      "తరఫున": 5430,
      "అరి": 5431,
      "కార్మికులు": 5432,
      "సరికొత్త": 5433,
      "సెర్చ్": 5434,
      "స్తున్నామని": 5435,
      "భిన్నంగా": 5436,
      "విర": 5437,
      "లీల": 5438,
      "వ్యతిరేకి": 5439,
      "రాబోయే": 5440,
      "భ్యా": 5441,
      "వుండే": 5442,
      "లభిస్తుంది": 5443,
      "రాయల": 5444,
      "సమయ": 5445,
      "ల్యూ": 5446,
      "విషయాలను": 5447,
      "ఏమైనా": 5448,
      "సగం": 5449,
      "నెను": 5450,
      "భగవంతు": 5451,
      "అత్యు": 5452,
      "వేసవి": 5453,
      "కిడ్": 5454,
      "పెరుగుతుంది": 5455,
      "యూజర్": 5456,
      "37": 5457,
      "వస్తుందని": 5458,
      "దొరికి": 5459,
      "తీసుకోవాలి": 5460,
      "ణాం": 5461,
      "పెట్టడం": 5462,
      "రామచంద్ర": 5463,
      "కలుపు": 5464,
      "లేకపోవడం": 5465,
      "అధికారులను": 5466,
      "పడ్డాయి": 5467,
      "పోస్టర్": 5468,
      "చేస్తాయి": 5469,
      "చెంది": 5470,
      "సమన్": 5471,
      "బెట్ట": 5472,
      "క్షన్స్": 5473,
      "కచ్చితంగా": 5474,
      "నిరుద్యో": 5475,
      "కగా": 5476,
      "వాటా": 5477,
      "తాగు": 5478,
      "కాంగ్రె": 5479,
      "రష్": 5480,
      "క్కిలి": 5481,
      "వైయస్": 5482,
      "అభ్యర్థులు": 5483,
      "ఆదర్శ": 5484,
      "మూడే": 5485,
      "స్వల్ప": 5486,
      "తిరుమల": 5487,
      "కుటుంబానికి": 5488,
      "వళి": 5489,
      "యాజమాన్": 5490,
      "కడప": 5491,
      "మూరి": 5492,
      "తీసిన": 5493,
      "నిత్యం": 5494,
      "65": 5495,
      "స్థితిలో": 5496,
      "గూగుల్": 5497,
      "ంచడమే": 5498,
      "అందించే": 5499,
      "పనికి": 5500,
      "పెద్దలు": 5501,
      "ఇన్స్": 5502,
      "జిత్": 5503,
      "కన్నడ": 5504,
      "నట్టి": 5505,
      "నాన్": 5506,
      "తేల్": 5507,
      "సహి": 5508,
      "ఒప్పందం": 5509,
      "పోల": 5510,
      "పసుపు": 5511,
      "ఫైర్": 5512,
      "జర్నలి": 5513,
      "సూచనలు": 5514,
      "ాలంటూ": 5515,
      "!\"": 5516,
      "అందుకున్న": 5517,
      "కరీంనగర్": 5518,
      "లకి": 5519,
      "కలం": 5520,
      "ెం": 5521,
      "స్టోరీ": 5522,
      "నెల్లూరు": 5523,
      "ఖరీ": 5524,
      "లోపు": 5525,
      "నివాసం": 5526,
      "ఫ్రికా": 5527,
      "తమే": 5528,
      "హారి": 5529,
      "చెలరే": 5530,
      "ట్రంప్": 5531,
      "చేరింది": 5532,
      "మార్గా": 5533,
      "ఓపె": 5534,
      "స్తానని": 5535,
      "స్థానికులు": 5536,
      "హెడ్": 5537,
      "మహమ్మారి": 5538,
      "సాల": 5539,
      "జ్ఞానము": 5540,
      "యన్నారు": 5541,
      "సిఆర్": 5542,
      "ఉత్తరా": 5543,
      "విప్ల": 5544,
      "వీధి": 5545,
      "క్రికె": 5546,
      "సీత": 5547,
      "స్మార్ట్ఫోన్": 5548,
      "కార్యక్రమాన్ని": 5549,
      "చంపే": 5550,
      "పనులను": 5551,
      "ఫెస్టివల్": 5552,
      "ఫండ్": 5553,
      "తుంటారు": 5554,
      "నియామ": 5555,
      "ఈవో": 5556,
      "హైదరాబాద్లో": 5557,
      "ఉపయోగించి": 5558,
      "పెంపు": 5559,
      "వాదం": 5560,
      "సెక": 5561,
      "ంచుటకు": 5562,
      "వారిపై": 5563,
      "పనితీరు": 5564,
      "మల్ల": 5565,
      "మందులు": 5566,
      "జియో": 5567,
      "లభ్య": 5568,
      "నట": 5569,
      "వేత్తలు": 5570,
      "అంశాలు": 5571,
      "ఓట్లు": 5572,
      "తొలు": 5573,
      "తున్నట్లు": 5574,
      "ంచిందని": 5575,
      "వంశీ": 5576,
      "యాలను": 5577,
      "పరిష్కార": 5578,
      "వచన": 5579,
      "నమ్మి": 5580,
      "ప్రయోజనాలు": 5581,
      "బాబా": 5582,
      "మామూ": 5583,
      "రాకుండా": 5584,
      "గ్రామాల్లో": 5585,
      "గతే": 5586,
      "2017": 5587,
      "బాదు": 5588,
      "తఁడు": 5589,
      "ఉండడం": 5590,
      "గురువు": 5591,
      "ఆయనను": 5592,
      "ఫ్లో": 5593,
      "సాప్": 5594,
      "ఇక్కడి": 5595,
      "ర్రా": 5596,
      "ఇవన్నీ": 5597,
      "స్తాను": 5598,
      "మేక్": 5599,
      "ఁడై": 5600,
      "కః": 5601,
      "ప్రభుత్వాలు": 5602,
      "ప్రాంతాల": 5603,
      "జరీ": 5604,
      "డైలా": 5605,
      "ఓటీ": 5606,
      "మందిని": 5607,
      "నేనే": 5608,
      "క్లిష్ట": 5609,
      "ప్రత్యా": 5610,
      "సారా": 5611,
      "44": 5612,
      "గణే": 5613,
      "గడం": 5614,
      "ఖమ్మం": 5615,
      "మెత్త": 5616,
      "హాని": 5617,
      "ఒంటరి": 5618,
      "ఇట్లు": 5619,
      "యః": 5620,
      "కోడ్": 5621,
      "రాబాద్": 5622,
      "టన్ను": 5623,
      "క్రియా": 5624,
      "అధ్యా": 5625,
      "చేస్తున్నాయి": 5626,
      "విమానా": 5627,
      "అశో": 5628,
      "అవుట్": 5629,
      "క్షణం": 5630,
      "ధిప": 5631,
      "నిరోధక": 5632,
      "కంటెంట్": 5633,
      "మొక్కలు": 5634,
      "డలి": 5635,
      "నిర్దిష్ట": 5636,
      "చేసుకోవ": 5637,
      "భౌతిక": 5638,
      "చూస్తూ": 5639,
      "తీర": 5640,
      "ప్రజాస్వా": 5641,
      "ముడు": 5642,
      "ఈనెల": 5643,
      "శుద్ధి": 5644,
      "మెగాస్టార్": 5645,
      "చుకో": 5646,
      "వస్తువు": 5647,
      "జస్టిస్": 5648,
      "ప్రచురి": 5649,
      "కనిపించ": 5650,
      "స్టూ": 5651,
      "ప్రదేశ": 5652,
      "వంటివి": 5653,
      "బ్రిటీ": 5654,
      "చేయనున్నారు": 5655,
      "తానే": 5656,
      "విభాగం": 5657,
      "సూక్ష్": 5658,
      "కార్యక్రమానికి": 5659,
      "కోప": 5660,
      "ప్లస్": 5661,
      "రకమైన": 5662,
      "క్యాన్సర్": 5663,
      "ఈవెంట్": 5664,
      "వృక్ష": 5665,
      "టీచర్": 5666,
      "ఫిక్స్": 5667,
      "పాయ": 5668,
      "ంచుకోవాలి": 5669,
      "శుద్ధ": 5670,
      "కాను": 5671,
      "విశ్రా": 5672,
      "రానున్న": 5673,
      "స్తాం": 5674,
      "నెలకొంది": 5675,
      "పాత్రలు": 5676,
      "వివాదం": 5677,
      "ఆశ్రయి": 5678,
      "చూప": 5679,
      "ఉపయోగిస్తారు": 5680,
      "వాట్సాప్": 5681,
      "గాఁ": 5682,
      "దేవీ": 5683,
      "ఎస్ఐ": 5684,
      "ఫామ్": 5685,
      "నిమిషాల": 5686,
      "ఫోటోలు": 5687,
      "ఇంటర్నెట్": 5688,
      "వ్యవధి": 5689,
      "ఇంగ్లీ": 5690,
      "నిర్మాణానికి": 5691,
      "బ్రాహ్మణ": 5692,
      "కూరగా": 5693,
      "అటవీ": 5694,
      "ప్రశాంత": 5695,
      "కన్నీ": 5696,
      "కార్యకర్త": 5697,
      "ంచామని": 5698,
      "ప్రయాణం": 5699,
      "గ్న": 5700,
      "బాహుబలి": 5701,
      "ఆస్": 5702,
      "ధులను": 5703,
      "విఫల": 5704,
      "ధన్యవాదాలు": 5705,
      "యుండు": 5706,
      "వైస్": 5707,
      "నినా": 5708,
      "ఆరోపి": 5709,
      "మెరుగైన": 5710,
      "విరాట్": 5711,
      "ప్రభావితం": 5712,
      "దయా": 5713,
      "జూచి": 5714,
      "గొంతు": 5715,
      "కలసి": 5716,
      "కర్నూలు": 5717,
      "హిందు": 5718,
      "యథా": 5719,
      "ఉద్యోగుల": 5720,
      "అనారోగ్య": 5721,
      "మానికి": 5722,
      "గంగా": 5723,
      "ండో": 5724,
      "బలహీన": 5725,
      "సాడు": 5726,
      "యంతో": 5727,
      "బంతుల్లో": 5728,
      "కున్నాడు": 5729,
      "బదు": 5730,
      "పరస్ప": 5731,
      "ఎలక్ట్రిక్": 5732,
      "ల్లోనూ": 5733,
      "స్కా": 5734,
      "మోక్ష": 5735,
      "కనిపించింది": 5736,
      "మాణి": 5737,
      "కుంటున్న": 5738,
      "స్థాయికి": 5739,
      "పేరి": 5740,
      "సమగ్ర": 5741,
      "అసోసి": 5742,
      "దీనిలో": 5743,
      "దౌ": 5744,
      "ంబరు": 5745,
      "లాల్": 5746,
      "కంట్రో": 5747,
      "కది": 5748,
      "ఉక్రెయిన్": 5749,
      "పార్లమెంటు": 5750,
      "వెన్యూ": 5751,
      "పోరాట": 5752,
      "పలుకు": 5753,
      "మోస": 5754,
      "ఫీజు": 5755,
      "యెను": 5756,
      "తీసుకోవ": 5757,
      "కంలో": 5758,
      "ఆదు": 5759,
      "మనుష": 5760,
      "స్టాక్": 5761,
      "మృతదే": 5762,
      "షేక్": 5763,
      "కావలసిన": 5764,
      "త్తర": 5765,
      "బియ్య": 5766,
      "రెగ్య": 5767,
      "నిధి": 5768,
      "అరవి": 5769,
      "ంచిరి": 5770,
      "క్టరీ": 5771,
      "వంశ": 5772,
      "ధికారి": 5773,
      "క్కర్": 5774,
      "పాలకు": 5775,
      "యాజమాన్యం": 5776,
      "అతిపెద్ద": 5777,
      "సింహా": 5778,
      "ంగానే": 5779,
      "ఏంటి": 5780,
      "స్ట్రి": 5781,
      "ఇచ్చాడు": 5782,
      "కంప్యూటర్": 5783,
      "లాక్డౌన్": 5784,
      "మిల": 5785,
      "ఖ్": 5786,
      "తెరకెక్కు": 5787,
      "నడిపి": 5788,
      "సమాచారాన్ని": 5789,
      "నిబంధ": 5790,
      "పెద": 5791,
      "మూత్ర": 5792,
      "బాగానే": 5793,
      "వాను": 5794,
      "వెను": 5795,
      "దారులకు": 5796,
      "రుడు": 5797,
      "వత": 5798,
      "శిష్ట": 5799,
      "స్వరూప": 5800,
      "గులా": 5801,
      "పుల్": 5802,
      "2016": 5803,
      "కైక": 5804,
      "బంధం": 5805,
      "డిప్యూటీ": 5806,
      "ంటుందని": 5807,
      "అభినంది": 5808,
      "చేరిన": 5809,
      "కూడదని": 5810,
      "కల్పన": 5811,
      "దేవత": 5812,
      "ప్రజాశక్తి": 5813,
      "వద్దు": 5814,
      "నమస్": 5815,
      "లేదంటే": 5816,
      "హెల్త్": 5817,
      "యుగ": 5818,
      "వద్దని": 5819,
      "దక్క": 5820,
      "వ్యాపారం": 5821,
      "బర": 5822,
      "తుందా": 5823,
      "కల్యా": 5824,
      "స్తుండ": 5825,
      "హాల": 5826,
      "43": 5827,
      "జరిపి": 5828,
      "నియోజకవర్గంలో": 5829,
      "సగటు": 5830,
      "సహాయపడుతుంది": 5831,
      "పెట్టుకుని": 5832,
      "ారానికి": 5833,
      "పదార్థాలు": 5834,
      "ఖై": 5835,
      "ఎపిసో": 5836,
      "నిరాశ": 5837,
      "యువత": 5838,
      "అర్ధం": 5839,
      "పాలక": 5840,
      "ఇండస్ట్రీలో": 5841,
      "మూడవ": 5842,
      "బౌలింగ్": 5843,
      "ంబి": 5844,
      "బడ్డ": 5845,
      "పనిచేసే": 5846,
      "ఎదుర": 5847,
      "వంగ": 5848,
      "టల": 5849,
      "గ్రౌండ్": 5850,
      "దీప": 5851,
      "సాఫీ": 5852,
      "మిక్కిలి": 5853,
      "మేమి": 5854,
      "వచ్చాడు": 5855,
      "మరణం": 5856,
      "చరిత్రలో": 5857,
      "లేషన్": 5858,
      "చల": 5859,
      "ంటామని": 5860,
      "ఎవరికి": 5861,
      "కుంభ": 5862,
      "47": 5863,
      "బ్య": 5864,
      "ములతో": 5865,
      "భారతదేశంలో": 5866,
      "విమానం": 5867,
      "ఇట్టి": 5868,
      "యాన": 5869,
      "ఆనందం": 5870,
      "సంధా": 5871,
      "వాసి": 5872,
      "జాబితాలో": 5873,
      "స్తున్నాం": 5874,
      "రష్య": 5875,
      "అర్హత": 5876,
      "వేణు": 5877,
      "అభినంద": 5878,
      "తరచూ": 5879,
      "హేతు": 5880,
      "పడితే": 5881,
      "స్వయం": 5882,
      "సమీక్ష": 5883,
      "మొన్న": 5884,
      "తొలుత": 5885,
      "ఎప్పు": 5886,
      "ముక్తి": 5887,
      "స్ట్రేషన్": 5888,
      "కాడ": 5889,
      "స్టులు": 5890,
      "గుర్తించి": 5891,
      "ష్ఠా": 5892,
      "లెక్కి": 5893,
      "లఁ": 5894,
      "ఓం": 5895,
      "గ్యాస్": 5896,
      "కార్మిక": 5897,
      "చేశాయి": 5898,
      "ఎప్పటికప్పుడు": 5899,
      "సిస్టమ్": 5900,
      "సీట్లు": 5901,
      "విందు": 5902,
      "విత్": 5903,
      "సేవా": 5904,
      "ఏర్పడింది": 5905,
      "వాదన": 5906,
      "దాసు": 5907,
      "జరిగాయి": 5908,
      "చక్కగా": 5909,
      "అనుకో": 5910,
      "ఉందన్నారు": 5911,
      "కోట్లకు": 5912,
      "గ్రామీణ": 5913,
      "నియోజకవర్గా": 5914,
      "ప్రియు": 5915,
      "దొరక": 5916,
      "పారిశ్రామిక": 5917,
      "తులలో": 5918,
      "మామ": 5919,
      "పూజలు": 5920,
      "సిద్ధాంత": 5921,
      "పాల్గొన్న": 5922,
      "ముందస్తు": 5923,
      "వాహనం": 5924,
      "ప్రపంచా": 5925,
      "నొక్క": 5926,
      "నేది": 5927,
      "డబుల్": 5928,
      "కెట్ల": 5929,
      "సభ్యుడు": 5930,
      "సెలవు": 5931,
      "రూమ్": 5932,
      "ంకు": 5933,
      "చలి": 5934,
      "సభకు": 5935,
      "అంశంపై": 5936,
      "జత": 5937,
      "సంప్రదాయ": 5938,
      "వూ": 5939,
      "నక్ష": 5940,
      "గోల్": 5941,
      "మమ": 5942,
      "ఇర": 5943,
      "ఆచార్య": 5944,
      "గతేడాది": 5945,
      "చూస్తున్నారు": 5946,
      "రీమేక్": 5947,
      "మింగ్": 5948,
      "విటమిన్": 5949,
      "చాటు": 5950,
      "అడవి": 5951,
      "సుధా": 5952,
      "పెట్టాడు": 5953,
      "ఉద్యోగా": 5954,
      "మేన": 5955,
      "మ్రా": 5956,
      "షాకింగ్": 5957,
      "నివారణ": 5958,
      "సెక్షన్": 5959,
      "రకంగా": 5960,
      "ప్రెసి": 5961,
      "జ్జ": 5962,
      "ంచాను": 5963,
      "హానికి": 5964,
      "మర్చి": 5965,
      "మోటార్": 5966,
      "సామ్రా": 5967,
      "ట్టుకో": 5968,
      "స్తుంటారు": 5969,
      "మాబాద్": 5970,
      "నచ్చ": 5971,
      "నేతృ": 5972,
      "కాంక్షలు": 5973,
      "ఏర్పడిన": 5974,
      "గూడె": 5975,
      "రసం": 5976,
      "శానికి": 5977,
      "ంచగల": 5978,
      "సిన్": 5979,
      "కంగ": 5980,
      "ఁద": 5981,
      "మాత్రము": 5982,
      "ఇంతకు": 5983,
      "లేచి": 5984,
      "ఇన్వె": 5985,
      "తీర్చి": 5986,
      "కపోవడం": 5987,
      "యూపీ": 5988,
      "కారణాలు": 5989,
      "లేవ": 5990,
      "ర్షణ": 5991,
      "శాయి": 5992,
      "పాకిస్థాన్": 5993,
      "ఇళ్ల": 5994,
      "వాచ": 5995,
      "ళ్లతో": 5996,
      "ర్యాలీ": 5997,
      "దిక్కు": 5998,
      "ఒక్కరూ": 5999,
      "పలికి": 6000,
      "పడతాయి": 6001,
      "నిర్ధారణ": 6002,
      "సదరు": 6003,
      "పోలిస్తే": 6004,
      "ములందు": 6005,
      "ఆంగ్": 6006,
      "ఫేస్బుక్": 6007,
      "త్రివిక్రమ్": 6008,
      "కమ్": 6009,
      "శరీరంలో": 6010,
      "భగవ": 6011,
      "ప్రేక్షకులను": 6012,
      "తిరస్": 6013,
      "జీవితాన్ని": 6014,
      "ఆహ": 6015,
      "విధాన": 6016,
      "భవిష్యత్తులో": 6017,
      "పెట్టుబడులు": 6018,
      "ఫ్యూ": 6019,
      "అసంత": 6020,
      "రాజకీయాల్లో": 6021,
      "లును": 6022,
      "లోను": 6023,
      "వైద్యం": 6024,
      "మేయర్": 6025,
      "మహబూ": 6026,
      "బెస్ట్": 6027,
      ":-": 6028,
      "జోన్": 6029,
      "ఔషధ": 6030,
      "సూయ": 6031,
      "పెడితే": 6032,
      "ప్రశ్నలు": 6033,
      "అంబే": 6034,
      "రంగంలోకి": 6035,
      "ద్వార": 6036,
      "నియంత్రి": 6037,
      "వాణిజ్య": 6038,
      "గౌరవం": 6039,
      "రాజ్యాంగ": 6040,
      "ప్రారంభించిన": 6041,
      "పరిష": 6042,
      "వెల్లు": 6043,
      "ప్రత్యామ్": 6044,
      "ారంటూ": 6045,
      "ద్దని": 6046,
      "సంబంధాలు": 6047,
      "హాజరయ్యారు": 6048,
      "ంచుకోవాలని": 6049,
      "తొమ్మిది": 6050,
      "ఉచితంగా": 6051,
      "ధాన్యం": 6052,
      "సాని": 6053,
      "చంప": 6054,
      "పోరు": 6055,
      "తోఁ": 6056,
      "ఉద్దేశి": 6057,
      "స్థాపన": 6058,
      "సమస్యల": 6059,
      "కార్యా": 6060,
      "పత్": 6061,
      "టర్ల": 6062,
      "విలా": 6063,
      "విమానాశ్ర": 6064,
      "ప్రతిభ": 6065,
      "పాలసీ": 6066,
      "39": 6067,
      "జవా": 6068,
      "సత్తా": 6069,
      "కపూర్": 6070,
      "టచే": 6071,
      "బ్లా": 6072,
      "వీరికి": 6073,
      "స్టైల్": 6074,
      "రిజర్వేషన్": 6075,
      "దంత": 6076,
      "కామెంట్": 6077,
      "సేవలను": 6078,
      "తప్పనిసరిగా": 6079,
      "కైన": 6080,
      "జరిగిందని": 6081,
      "దిగ్గ": 6082,
      "నటించారు": 6083,
      "రిటీ": 6084,
      "ారన్న": 6085,
      "పూజి": 6086,
      "శ్చా": 6087,
      "క్రెడి": 6088,
      "కాండ": 6089,
      "యంత్రా": 6090,
      "సమాచార": 6091,
      "సంస్కృ": 6092,
      "ప్రేక్షకులు": 6093,
      "వాదులు": 6094,
      "మార్క్": 6095,
      "తుడి": 6096,
      "యూట్యూబ్": 6097,
      "యాంకర్": 6098,
      "విల్": 6099,
      "ఆమోది": 6100,
      "దెలి": 6101,
      "స్పూ": 6102,
      "ప్రక్క": 6103,
      "ఖర్": 6104,
      "సందడి": 6105,
      "యాన్": 6106,
      "తర్వా": 6107,
      "యువకుడు": 6108,
      "మేకర్స్": 6109,
      "ఇస్తుంది": 6110,
      "అనూ": 6111,
      "స్తుల": 6112,
      "రాముడు": 6113,
      "మాతృ": 6114,
      "నామినేషన్": 6115,
      "జిల్లాల": 6116,
      "సిలి": 6117,
      "నకి": 6118,
      "నియోజకవర్గం": 6119,
      "సందర్భా": 6120,
      "డెస్క్": 6121,
      "పట్టా": 6122,
      "పరిగణ": 6123,
      "మొత్తానికి": 6124,
      "పోతాయి": 6125,
      "అప్డేట్": 6126,
      "తమవు": 6127,
      "ఎన్నికలకు": 6128,
      "యజమాని": 6129,
      "తీర్థ": 6130,
      "ఇంట": 6131,
      "తాళ": 6132,
      "అకౌంట్": 6133,
      "అమెరికాలో": 6134,
      "వర్స్": 6135,
      "అత్త": 6136,
      "సరా": 6137,
      "దిల్": 6138,
      "తికే": 6139,
      "ఆస్తి": 6140,
      "ములును": 6141,
      "కాంగ్రెసు": 6142,
      "తక్షణ": 6143,
      "గోపాల": 6144,
      "ఆర్టి": 6145,
      "మొదలైంది": 6146,
      "గఁ": 6147,
      "రెవెన్యూ": 6148,
      "ముగిసిన": 6149,
      "మది": 6150,
      "అయో": 6151,
      "వేశ": 6152,
      "రవితేజ": 6153,
      "పొత్తు": 6154,
      "సదా": 6155,
      "దొర": 6156,
      "శీల": 6157,
      "కమైన": 6158,
      "వాడే": 6159,
      "నిర్ణయాలు": 6160,
      "ఆపై": 6161,
      "వింత": 6162,
      "వైసిపి": 6163,
      "లెక్": 6164,
      "న్నో": 6165,
      "ంచుకున్నాడు": 6166,
      "యవ": 6167,
      "ండిన": 6168,
      "తడి": 6169,
      "ఛే": 6170,
      "బ్యాటరీ": 6171,
      "చేసుకోవడం": 6172,
      "త్న": 6173,
      "కృత్రి": 6174,
      "జీలు": 6175,
      "మారిన": 6176,
      "కాళ": 6177,
      "పరీక్షి": 6178,
      "42": 6179,
      "శారీ": 6180,
      "గోడ": 6181,
      "భ్రా": 6182,
      "లేకపోవడంతో": 6183,
      "ఱ్": 6184,
      "మాట్లాడే": 6185,
      "బహుశా": 6186,
      "గంటలు": 6187,
      "కోర్టులో": 6188,
      "మ్యం": 6189,
      "రియస్": 6190,
      "పాల్గొన": 6191,
      "ఫుడ్": 6192,
      "రాను": 6193,
      "పతా": 6194,
      "ఉందా": 6195,
      "నానా": 6196,
      "కొవిడ్": 6197,
      "తప్పుడు": 6198,
      "అవే": 6199,
      "కూలీ": 6200,
      "వేయడం": 6201,
      "పడుతూ": 6202,
      "అలరి": 6203,
      "ప్లాంట్": 6204,
      "నన్": 6205,
      "ంటిని": 6206,
      "గర్వ": 6207,
      "పరిశీలించారు": 6208,
      "ఉన్నతా": 6209,
      "సేకరణ": 6210,
      "సంక్షో": 6211,
      "అందజేశారు": 6212,
      "ధన్": 6213,
      "అద్భుతంగా": 6214,
      "ట్రీ": 6215,
      "యితీ": 6216,
      "భాగ్య": 6217,
      "సూక్ష్మ": 6218,
      "తేలిక": 6219,
      "చున్నా": 6220,
      "కనెక్ట్": 6221,
      "లాభం": 6222,
      "టమే": 6223,
      "య్యె": 6224,
      "కేసుల": 6225,
      "పెళ్ళి": 6226,
      "భరో": 6227,
      "క్రొ": 6228,
      "ఘోర": 6229,
      "చివర": 6230,
      "ఆర్ధిక": 6231,
      "ఆశ్చర్": 6232,
      "దేశాలకు": 6233,
      "స్ఫూర్తి": 6234,
      "గ్గి": 6235,
      "ప్రాచీ": 6236,
      "సమస్యను": 6237,
      "విజ్ఞప్తి": 6238,
      "పరం": 6239,
      "ఆర్డర్": 6240,
      "రష్యన్": 6241,
      "రూపాయ": 6242,
      "విభాగా": 6243,
      "నిబంధనలు": 6244,
      "మునిగి": 6245,
      "ట్టె": 6246,
      "రోల్": 6247,
      "పురాణ": 6248,
      "శుభాకాంక్షలు": 6249,
      "పోల్": 6250,
      "తీసుకెళ్ల": 6251,
      "శతాబ్": 6252,
      "పుం": 6253,
      "పునరుద్ధ": 6254,
      "ుఁడు": 6255,
      "వుంటే": 6256,
      "మెడ": 6257,
      "చేందుకు": 6258,
      "ఏళ్లు": 6259,
      "చేసుకున్నాడు": 6260,
      "ఎగ్జి": 6261,
      "ఎంతగా": 6262,
      "నమ్": 6263,
      "విగ్ర": 6264,
      "వాళ్లకు": 6265,
      "ఒకప్పుడు": 6266,
      "పెరిగిన": 6267,
      "ధము": 6268,
      "మీదుగా": 6269,
      "పొందవచ్చు": 6270,
      "దాస్": 6271,
      "అభివృద్ధికి": 6272,
      "ఓటీటీ": 6273,
      "...!": 6274,
      "మాట్లాడిన": 6275,
      "ఎమో": 6276,
      "పదం": 6277,
      "చేపట్టి": 6278,
      "దగ్గరకు": 6279,
      "మేనేజర్": 6280,
      "ఏమిటంటే": 6281,
      "ంచలేక": 6282,
      "బుద్ధ": 6283,
      "యుండును": 6284,
      "ళ్లే": 6285,
      "ాలూ": 6286,
      "త్తుగా": 6287,
      "ఆసియా": 6288,
      "స్వర": 6289,
      "ఎపిసోడ్": 6290,
      "కృత్రిమ": 6291,
      "చేసుకోవాలని": 6292,
      "కుమార": 6293,
      "మొత్తంలో": 6294,
      "పారా": 6295,
      "గిరిజన": 6296,
      "ఁగి": 6297,
      "ఇసుక": 6298,
      "ఇంకో": 6299,
      "భిప్రా": 6300,
      "ప్రణ": 6301,
      "నెట్టి": 6302,
      "వెనక": 6303,
      "నున్నది": 6304,
      "వడ": 6305,
      "భవనం": 6306,
      "భవిష్యత్": 6307,
      "త్యాది": 6308,
      "పుట్టు": 6309,
      "ప్రారంభమైంది": 6310,
      "డెను": 6311,
      "ప్రీమి": 6312,
      "46": 6313,
      "బాడీ": 6314,
      "సన్నిహి": 6315,
      "వ్యాసం": 6316,
      "మంత్రిత్వ": 6317,
      "జిల్లాకు": 6318,
      "నోటీసులు": 6319,
      "సరసన": 6320,
      "తెలంగాణా": 6321,
      "సిఫార్": 6322,
      "ఫిట్": 6323,
      "భృ": 6324,
      "విసి": 6325,
      "నుండు": 6326,
      "కవర్": 6327,
      "దర్శకు": 6328,
      "పడటం": 6329,
      "బెల్": 6330,
      "స్పై": 6331,
      "పనిలో": 6332,
      "రామారావు": 6333,
      "విషయాల": 6334,
      "బోతోంది": 6335,
      "బోతున్నారు": 6336,
      "షిక": 6337,
      "దారితీ": 6338,
      "పోవచ్చు": 6339,
      "మొట్ట": 6340,
      "వస్తువులు": 6341,
      "కమ్మ": 6342,
      "హ్మద్": 6343,
      "ప్రశాంత్": 6344,
      "ప్రపంచం": 6345,
      "సెంట్": 6346,
      "శౌ": 6347,
      "డెవల": 6348,
      "ఉంటూ": 6349,
      "సెంట్ర": 6350,
      "ేయ": 6351,
      "పేరిట": 6352,
      "ప్రకాశ": 6353,
      "సంప్రదా": 6354,
      "కొన్నా": 6355,
      "విషయంపై": 6356,
      "ఇవే": 6357,
      "యుని": 6358,
      "ఆకలి": 6359,
      "అమ్": 6360,
      "అప్పటికే": 6361,
      "్రం": 6362,
      "పెరుగుతున్న": 6363,
      "నాలుగో": 6364,
      "పరిహారం": 6365,
      "వెర్షన్": 6366,
      "సాక్ష": 6367,
      "పొందే": 6368,
      "ముక్కు": 6369,
      "కస్": 6370,
      "వ్యాపారు": 6371,
      "కిషన్": 6372,
      "నిరంతరం": 6373,
      "సంరక్షణ": 6374,
      "పునరా": 6375,
      "ఏమాత్రం": 6376,
      "రూపు": 6377,
      "వింగ్": 6378,
      "మరల": 6379,
      "జన్మి": 6380,
      "ఊపిరి": 6381,
      "ఘటనపై": 6382,
      "ఐక్య": 6383,
      "స్థాప": 6384,
      "49": 6385,
      "తెలంగాణకు": 6386,
      "డిపాజి": 6387,
      "చ్ఛి": 6388,
      "నందమూరి": 6389,
      "వేరియంట్": 6390,
      "లిస్ట్": 6391,
      "మెంట": 6392,
      "మలయా": 6393,
      "అంశాలపై": 6394,
      "యతి": 6395,
      "గరిష్ట": 6396,
      "బినెట్": 6397,
      "ఆలయం": 6398,
      "ఆశా": 6399,
      "అవుతున్నాయి": 6400,
      "నర్జీ": 6401,
      "సప్": 6402,
      "నియె": 6403,
      "నోటి": 6404,
      "వంతె": 6405,
      "బౌలర్": 6406,
      "వ్యాపి": 6407,
      "సున్ని": 6408,
      "టైన్": 6409,
      "కొట్టే": 6410,
      "ఫిల్మ్": 6411,
      "సన్నా": 6412,
      "ంటున్నాను": 6413,
      "వెళ్లా": 6414,
      "స్క్రి": 6415,
      "స్వేచ్ఛ": 6416,
      "దిగారు": 6417,
      "క్రెడిట్": 6418,
      "విభాగంలో": 6419,
      "దేశీయ": 6420,
      "కించి": 6421,
      "ప్రత్యేకమైన": 6422,
      "బీమా": 6423,
      "ఉద్యమం": 6424,
      "వ్రాయ": 6425,
      "భాగాలు": 6426,
      "కొన్నిసార్లు": 6427,
      "మల్లి": 6428,
      "పుట": 6429,
      "లభించింది": 6430,
      "నిశ్": 6431,
      "సౌకర్య": 6432,
      "లేడీ": 6433,
      "నిర్వహించే": 6434,
      "రాశారు": 6435,
      "ములగు": 6436,
      "సమస్త": 6437,
      "ఆస్పత్రికి": 6438,
      "విశ్వాసం": 6439,
      "డెలి": 6440,
      "క్కీ": 6441,
      "నిమిత్తం": 6442,
      "ప్పులు": 6443,
      "కలుగ": 6444,
      "సభా": 6445,
      "ంచుకోవడానికి": 6446,
      "టుగా": 6447,
      "ష్క": 6448,
      "చోటుచేసుకుంది": 6449,
      "వివరాల": 6450,
      "తగిలి": 6451,
      "ఛై": 6452,
      "గనుక": 6453,
      "ధ్యక్ష": 6454,
      "త్వాన్ని": 6455,
      "దేశాన్ని": 6456,
      "లెస్": 6457,
      "విడా": 6458,
      "నిర్మించారు": 6459,
      "ప్రతిపాది": 6460,
      "ఎండీ": 6461,
      "నుప": 6462,
      "పనిచేస్తున్న": 6463,
      "అద్దె": 6464,
      "కాయి": 6465,
      "ల్లర్": 6466,
      "త్సాహ": 6467,
      "భాగస్వామి": 6468,
      "నిలదీ": 6469,
      "నశి": 6470,
      "పిలుపునిచ్చారు": 6471,
      "విటీ": 6472,
      "ఫలాలు": 6473,
      "లిత": 6474,
      "శివా": 6475,
      "మరికొన్ని": 6476,
      "ంగ్లా": 6477,
      "మృదు": 6478,
      "ఇచ్చా": 6479,
      "యెడల": 6480,
      "అసోసియేషన్": 6481,
      "ఇచ్చ": 6482,
      "రకర": 6483,
      "ఫం": 6484,
      "అడ్డ": 6485,
      "ఐటి": 6486,
      "రేఖ": 6487,
      "దెబ్బతి": 6488,
      "ఉల్లం": 6489,
      "కార్లు": 6490,
      "ఏకైక": 6491,
      "మహిళలకు": 6492,
      "య్యింది": 6493,
      "యాని": 6494,
      "..\\": 6495,
      "కును": 6496,
      "తెరు": 6497,
      "దానీ": 6498,
      "తహ": 6499,
      "సంఘాల": 6500,
      "షింగ్": 6501,
      "సరదా": 6502,
      "ప్రతిపాదన": 6503,
      "ండ్ర": 6504,
      "కాపాడ": 6505,
      "ంచుకోవచ్చు": 6506,
      "నాశనం": 6507,
      "స్ను": 6508,
      "బృందా": 6509,
      "రాయ్": 6510,
      "అక్కడికి": 6511,
      "అనుమానం": 6512,
      "ధాన్ని": 6513,
      "వానిని": 6514,
      "చిహ్": 6515,
      "సాన్ని": 6516,
      "కెన్": 6517,
      "అంశాలను": 6518,
      "కనీస": 6519,
      "దిద్దు": 6520,
      "రక్ష": 6521,
      "పూల": 6522,
      "వడం": 6523,
      "కాకి": 6524,
      "నెటిజన్లు": 6525,
      "విజయాన్ని": 6526,
      "దుష్": 6527,
      "గలిగిన": 6528,
      "నక్షత్ర": 6529,
      "నాలో": 6530,
      "హింస": 6531,
      "దేవ్": 6532,
      "ంశ": 6533,
      "టికీ": 6534,
      "నాయకుల": 6535,
      "కుఁ": 6536,
      "ఫలం": 6537,
      "ధ్వని": 6538,
      "విభజి": 6539,
      "మేఘ": 6540,
      "నువ్": 6541,
      "ముక్": 6542,
      "సిగ్గు": 6543,
      "197": 6544,
      "వివాద": 6545,
      "స్నేహ": 6546,
      "విపక్ష": 6547,
      "యమ": 6548,
      "ఉనికి": 6549,
      "డ్రగ్స్": 6550,
      "!\\": 6551,
      "తీసుకుంటే": 6552,
      "లావా": 6553,
      "కథనం": 6554,
      "స్కి": 6555,
      "గోడు": 6556,
      "లిమిటెడ్": 6557,
      "సవాల్": 6558,
      "56": 6559,
      "నిజామాబాద్": 6560,
      "వైఖరి": 6561,
      "ఇస్తే": 6562,
      "జయంతి": 6563,
      "లేటెస్ట్": 6564,
      "సర్టిఫి": 6565,
      "యనగ": 6566,
      "ంచటానికి": 6567,
      "విషయానికి": 6568,
      "పిడి": 6569,
      "క్టరేట్": 6570,
      "సెంట్రల్": 6571,
      "ఆమ్": 6572,
      "నెలలు": 6573,
      "సైన్": 6574,
      "గదిలో": 6575,
      "బండ": 6576,
      "ఏంట": 6577,
      "హిక": 6578,
      "తావు": 6579,
      "డనే": 6580,
      "భారం": 6581,
      "ట్టా": 6582,
      "తప్పక": 6583,
      "ంద్రియ": 6584,
      "సినిమాని": 6585,
      "బ్రో": 6586,
      "వచ్చిందని": 6587,
      "రజనీ": 6588,
      "జరుగుతున్నాయి": 6589,
      "రాజకీయాలు": 6590,
      "యూనియన్": 6591,
      "భూమిని": 6592,
      "స్పృ": 6593,
      "వసు": 6594,
      "వరుణ్": 6595,
      "ప్లాట్": 6596,
      "డ్రో": 6597,
      "ఐదే": 6598,
      "రీతిలో": 6599,
      "ష్ఠి": 6600,
      "అప్లి": 6601,
      "లింక్": 6602,
      "ండిరి": 6603,
      "డివిజన్": 6604,
      "ఇంట్": 6605,
      "రును": 6606,
      "క్లీ": 6607,
      "సంధి": 6608,
      "కాఫీ": 6609,
      "సంస్కృత": 6610,
      "నుండ": 6611,
      "ఘట": 6612,
      "అత్యవసర": 6613,
      "ఆప్షన్": 6614,
      "పురి": 6615,
      "దారుణంగా": 6616,
      "సంచలనం": 6617,
      "ఉపరి": 6618,
      "గెను": 6619,
      "పండ్లు": 6620,
      "కూటమి": 6621,
      "ప్రతికూల": 6622,
      "ఆలస్య": 6623,
      "రాడు": 6624,
      "ఉన్నట్టు": 6625,
      "విద్యార్": 6626,
      "స్మ": 6627,
      "గురైన": 6628,
      "శ్వరి": 6629,
      "లాగే": 6630,
      "బెయిల్": 6631,
      "నవల": 6632,
      "బస": 6633,
      "ప్రతిష్టా": 6634,
      "ననే": 6635,
      "చక్కెర": 6636,
      "లెన్స్": 6637,
      "లార్": 6638,
      "సెకండ్": 6639,
      "పగ": 6640,
      "మహీ": 6641,
      "పోయిందని": 6642,
      "విభిన్న": 6643,
      "మంటూ": 6644,
      "వెయ్యి": 6645,
      "అయ్యాడు": 6646,
      "పన్న": 6647,
      "అధికారికంగా": 6648,
      "స్వాతంత్ర": 6649,
      "దేవరకొండ": 6650,
      "ఎక్కు": 6651,
      "జగన్నా": 6652,
      "పరో": 6653,
      "రావడానికి": 6654,
      "పథకాలు": 6655,
      "అబ్బాయి": 6656,
      "వచ్చ": 6657,
      "వ్యాధులు": 6658,
      "రాజస్థాన్": 6659,
      "వ్యవహ": 6660,
      "మినహాయి": 6661,
      "చుట": 6662,
      "సీరియస్": 6663,
      "ముఖా": 6664,
      "నేట్": 6665,
      "ంపల్లి": 6666,
      "ఇరవై": 6667,
      "ఉంచు": 6668,
      "రిన": 6669,
      "త్రీ": 6670,
      "సంబ": 6671,
      "వినిపిస్తున్నాయి": 6672,
      "మిర్": 6673,
      "కేశ": 6674,
      "స్తారో": 6675,
      "స్థాపి": 6676,
      "అవును": 6677,
      "షియా": 6678,
      "రెండి": 6679,
      "రూరల్": 6680,
      "రాముని": 6681,
      "ఆధార్": 6682,
      "సుదీర్ఘ": 6683,
      "సులభం": 6684,
      "మృత్యు": 6685,
      "శేఖర": 6686,
      "వెన్నె": 6687,
      "తాగి": 6688,
      "కాపీ": 6689,
      "అప్రమత్త": 6690,
      "ఛైర్మన్": 6691,
      "జీవో": 6692,
      "విధానాన్ని": 6693,
      "గుజరాత్లో": 6694,
      "తొలిసారి": 6695,
      "భరోసా": 6696,
      "పరమే": 6697,
      "58": 6698,
      "చెల్లింపు": 6699,
      "చూద్దాం": 6700,
      "శశి": 6701,
      "చెందారు": 6702,
      "మహాత్": 6703,
      "మలి": 6704,
      "టాటా": 6705,
      "జట్లు": 6706,
      "వెలుగులోకి": 6707,
      "ప్రత్యర్థ": 6708,
      "క్లబ్": 6709,
      "కలకలం": 6710,
      "సౌకర్యం": 6711,
      "శ్రీనివాసరావు": 6712,
      "ఆసుపత్రిలో": 6713,
      "సీతా": 6714,
      "చిన్నారి": 6715,
      "మెరి": 6716,
      "తలం": 6717,
      "బంధి": 6718,
      "గ్రాండ్": 6719,
      "పొడవు": 6720,
      "స్టింగ్": 6721,
      "స్వంత": 6722,
      "రూపొందించిన": 6723,
      "ఏను": 6724,
      "పుస్తకం": 6725,
      "వికా": 6726,
      "తెరకెక్కిన": 6727,
      "బంగ్లా": 6728,
      "ప్రకాష్": 6729,
      "కుంటున్నారు": 6730,
      "సీటు": 6731,
      "సమాజంలో": 6732,
      "ళితే": 6733,
      "చుండ": 6734,
      "తనపై": 6735,
      "తేలింది": 6736,
      "రేపి": 6737,
      "నీటిలో": 6738,
      "మైక్రో": 6739,
      "అందంగా": 6740,
      "రోజా": 6741,
      "పేర్కొన్న": 6742,
      "పుచ్చు": 6743,
      "కృతజ్ఞతలు": 6744,
      "షార్": 6745,
      "అతన్ని": 6746,
      "ఎవరికీ": 6747,
      "నెట్లో": 6748,
      "వకు": 6749,
      "అవుతుందని": 6750,
      "పర్వత": 6751,
      "విగా": 6752,
      "జెప్ప": 6753,
      "అప్లికేషన్": 6754,
      "ప్రతా": 6755,
      "మౌలిక": 6756,
      "పటే": 6757,
      "హోమ్": 6758,
      "షియం": 6759,
      "ఆకాశ": 6760,
      "ఇప్పు": 6761,
      "ఘటనలో": 6762,
      "బలోపే": 6763,
      "అసిస్టెంట్": 6764,
      "చనిపోయిన": 6765,
      "రీతి": 6766,
      "గోవి": 6767,
      "ఆసీ": 6768,
      "ఇదంతా": 6769,
      "లిప్": 6770,
      "అధిగ": 6771,
      "తమను": 6772,
      "మానే": 6773,
      "టౌన్": 6774,
      "జారి": 6775,
      "రాసి": 6776,
      "భోజన": 6777,
      "డార్": 6778,
      "పోతోంది": 6779,
      "గౌరవి": 6780,
      "వచి": 6781,
      "మాంసం": 6782,
      "ముగింపు": 6783,
      "జాయ్": 6784,
      "పార్క్": 6785,
      "విశ్రాంతి": 6786,
      "పత్రం": 6787,
      "చేశామని": 6788,
      "అమెరికన్": 6789,
      "పదో": 6790,
      "కీల": 6791,
      "మిలి": 6792,
      "డీజిల్": 6793,
      "నెల్": 6794,
      "విజయనగ": 6795,
      "ప్రొఫెసర్": 6796,
      "వాలో": 6797,
      "శిల్": 6798,
      "సంతృప్తి": 6799,
      "ఉద్యోగులకు": 6800,
      "పదార్థం": 6801,
      "పొలి": 6802,
      "చుకున్న": 6803,
      "మీటర్లు": 6804,
      "తన్": 6805,
      "నుడు": 6806,
      "ంత్య": 6807,
      "ప్రెసిడెంట్": 6808,
      "టాలు": 6809,
      "ందంటూ": 6810,
      "పరిపాలన": 6811,
      "ఎక్కి": 6812,
      "హయా": 6813,
      "నెమ్మ": 6814,
      "గడప": 6815,
      "్రావు": 6816,
      "ఒక్కరి": 6817,
      "ంటున్నాయి": 6818,
      "సమయానికి": 6819,
      "న్నాయని": 6820,
      "కానిస్టే": 6821,
      "కొనసాగుతోంది": 6822,
      "ఊహించని": 6823,
      "ఉపయోగం": 6824,
      "బెంగాల్": 6825,
      "దోహ": 6826,
      "ప్పటికి": 6827,
      "కంట్రోల్": 6828,
      "చీర": 6829,
      "నిస్": 6830,
      "రెస్ట": 6831,
      "ముల్": 6832,
      "వెంకటేష్": 6833,
      "ధ్రు": 6834,
      "పురుగు": 6835,
      "పరిమితం": 6836,
      "సమ్మె": 6837,
      "శ్రీలంక": 6838,
      "చున్నవి": 6839,
      "హీరోలు": 6840,
      "ఉన్నతాధి": 6841,
      "పిచ్చి": 6842,
      "మాయా": 6843,
      "లేవని": 6844,
      "పిల్లలను": 6845,
      "సెక్యూ": 6846,
      "జమ": 6847,
      "పర్యావరణ": 6848,
      "టేబుల్": 6849,
      "ఆదేశించింది": 6850,
      "400": 6851,
      "నెక్": 6852,
      "జ్ఞాప": 6853,
      "భాషల్లో": 6854,
      "గన": 6855,
      "ఎక్కడి": 6856,
      "ారంటే": 6857,
      "కార్మికుల": 6858,
      "ఉల్లి": 6859,
      "విగ్రహ": 6860,
      "జీపీ": 6861,
      "57": 6862,
      "కతా": 6863,
      "వాహనాలు": 6864,
      "బ్యూరో": 6865,
      "ధరించి": 6866,
      "అవుతున్న": 6867,
      "సేజ్": 6868,
      "ఇంజినీ": 6869,
      "నరి": 6870,
      "దేశము": 6871,
      "ధోనీ": 6872,
      "2015": 6873,
      "ఆనంద్": 6874,
      "రిజిస్ట్రేషన్": 6875,
      "మహో": 6876,
      "బిలి": 6877,
      "చెప్పుకొచ్చారు": 6878,
      "తరపున": 6879,
      "ప్రాంతానికి": 6880,
      "ప్రధానమంత్రి": 6881,
      "బీజేపీకి": 6882,
      "ఉష్ణోగ్రత": 6883,
      "సీజన్లో": 6884,
      "ఆర్మీ": 6885,
      "రెడ్డికి": 6886,
      "ంగో": 6887,
      "ఇంగ్ల": 6888,
      "నిమ": 6889,
      "బ్రహ్మా": 6890,
      "ఇకపై": 6891,
      "హరీష్": 6892,
      "ంతోనే": 6893,
      "వివాదా": 6894,
      "నాడ": 6895,
      "భక్తుల": 6896,
      "దృశ": 6897,
      "పరిమాణం": 6898,
      "రివ్యూ": 6899,
      "సినిమాలకు": 6900,
      "సమాజం": 6901,
      "యూరో": 6902,
      "చెందా": 6903,
      "రాజశేఖర్": 6904,
      "బాక్సాఫీ": 6905,
      "ఎలి": 6906,
      "బయటికి": 6907,
      "196": 6908,
      "జరిగితే": 6909,
      "మీరే": 6910,
      "ఆసక్తికరమైన": 6911,
      "న్నత": 6912,
      "గించి": 6913,
      "గెలుపు": 6914,
      "గుప్": 6915,
      "వ్యవస్థను": 6916,
      "సెక్ర": 6917,
      "సెను": 6918,
      "కొడ": 6919,
      "నాను": 6920,
      "తెలుసుకుందాం": 6921,
      "కోచ్": 6922,
      "తుపా": 6923,
      "రెస్టారె": 6924,
      "భూములు": 6925,
      "కొవ్వు": 6926,
      "సునీల్": 6927,
      "చెక్క": 6928,
      "మల్టీ": 6929,
      "ముందుగానే": 6930,
      "ట్విటర్": 6931,
      "స్వప్": 6932,
      "అతిథి": 6933,
      "చేయటం": 6934,
      "క్రియేట్": 6935,
      "నంబు": 6936,
      "ఆసుపత్రికి": 6937,
      "స్మృతి": 6938,
      "ములైన": 6939,
      "సమీపంలోని": 6940,
      "వారీగా": 6941,
      "టైం": 6942,
      "అఖిల్": 6943,
      "పూట": 6944,
      "ఆడియో": 6945,
      "శృంగార": 6946,
      "రాగా": 6947,
      "చేసినప్పుడు": 6948,
      "సమక్ష": 6949,
      "ఇన్నింగ్స్": 6950,
      "ఉత్తర్వులు": 6951,
      "అంకి": 6952,
      "డ్లు": 6953,
      "విజే": 6954,
      "ఘ్": 6955,
      "వరా": 6956,
      "ఎగ": 6957,
      "పడా": 6958,
      "పేలు": 6959,
      "టర్స్": 6960,
      "లోగా": 6961,
      "అనంతపురం": 6962,
      "ణుని": 6963,
      "అంశ": 6964,
      "తెలిపిన": 6965,
      "బ్రిటి": 6966,
      "ఇంధ": 6967,
      "గలవు": 6968,
      "క్యారెక్టర్": 6969,
      "కావు": 6970,
      "పడతారు": 6971,
      "సెక్యూరిటీ": 6972,
      "ధికంగా": 6973,
      "పీఠ": 6974,
      "వ్యక్తిని": 6975,
      "పరిస్థితిని": 6976,
      "అందించ": 6977,
      "టర్కీ": 6978,
      "ప్రేక్షకులకు": 6979,
      "రుద్ర": 6980,
      "దూసుకు": 6981,
      "వణ": 6982,
      "యన్న": 6983,
      "రాస": 6984,
      "మయ్యాయి": 6985,
      "సినిమాపై": 6986,
      "మిత్రు": 6987,
      "సంఘాలు": 6988,
      "వడి": 6989,
      "అడిగిన": 6990,
      "త్పత్తి": 6991,
      "బియ్యం": 6992,
      "పరికర": 6993,
      "తరగ": 6994,
      "అదేవిధంగా": 6995,
      "ఱ్ఱ": 6996,
      "భద్రా": 6997,
      "జులై": 6998,
      "నోరు": 6999,
      "బీచ్": 7000,
      "ఫార": 7001,
      "దగ్గరగా": 7002,
      "నెలల్లో": 7003,
      "అశోక్": 7004,
      "చేరారు": 7005,
      "వహించి": 7006,
      "గొట్టి": 7007,
      "41": 7008,
      "మాట్లాడి": 7009,
      "మణ": 7010,
      "రణ్య": 7011,
      "చ్ఛా": 7012,
      "ర్రీ": 7013,
      "నుంచీ": 7014,
      "మార్గంలో": 7015,
      "సభ్యులకు": 7016,
      "అమెజాన్": 7017,
      "పీసీసీ": 7018,
      "తెరపై": 7019,
      "పేరును": 7020,
      "ఉత్పత్తు": 7021,
      "పథకాల": 7022,
      "అంతర్గత": 7023,
      "ఛాన్స్": 7024,
      "సంస్కృతి": 7025,
      "చట": 7026,
      "సమావేశాలు": 7027,
      "సౌత్": 7028,
      "ఆసక్తికర": 7029,
      "అడుగుల": 7030,
      "ముచే": 7031,
      "ద్వీ": 7032,
      "థో": 7033,
      "ర్యం": 7034,
      "ఫోర్స్": 7035,
      "పంపు": 7036,
      "టోర్నీ": 7037,
      "కాపు": 7038,
      "భావో": 7039,
      "ఖరారు": 7040,
      "సంభాష": 7041,
      "ఆక్సిజన్": 7042,
      "గడువు": 7043,
      "నిం": 7044,
      "ప్రయోగి": 7045,
      "ఏరియా": 7046,
      "ప్రవీ": 7047,
      "మెదడు": 7048,
      "ఉత్సాహ": 7049,
      "నిర్ణయించింది": 7050,
      "పురాతన": 7051,
      "చేర్చ": 7052,
      "న్నియు": 7053,
      "కృతిక": 7054,
      "బ్బు": 7055,
      "ణాల్లో": 7056,
      "కెసిఆర్": 7057,
      "సిల్": 7058,
      "స్నానం": 7059,
      "మెల్ల": 7060,
      "అనుసంధా": 7061,
      "తెలిపాడు": 7062,
      "చౌదరి": 7063,
      "ప్రథమ": 7064,
      "తెలుసుకున్న": 7065,
      "డారు": 7066,
      "సపోర్ట్": 7067,
      "కమల్": 7068,
      "చేస్తున్నాను": 7069,
      "హాసన్": 7070,
      "ులతో": 7071,
      "స్పీడ్": 7072,
      "అల్లా": 7073,
      "వెబ్సైట్": 7074,
      "విచారణకు": 7075,
      "వెళితే": 7076,
      "నిత్యా": 7077,
      "ంచేది": 7078,
      "బ్లూ": 7079,
      "నిరోధి": 7080,
      "వచ్చినప్పుడు": 7081,
      "గూడెం": 7082,
      "మతం": 7083,
      "సవరణ": 7084,
      "సుధీ": 7085,
      "శుభ్రం": 7086,
      "చున్నారు": 7087,
      "సాంప్ర": 7088,
      "ప్రముఖులు": 7089,
      "ఆమోదం": 7090,
      "ప్లీ": 7091,
      "డెలివరీ": 7092,
      "మండలా": 7093,
      "అడగ": 7094,
      "నాలుగే": 7095,
      "సైన్స్": 7096,
      "ఇవ్": 7097,
      "రీసెర్చ్": 7098,
      "వారంలో": 7099,
      "రానా": 7100,
      "మాటల": 7101,
      "చంద్": 7102,
      "చెత్త": 7103,
      "చేయడంలో": 7104,
      "శిబి": 7105,
      "హల్": 7106,
      "మాల్": 7107,
      "ంచేవారు": 7108,
      "లేన": 7109,
      "అడిగా": 7110,
      "ఆయిల్": 7111,
      "ఉంటాయని": 7112,
      "అందరినీ": 7113,
      "సందర్శ": 7114,
      "స్రా": 7115,
      "అరవింద్": 7116,
      "వినియోగదారులు": 7117,
      "ప్రజల్లో": 7118,
      "రాయలసీమ": 7119,
      "త్సా": 7120,
      "అధికారులతో": 7121,
      "దాడికి": 7122,
      "రొమా": 7123,
      "మీర": 7124,
      "హోట": 7125,
      "ఆలయంలో": 7126,
      "ట్లలో": 7127,
      "ంటింగ్": 7128,
      "ంచం": 7129,
      "సాగే": 7130,
      "టీన్": 7131,
      "రాగ": 7132,
      "ఎలక్ట్రా": 7133,
      "ఎకరాల": 7134,
      "గెలిచిన": 7135,
      "ంచాం": 7136,
      "వ్యక్తుల": 7137,
      "పేస్": 7138,
      "ఎస్బీఐ": 7139,
      "నైట్": 7140,
      "చము": 7141,
      "సంస్కరణ": 7142,
      "అసహ": 7143,
      "సుందర": 7144,
      "తరి": 7145,
      "నాయకత్వం": 7146,
      "చిన్నారు": 7147,
      "వీని": 7148,
      "రోగి": 7149,
      "ఇంగ్లాండ్": 7150,
      "సాంస్": 7151,
      "విలన్": 7152,
      "టిస్": 7153,
      "అజయ్": 7154,
      "చారిత్ర": 7155,
      "ముఁ": 7156,
      ".'": 7157,
      "చేస్తానని": 7158,
      "సేన్": 7159,
      "52": 7160,
      "ప్రకటనలో": 7161,
      "కావాల్సిన": 7162,
      "నిమిషాలు": 7163,
      "సామాన్": 7164,
      "నెలకు": 7165,
      "రచ్చ": 7166,
      "సార్వ": 7167,
      "చెబుతూ": 7168,
      "శాతానికి": 7169,
      "ప్రవా": 7170,
      "డబ్ల్యూ": 7171,
      "తక": 7172,
      "రవీంద్ర": 7173,
      "ముక్కలు": 7174,
      "దీనితో": 7175,
      "చిత్తూరు": 7176,
      "ఫ్యాక్టరీ": 7177,
      "ముకు": 7178,
      "సిఫార్సు": 7179,
      "అదానీ": 7180,
      "తథా": 7181,
      "అద్భుత": 7182,
      "ప్రాచీన": 7183,
      "ఎవ్": 7184,
      "బన్నీ": 7185,
      "మయ్యారు": 7186,
      "తొందర": 7187,
      "జమ్": 7188,
      "మిశ్ర": 7189,
      "శిఖ": 7190,
      "తినే": 7191,
      "ప్రయోగ": 7192,
      "చుండెను": 7193,
      "ఏటా": 7194,
      "ఉద్యోగు": 7195,
      "సోనియా": 7196,
      "ఫార్మా": 7197,
      "నైపుణ": 7198,
      "లేం": 7199,
      "కళ్ళ": 7200,
      "హాల్": 7201,
      "ందురు": 7202,
      "స్టార్ట్": 7203,
      "పటేల్": 7204,
      "తినడం": 7205,
      "నిజమే": 7206,
      "సిగ్": 7207,
      "కూర్చో": 7208,
      "మేజ్": 7209,
      "చేరుకున్న": 7210,
      "క్టు": 7211,
      "టీం": 7212,
      "సిఎం": 7213,
      "ధ్వ": 7214,
      "అప్పుడ": 7215,
      "చూశా": 7216,
      "సర్వీస్": 7217,
      ",\"": 7218,
      "కపోవడంతో": 7219,
      "తానని": 7220,
      "బాధితు": 7221,
      "పట్టుకుని": 7222,
      "ంచినట్టు": 7223,
      "సీసీఐ": 7224,
      "బాహ్య": 7225,
      "ట్రాక్": 7226,
      "పొగ": 7227,
      "చెప్పవచ్చు": 7228,
      "గజ": 7229,
      "చేరుకున్నారు": 7230,
      "వసంత": 7231,
      "తత్వ": 7232,
      "స్తున్నాము": 7233,
      "క్రికెటర్": 7234,
      "కోపం": 7235,
      "ఉద్రి": 7236,
      "పట": 7237,
      "లండ": 7238,
      "శతాబ్ద": 7239,
      "ఇన్స్టాగ్రామ్": 7240,
      "జీర్ణ": 7241,
      "పోతారు": 7242,
      "చిట్": 7243,
      "నెట్వర్క్": 7244,
      "యట్": 7245,
      "శ్రీకాంత్": 7246,
      "సహకారం": 7247,
      "ప్లాస్టిక్": 7248,
      "ప్రమోషన్": 7249,
      "ఫైనా": 7250,
      "ంటాం": 7251,
      "నయన": 7252,
      "అడుగులు": 7253,
      "రత్న": 7254,
      "వాహనాల": 7255,
      "రాధా": 7256,
      "జైన": 7257,
      "కోట్లతో": 7258,
      "కశ్మీర్": 7259,
      "చేసిందని": 7260,
      "కళ్యా": 7261,
      "ధైర్యం": 7262,
      "ంచుకొ": 7263,
      "శాస్త్రం": 7264,
      "మొత్తాన్ని": 7265,
      "ార్థం": 7266,
      "ాలీ": 7267,
      "యనే": 7268,
      "భారత్లో": 7269,
      "స్థానాల్లో": 7270,
      "పరిణామ": 7271,
      "తిరగ": 7272,
      "ఉండేలా": 7273,
      "ప్రొడక్షన్": 7274,
      "ఊరు": 7275,
      "స్పోర్": 7276,
      "రేటర్": 7277,
      "తీశారు": 7278,
      "నటులు": 7279,
      "ముప్పు": 7280,
      "ద్కర్": 7281,
      "ఈటల": 7282,
      "చేయాల్సిన": 7283,
      "నిషేధి": 7284,
      "అవకాశము": 7285,
      "వీడియోను": 7286,
      "నీయంగా": 7287,
      "మటి": 7288,
      "ప్రవర్తన": 7289,
      "సవరి": 7290,
      "పరికరాలు": 7291,
      "జాయి": 7292,
      "భామ": 7293,
      "మత్తు": 7294,
      "వైష్ణ": 7295,
      "ఎంజాయ్": 7296,
      "మారాయి": 7297,
      "గాయాల": 7298,
      "బృహ": 7299,
      "నిర్ణయించారు": 7300,
      "సల్మాన్": 7301,
      "ధ్వం": 7302,
      "క్షమా": 7303,
      "గడుపు": 7304,
      "వీరిలో": 7305,
      "రాష్ట్రాలు": 7306,
      "వేంద్ర": 7307,
      "మేళ": 7308,
      "ఆస్పత్రిలో": 7309,
      "ంచుచున్న": 7310,
      "జేషన్": 7311,
      "సాధించి": 7312,
      "వేయాలని": 7313,
      "ప్రియాంక": 7314,
      "కమర్": 7315,
      "మత్స్య": 7316,
      "విజ్ఞాన": 7317,
      "హీరోయిన్గా": 7318,
      "ఊరి": 7319,
      "అధికారంలో": 7320,
      "థ్రి": 7321,
      "సరిపో": 7322,
      "కష్టాలు": 7323,
      "విధులు": 7324,
      "రాన్": 7325,
      "కలిగే": 7326,
      "నడుపు": 7327,
      "ఫౌ": 7328,
      "త్తిన": 7329,
      "ఏఐ": 7330,
      "నూరు": 7331,
      "యులకు": 7332,
      "ఉత్తరప్రదేశ్": 7333,
      "బాలా": 7334,
      "అనుచ": 7335,
      "తరుణంలో": 7336,
      "తోన్న": 7337,
      "బేస్": 7338,
      "డ్రెస్": 7339,
      "బిలియన్": 7340,
      "ఉందో": 7341,
      "వాఁ": 7342,
      "కార్పొరేట్": 7343,
      "కునేందుకు": 7344,
      "లౌ": 7345,
      "హాస్పిటల్": 7346,
      "ఆలస్యం": 7347,
      "జగన్మోహన్": 7348,
      "కథను": 7349,
      "పోలవరం": 7350,
      "స్నేహితులు": 7351,
      "ంచినప్పుడు": 7352,
      "కొట్టిన": 7353,
      "తాత": 7354,
      "నిర్వహించి": 7355,
      "సైనిక": 7356,
      "ఖాతాలో": 7357,
      "రూపాయి": 7358,
      "వారె": 7359,
      "చక్రవర్తి": 7360,
      "కారులో": 7361,
      "ఇంగ్లండ్": 7362,
      "పైనా": 7363,
      "ఫైల్": 7364,
      "పెన్షన్": 7365,
      "మెప్పి": 7366,
      "పొందింది": 7367,
      "వీడియోలు": 7368,
      "కొద్దీ": 7369,
      "పరిస్థితుల": 7370,
      "మ్మని": 7371,
      "పడుతుందని": 7372,
      "మేధ": 7373,
      "బడును": 7374,
      "ఉద్యోగి": 7375,
      "ఆర్సీ": 7376,
      "పొడిగి": 7377,
      "రకరకాల": 7378,
      "గ్రాముల": 7379,
      "గాలని": 7380,
      "అనుబంధ": 7381,
      "అహం": 7382,
      "ప్లేయర్": 7383,
      "టాపిక్": 7384,
      "అరుదైన": 7385,
      "వేగం": 7386,
      "యండి": 7387,
      "పడకుండా": 7388,
      "దూసు": 7389,
      "రెగ్యులర్": 7390,
      "చేస్తుందని": 7391,
      "చేరుకుంది": 7392,
      "పౌరు": 7393,
      "డఁ": 7394,
      "కిన": 7395,
      "డివి": 7396,
      "విశిష్ట": 7397,
      "సందర్భాల్లో": 7398,
      "బస్టర్": 7399,
      "వున్నాయి": 7400,
      "టీటీడీ": 7401,
      "కనిపించడం": 7402,
      "గౌతమ్": 7403,
      "పురో": 7404,
      "గంధ": 7405,
      "థర్": 7406,
      "విత్త": 7407,
      "ఆనందంగా": 7408,
      "రాత్ర": 7409,
      "స్వాగతం": 7410,
      "మవుతోంది": 7411,
      "మొత్తంగా": 7412,
      "ప్రశ్నకు": 7413,
      "వైట్": 7414,
      "స్తాయని": 7415,
      "టిక్కె": 7416,
      "న్యూఢిల్లీః": 7417,
      "సలి": 7418,
      "ంపియన్": 7419,
      "దుస్తులు": 7420,
      "చేయబడిన": 7421,
      "చుకొని": 7422,
      "వేటు": 7423,
      "ఆదాయ": 7424,
      "నిర్వహిస్తున్న": 7425,
      "దృఢ": 7426,
      "భాషలో": 7427,
      "యమైన": 7428,
      "నకిలీ": 7429,
      "నితిన్": 7430,
      "శ్రీకాకు": 7431,
      "ప్రాంతాలకు": 7432,
      "చుక్క": 7433,
      "తేడాతో": 7434,
      "చూడా": 7435,
      "నెలా": 7436,
      "మహర్షి": 7437,
      "కట": 7438,
      "ైంది": 7439,
      "ప్రతిబి": 7440,
      "బాక్స్": 7441,
      "రాలుగా": 7442,
      "కుమారి": 7443,
      "పత్రాలు": 7444,
      "షర్మిల": 7445,
      "పూర్వకంగా": 7446,
      "దేని": 7447,
      "కోరుతూ": 7448,
      "సలా": 7449,
      "ఉండడంతో": 7450,
      "ఎడమ": 7451,
      "ఉత్స": 7452,
      "చీకటి": 7453,
      "కంద": 7454,
      "స్థానాన్ని": 7455,
      "ంకా": 7456,
      "టప్": 7457,
      "చర్మ": 7458,
      "నాన": 7459,
      "పెట్టుకొని": 7460,
      "న్నాం": 7461,
      "ఏల": 7462,
      "ఇంటె": 7463,
      "రాజ్యసభ": 7464,
      "తేనె": 7465,
      "లిష్": 7466,
      "షూట్": 7467,
      "బలా": 7468,
      "వాల్సిందే": 7469,
      "పొందడానికి": 7470,
      "పద్ధతిలో": 7471,
      "పచ్చి": 7472,
      "రాచ": 7473,
      "రాజ్యం": 7474,
      "ంట్ల": 7475,
      "లోతు": 7476,
      "ఉంటున్న": 7477,
      "కేంద్రానికి": 7478,
      "పాపం": 7479,
      "నటీ": 7480,
      "తప్పనిసరి": 7481,
      "కుంటారు": 7482,
      "వ్రాసిన": 7483,
      "టీకా": 7484,
      "లేమి": 7485,
      "స్పష్టమైన": 7486,
      "అందిస్తున్నారు": 7487,
      "ఓకే": 7488,
      "జపా": 7489,
      "ంటాను": 7490,
      "సంభాషణ": 7491,
      "మునిసి": 7492,
      "వారంతా": 7493,
      "59": 7494,
      "నటించింది": 7495,
      "కామెంట్లు": 7496,
      "క్లాస్": 7497,
      "ద్రు": 7498,
      "ప్రారంభించింది": 7499,
      "ఘనత": 7500,
      "మున్సిపాలిటీ": 7501,
      "దిగ్": 7502,
      "అంబేద్కర్": 7503,
      "న్యాయమూర్తి": 7504,
      "మ్మట": 7505,
      "మావో": 7506,
      "న్ల": 7507,
      "శాశ్వత": 7508,
      "దంపతులు": 7509,
      "దృష్టం": 7510,
      "క్రొత్త": 7511,
      "స్తున్నారా": 7512,
      "ప్రకార": 7513,
      "ఉపసం": 7514,
      "బ్బరి": 7515,
      "వంతెన": 7516,
      "అడ్డం": 7517,
      "వర్షా": 7518,
      "ఇండియాలో": 7519,
      "టిని": 7520,
      "సాగింది": 7521,
      "షణ్": 7522,
      "చేతను": 7523,
      "మద్రా": 7524,
      "లర్లు": 7525,
      "ఘర్షణ": 7526,
      "వేవ్": 7527,
      "అక్కి": 7528,
      "స్త్రీలు": 7529,
      "ఇయర్": 7530,
      "సర్దు": 7531,
      "నిర్దేశి": 7532,
      "ఊర": 7533,
      "కలుగుతుంది": 7534,
      "పర్యాటక": 7535,
      "వేస్తున్నారు": 7536,
      "భావించి": 7537,
      "ఉపశ": 7538,
      "అలె": 7539,
      "బీసీసీఐ": 7540,
      "కారణాల": 7541,
      "కలగ": 7542,
      "డ్రైవ్": 7543,
      "సాంస్కృతిక": 7544,
      "చేసుకుంటూ": 7545,
      "పరమాత్మ": 7546,
      "ఇట": 7547,
      "అయిదు": 7548,
      "కళ్ళు": 7549,
      "క్రీడలు": 7550,
      "పూర్వక": 7551,
      "కాగి": 7552,
      "ఆరోగ్యానికి": 7553,
      "కాకపోతే": 7554,
      "కొలు": 7555,
      "కలదు": 7556,
      "ఆదిత్య": 7557,
      "స్త్": 7558,
      "ఎకరా": 7559,
      "శిష్య": 7560,
      "ఉడికి": 7561,
      "అదృష్ట": 7562,
      "సౌందర్య": 7563,
      "మాధ్య": 7564,
      "రెంట్": 7565,
      "పాక": 7566,
      "కాలుగా": 7567,
      "గమ": 7568,
      "దగ్గు": 7569,
      "విధమైన": 7570,
      "ప్రాంతీయ": 7571,
      "గోళ": 7572,
      "మఱియు": 7573,
      "పెట్టాలని": 7574,
      "బలోపేతం": 7575,
      "ఎప్పుడ": 7576,
      "ఆర": 7577,
      "లాభాలు": 7578,
      "శోభ": 7579,
      "లారీ": 7580,
      "దన్": 7581,
      "నాతో": 7582,
      "విలీ": 7583,
      "ప్రత్యు": 7584,
      "ౌట్": 7585,
      "బృంద": 7586,
      "కార్యాచరణ": 7587,
      "విశాల": 7588,
      "అసంతృప్తి": 7589,
      "పార్ట్మెంట్": 7590,
      "సరస్వ": 7591,
      "పెరిగే": 7592,
      "స్టీల్": 7593,
      "నగరంలోని": 7594,
      "బదులుగా": 7595,
      "జరుగ": 7596,
      "పురుషులు": 7597,
      "మునుగోడు": 7598,
      "అనిపిస్తుంది": 7599,
      "ధోరణి": 7600,
      "జర్స్": 7601,
      "కొబ్బరి": 7602,
      "సింగిల్": 7603,
      "చేయుట": 7604,
      "పడుతోంది": 7605,
      "రీలు": 7606,
      "ఒకేసారి": 7607,
      "లోన్": 7608,
      "డాడు": 7609,
      "నవీన్": 7610,
      "తోడ్": 7611,
      "కిలోల": 7612,
      "ప్రయాణ": 7613,
      "యువకులు": 7614,
      "ఆలోచనలు": 7615,
      "తప్పదు": 7616,
      "గింజ": 7617,
      "కుదు": 7618,
      "నిలిచిన": 7619,
      "శ్రుతి": 7620,
      "కాజల్": 7621,
      "ముహ": 7622,
      "మీది": 7623,
      "గొని": 7624,
      "కోడి": 7625,
      "బదులు": 7626,
      "ఉరి": 7627,
      "న్యాయవాది": 7628,
      "నిలబడి": 7629,
      "భాస్కర్": 7630,
      "పరిశ్ర": 7631,
      "ప్రసిద్ధి": 7632,
      "అనసూయ": 7633,
      "ైతే": 7634,
      "డీఎం": 7635,
      "మహేంద్ర": 7636,
      "హక్కుల": 7637,
      "దూకుడు": 7638,
      "వెన్": 7639,
      "ప్రాతిని": 7640,
      "క్రేజీ": 7641,
      "చేయగల": 7642,
      "గవ": 7643,
      "టచ్": 7644,
      "పెంచి": 7645,
      "గుట": 7646,
      "శ్రీను": 7647,
      "తెలియజేశారు": 7648,
      "కొనుట": 7649,
      "నటిస్తున్నారు": 7650,
      "చదవండిః": 7651,
      "పొందుతున్న": 7652,
      "చ్య": 7653,
      "ప్రదర్శ": 7654,
      "వృత్తా": 7655,
      "గోపీ": 7656,
      "పనిచేస్తుంది": 7657,
      "51": 7658,
      "మర్స్": 7659,
      "రెండూ": 7660,
      "ేశ్వర": 7661,
      "కమర్షియల్": 7662,
      "కులతో": 7663,
      "కుంట": 7664,
      "ప్రాధాన్యం": 7665,
      "అంతగా": 7666,
      "పరిశీలన": 7667,
      "ఫలితాలను": 7668,
      "పద్ద": 7669,
      "కూర్చుని": 7670,
      "తీర్చు": 7671,
      "అధ్యక్షా": 7672,
      "గర్భి": 7673,
      "ఆండ": 7674,
      "మహబూబ్": 7675,
      "చిత్రీకరి": 7676,
      "సంకల్ప": 7677,
      "ల్తా": 7678,
      "54": 7679,
      "గ్రహించి": 7680,
      "విశ": 7681,
      "వ్యవసాయం": 7682,
      "క్రమణ": 7683,
      "వేర్వేరు": 7684,
      "లిన్": 7685,
      "జపాన్": 7686,
      "శాల్లో": 7687,
      "దీయ": 7688,
      "మధ్యప్రదేశ్": 7689,
      "మధుర": 7690,
      "కీలకమైన": 7691,
      "శరణ": 7692,
      "రాజేంద్ర": 7693,
      "మసీ": 7694,
      "ప్రాణా": 7695,
      "ఓపెనర్": 7696,
      "పరస్పర": 7697,
      "మంగా": 7698,
      "సరు": 7699,
      "ంచినది": 7700,
      "ఉంటాడు": 7701,
      "అనవసర": 7702,
      "ఇంటర్వ్యూలో": 7703,
      "సదస్సు": 7704,
      "పుత్రు": 7705,
      "అంబా": 7706,
      "గ్లోబల్": 7707,
      "రామాయణ": 7708,
      "నీయాం": 7709,
      "పెం": 7710,
      "దానితో": 7711,
      "ఏమిటో": 7712,
      "సౌకర్యాలు": 7713,
      "ధాన": 7714,
      "దాల్": 7715,
      "ములఁ": 7716,
      "పప్పు": 7717,
      "ప్రత్యామ్నాయ": 7718,
      "మారుతి": 7719,
      "ఆర్ఆర్ఆర్": 7720,
      "తుందన్నారు": 7721,
      "పరిషత్": 7722,
      "సమానంగా": 7723,
      "క్కే": 7724,
      "ప్రాసె": 7725,
      "అర్హు": 7726,
      "గాజు": 7727,
      "కానుక": 7728,
      "సానుకూల": 7729,
      "ఫంక్షన్": 7730,
      "బ్రిడ్": 7731,
      "చూస్తుంటే": 7732,
      "గ్లామర్": 7733,
      "పాల్గొని": 7734,
      "ఆర్డి": 7735,
      "కానిస్టేబుల్": 7736,
      "సిద్ది": 7737,
      "కైట్": 7738,
      "కాలువ": 7739,
      "ఉండా": 7740,
      "రిని": 7741,
      "శయ": 7742,
      "ంటున్నారని": 7743,
      "సుంద": 7744,
      "విడత": 7745,
      "మినీ": 7746,
      "నిర్మిస్తున్నారు": 7747,
      "క్రిమి": 7748,
      "గంటల్లో": 7749,
      "తురు": 7750,
      "స్టోర్": 7751,
      "చూడవచ్చు": 7752,
      "న్యూజి": 7753,
      "కర్ర": 7754,
      "రోజువారీ": 7755,
      "ఏవ": 7756,
      "కాదా": 7757,
      "ర్రె": 7758,
      "ద్వితీయ": 7759,
      "ంజనే": 7760,
      "బుల్లి": 7761,
      "తనదైన": 7762,
      "త్యాల": 7763,
      "స్తాము": 7764,
      "ైన్": 7765,
      "ప్రారంభమైన": 7766,
      "బహుమతి": 7767,
      "కలర్": 7768,
      "దనం": 7769,
      "విస్తరణ": 7770,
      "లీక్": 7771,
      "పుస్తకాలు": 7772,
      "పనుల": 7773,
      "బాక్సాఫీస్": 7774,
      "సాన్": 7775,
      "అన్యాయం": 7776,
      "కుర్చీ": 7777,
      "సుధీర్": 7778,
      "వ్యూహ": 7779,
      "అవా": 7780,
      "హైదరాబాదు": 7781,
      "ధారణ": 7782,
      "సినిమాలతో": 7783,
      "పాత్రను": 7784,
      "పేదలకు": 7785,
      "చంద్రశేఖర్": 7786,
      "అంగు": 7787,
      "భారతదేశం": 7788,
      "తువు": 7789,
      "ప్యాకేజీ": 7790,
      "ముంబయి": 7791,
      "ప్రకాశం": 7792,
      "చూసింది": 7793,
      "పొందుతారు": 7794,
      "సుగు": 7795,
      "అదిరి": 7796,
      "లలోని": 7797,
      "ములుగా": 7798,
      "పాఠశాలలో": 7799,
      "స్తున్నట్టు": 7800,
      "వతీ": 7801,
      "వ్యర్థ": 7802,
      "స్థూ": 7803,
      "సందేహం": 7804,
      "భవతి": 7805,
      "అగర్": 7806,
      "స్టేషన్లో": 7807,
      "వ్యాయామం": 7808,
      "పెరుగుదల": 7809,
      "చూడాలని": 7810,
      "హయాంలో": 7811,
      "సమక్షంలో": 7812,
      "మోతా": 7813,
      "ఉపయోగించవచ్చు": 7814,
      "ఇందుకోసం": 7815,
      "బిహార్": 7816,
      "ప్రశంసి": 7817,
      "విరి": 7818,
      "అభిమానుల": 7819,
      "బట్టలు": 7820,
      "స్వాతంత్య": 7821,
      "టిగా": 7822,
      "ఎము": 7823,
      "శిర": 7824,
      "బహుళ": 7825,
      "బీర్": 7826,
      "ప్రాతి": 7827,
      "ృం": 7828,
      "ణికి": 7829,
      "అనుమతిస్తుంది": 7830,
      "ప్రశంసలు": 7831,
      "మరే": 7832,
      "మలా": 7833,
      "నమోదై": 7834,
      "బెడ్": 7835,
      "గురై": 7836,
      "దీపా": 7837,
      "చేయబడింది": 7838,
      "మరికొందరు": 7839,
      "ఇంజనీరింగ్": 7840,
      "ప్రసంగి": 7841,
      "సైకిల్": 7842,
      "రక్తం": 7843,
      "జెప్పి": 7844,
      "అథ": 7845,
      "ఎఫె": 7846,
      "కన్య": 7847,
      "ంటున్నాడు": 7848,
      "తెరకెక్కుతున్న": 7849,
      "బంధువులు": 7850,
      "ప్రసారం": 7851,
      "లోన": 7852,
      "జ్మెంట్": 7853,
      "వైభవ": 7854,
      "హాన్": 7855,
      "ందుకే": 7856,
      "రష్మిక": 7857,
      "ఉద్రిక్త": 7858,
      "శస్త్ర": 7859,
      "రంగారెడ్డి": 7860,
      "వ్యక్త": 7861,
      "డెవలప్": 7862,
      "నడవ": 7863,
      "సైబర్": 7864,
      "రాజేందర్": 7865,
      "పెట్టుకున్న": 7866,
      "ప్షన్": 7867,
      "ఖండ్": 7868,
      "ప్లె": 7869,
      "తంబు": 7870,
      "గ్రామాల": 7871,
      "మునకుఁ": 7872,
      "ప్రవహి": 7873,
      "వీలైన": 7874,
      "కేంద్రంలోని": 7875,
      "మస": 7876,
      "మంత్రిగా": 7877,
      "టిక్స్": 7878,
      "పొందారు": 7879,
      "ఓట్ల": 7880,
      "చెప్పాలని": 7881,
      "చుఁ": 7882,
      "ఉంచి": 7883,
      "నరేష్": 7884,
      "నీల": 7885,
      "బర్త్": 7886,
      "టూరి": 7887,
      "చెరు": 7888,
      "చైర్": 7889,
      "విరుచుకు": 7890,
      "అక్కినేని": 7891,
      "మోడ": 7892,
      "డాలర్": 7893,
      "బ్యాంకులు": 7894,
      "సెన్సార్": 7895,
      "64": 7896,
      "షాపు": 7897,
      "ల్దార్": 7898,
      "సిసి": 7899,
      "గెలిచి": 7900,
      "ఏజెన్సీ": 7901,
      "చర్చనీయాం": 7902,
      "పెర్": 7903,
      "అణ": 7904,
      "వివేకా": 7905,
      "డ్లో": 7906,
      "కారుల": 7907,
      "అనా": 7908,
      "తెల్లవారు": 7909,
      "అసెంబ్లీలో": 7910,
      "ఓవర్లలో": 7911,
      "బ్రిటన్": 7912,
      "కొరత": 7913,
      "బీఎస్": 7914,
      "ఇస్లా": 7915,
      "అనుమానాలు": 7916,
      "దశాబ్": 7917,
      "సప్త": 7918,
      "పంటలు": 7919,
      "కలెక్షన్": 7920,
      "క్రమం": 7921,
      "2013": 7922,
      "గోల్డ్": 7923,
      "పరిసర": 7924,
      "తేల్చి": 7925,
      "మోహన్రెడ్డి": 7926,
      "గ్రంధ": 7927,
      "చిత్రాల్లో": 7928,
      "కార్యక్రమాలను": 7929,
      "నిర్లక్ష్యం": 7930,
      "సుడు": 7931,
      "లీగ్": 7932,
      "మట": 7933,
      "మార్చు": 7934,
      "చక్కని": 7935,
      "తిప్ప": 7936,
      "మెయిల్": 7937,
      "53": 7938,
      "నికీ": 7939,
      "కేబినెట్": 7940,
      "సత్యం": 7941,
      "ద్దీన్": 7942,
      "అచ్చ": 7943,
      "విచార": 7944,
      "వారాల": 7945,
      "యోగ్య": 7946,
      "అఖిల": 7947,
      "టైనర్": 7948,
      "ష్ర": 7949,
      "సీక్": 7950,
      "న్యూజిలాండ్": 7951,
      "మాసం": 7952,
      "పాలనలో": 7953,
      "కనుగొన": 7954,
      "నిర్వహిస్తారు": 7955,
      "వాలా": 7956,
      "బాని": 7957,
      "సంవత్సరానికి": 7958,
      "యిక": 7959,
      "టన్నుల": 7960,
      "మెజ": 7961,
      "కుటుంబాలకు": 7962,
      "ధ్వజ": 7963,
      "రానుంది": 7964,
      "తలను": 7965,
      "కూల్": 7966,
      "నీర": 7967,
      "మయి": 7968,
      "వదులు": 7969,
      "అనుమాన": 7970,
      "అతిథ": 7971,
      "వము": 7972,
      "బలు": 7973,
      "ంచాలనే": 7974,
      "మామిడి": 7975,
      "రిటైర్": 7976,
      "పోగా": 7977,
      "పోతున్నాయి": 7978,
      "పదవీ": 7979,
      "డయా": 7980,
      "వేష": 7981,
      "జీవితా": 7982,
      "రోజే": 7983,
      "ఆన్లైన్లో": 7984,
      "స్తున్నాయని": 7985,
      "దీపి": 7986,
      "తలకు": 7987,
      "చారిత్రక": 7988,
      "ప్రభాకర్": 7989,
      "ఎత్త": 7990,
      "ుడి": 7991,
      "క్రీడ": 7992,
      "జనాలు": 7993,
      "హీరోల": 7994,
      "ఎంటర్టైన్": 7995,
      "డ్యాన్స్": 7996,
      "న్నం": 7997,
      "శిశువు": 7998,
      "దీనివల్ల": 7999,
      "వాదు": 8000,
      "విశ్లేష": 8001,
      "అఫ్": 8002,
      "చేర్చు": 8003,
      "అభినందనలు": 8004,
      "గరు": 8005,
      "చెల్లె": 8006,
      "సుకుమార్": 8007,
      "ఫాస్ట్": 8008,
      "ట్లకు": 8009,
      "ప్రపంచకప్": 8010,
      "సత్యా": 8011,
      "ఇంది": 8012,
      "కధ": 8013,
      "అవుతున్నారు": 8014,
      "మండలంలో": 8015,
      "కోల్పోయిన": 8016,
      "ఎన్ను": 8017,
      "ంచాలన్నారు": 8018,
      "గతంగా": 8019,
      "లోపం": 8020,
      "ఇంక": 8021,
      "పిక్స్": 8022,
      "సాధించారు": 8023,
      "టిన్": 8024,
      "ంచలేదని": 8025,
      "బ్రేకింగ్": 8026,
      "నివాళ": 8027,
      "ఒంటరిగా": 8028,
      "తఁ": 8029,
      "పిలుస్తారు": 8030,
      "వరే": 8031,
      "ఆర్థికంగా": 8032,
      "హ్ర": 8033,
      "పర్సన్": 8034,
      "చును": 8035,
      "66": 8036,
      "జరుగుతుందని": 8037,
      "టీస్": 8038,
      "గీతా": 8039,
      "యూర": 8040,
      "మరిచి": 8041,
      "మెజారిటీ": 8042,
      "ప్రవీణ్": 8043,
      "ంగే": 8044,
      "నదీ": 8045,
      "వాలంటీ": 8046,
      "బాంబు": 8047,
      "అంత్య": 8048,
      "అధిగమి": 8049,
      "కోల్కతా": 8050,
      "పనులకు": 8051,
      "సమీక్షి": 8052,
      "అణు": 8053,
      "పౌర": 8054,
      "విశాఖపట్నం": 8055,
      "టెన్షన్": 8056,
      "ఫొటోలు": 8057,
      "బిందు": 8058,
      "బరిలోకి": 8059,
      "ఆంధ": 8060,
      "స్పర్": 8061,
      "కౌన్సిల్": 8062,
      "ఆకాం": 8063,
      "పోస్టులు": 8064,
      "వస్తున్నారు": 8065,
      "పాడి": 8066,
      "తున్నాం": 8067,
      "తాః": 8068,
      "దసరా": 8069,
      "మార్కె": 8070,
      "రియర్": 8071,
      "సాక్షా": 8072,
      "ఔట్": 8073,
      "ణుడు": 8074,
      "యాక్టివ్": 8075,
      "దృక్": 8076,
      "సంసార": 8077,
      "మెసేజ్": 8078,
      "ప్రాణం": 8079,
      "విస్తృత": 8080,
      "జనులు": 8081,
      "చేశాను": 8082,
      "ముగిసింది": 8083,
      "చువల్": 8084,
      "ందె": 8085,
      "పరిశ్రమలో": 8086,
      "గణేష్": 8087,
      "గుట్ట": 8088,
      "జరిమానా": 8089,
      "గవర్న": 8090,
      "డ్రి": 8091,
      "నిఘా": 8092,
      "భూముల": 8093,
      "సాగిన": 8094,
      "ప్రాంతాలలో": 8095,
      "క్కులు": 8096,
      "ర్తి": 8097,
      "పరికరం": 8098,
      "దయచేసి": 8099,
      "వెం": 8100,
      "పనిని": 8101,
      "లోక్సభ": 8102,
      "అతడిని": 8103,
      "గుండ": 8104,
      "నిర్వహిస్తున్నారు": 8105,
      "ఖే": 8106,
      "కారణమని": 8107,
      "దృష్టిని": 8108,
      "శాఖల": 8109,
      "పదవికి": 8110,
      "ఖరీదైన": 8111,
      "ట్ను": 8112,
      "నిర్ణయాన్ని": 8113,
      "ల్యాండ్": 8114,
      "గులాబీ": 8115,
      "పరోక్ష": 8116,
      "సాంఘి": 8117,
      "చేతుల": 8118,
      "శంకర": 8119,
      "మైదా": 8120,
      "అవినా": 8121,
      "కార్యకలాపాలు": 8122,
      "చేసుకోవడానికి": 8123,
      "షోర్": 8124,
      "85": 8125,
      "తీర్చిది": 8126,
      "వఱకు": 8127,
      "గాఢ": 8128,
      "శాఖా": 8129,
      "ప్రారంభంలో": 8130,
      "లయన్స్": 8131,
      "కవితా": 8132,
      "బతు": 8133,
      "గురవు": 8134,
      "సెక్రటరీ": 8135,
      "పాల్పడిన": 8136,
      "భాగము": 8137,
      "రుణాలు": 8138,
      "మర్యాద": 8139,
      "పక్": 8140,
      "సముద్రం": 8141,
      "పోతూ": 8142,
      "రేట్లు": 8143,
      "ఐఏ": 8144,
      "తాలి": 8145,
      "అనుమాని": 8146,
      "ధరల": 8147,
      "శాస్త్రవేత్తలు": 8148,
      "జగదీ": 8149,
      "స్కోరు": 8150,
      "డాన్": 8151,
      "వివరా": 8152,
      "ఒక్కసారి": 8153,
      "వ్యక్తికి": 8154,
      "పునః": 8155,
      "చేఁ": 8156,
      "భక్తులకు": 8157,
      "శంకు": 8158,
      "సరదాగా": 8159,
      "పలికారు": 8160,
      "రామయ్య": 8161,
      "ంపజే": 8162,
      "సర్ప": 8163,
      "రికార్డ్": 8164,
      "వ్రాసి": 8165,
      "వశ్య": 8166,
      "ఆక్": 8167,
      "వర్గీ": 8168,
      "జెడ్": 8169,
      "బంద్": 8170,
      "డుగ": 8171,
      "ఆనంది": 8172,
      "దవా": 8173,
      "హిల్స్": 8174,
      "సైన్యం": 8175,
      "ప్రభుత్వంపై": 8176,
      "సర్వా": 8177,
      "తెల": 8178,
      "కరెన్సీ": 8179,
      "లేను": 8180,
      "త్రిక": 8181,
      "చేయాలనే": 8182,
      "బీహార్": 8183,
      "ఆఫీస్": 8184,
      "జనతా": 8185,
      "ఐదుగురు": 8186,
      "పొల": 8187,
      "లికా": 8188,
      "ముంది": 8189,
      "రోడ్లు": 8190,
      "ఈసీ": 8191,
      "ఇండో": 8192,
      "సజ్": 8193,
      "మాది": 8194,
      "చెప్పాలంటే": 8195,
      "చలం": 8196,
      "లీడర్": 8197,
      "పాన్ని": 8198,
      "కోర్టుకు": 8199,
      "చేసినట్టు": 8200,
      "తిరస్కరి": 8201,
      "వచ్చినట్లు": 8202,
      "అక్షర": 8203,
      "జలా": 8204,
      "ప్రాముఖ్య": 8205,
      "2009": 8206,
      "ఇస్తామని": 8207,
      "జాలు": 8208,
      "పెండ్": 8209,
      "నిర్వహించాలని": 8210,
      "వ్వి": 8211,
      "పరిస్థితులను": 8212,
      "అంట": 8213,
      "కేసును": 8214,
      "మనవి": 8215,
      "ప్రీతి": 8216,
      "కుండానే": 8217,
      "పిమ్మట": 8218,
      "పుష్కల": 8219,
      "ఎంతగానో": 8220,
      "రాష్ట్రాలకు": 8221,
      "అంతకుముందు": 8222,
      "జరిపిన": 8223,
      "చారానికి": 8224,
      "ఆంగ్ల": 8225,
      "భావిస్తారు": 8226,
      "మరణించిన": 8227,
      "సికింద": 8228,
      "కళ్ల": 8229,
      "జెన్స్": 8230,
      "సిగ్నల్": 8231,
      "జోక్యం": 8232,
      "అర్హ": 8233,
      "పరిశీలించి": 8234,
      "కలవ": 8235,
      "కాలా": 8236,
      "సెట్స్": 8237,
      "గారిని": 8238,
      "గుడు": 8239,
      "డానికే": 8240,
      "అసాధారణ": 8241,
      "చెవి": 8242,
      "ఇంతకీ": 8243,
      "నన": 8244,
      "చేరే": 8245,
      "విరో": 8246,
      "శ్రీకాకుళం": 8247,
      "జట్టులో": 8248,
      "పాత్రల్లో": 8249,
      "సంతోష్": 8250,
      "ఆదరణ": 8251,
      "ప్రాక్": 8252,
      "ప్రాంగ": 8253,
      "పురుషుల": 8254,
      "ర్ట్": 8255,
      "సాఫ్ట్వేర్": 8256,
      "కుర్రా": 8257,
      "ననియు": 8258,
      "రాగానే": 8259,
      "క్రియలు": 8260,
      "్రాజు": 8261,
      "కరణం": 8262,
      "మొదటిసారి": 8263,
      "అత్యధికంగా": 8264,
      "ముద్రి": 8265,
      "తాలూ": 8266,
      "వెయి": 8267,
      "చాయి": 8268,
      "విజృం": 8269,
      "అధిష్టా": 8270,
      "విప": 8271,
      "మరణించారు": 8272,
      "కేంద్రంగా": 8273,
      "ఆదేశ": 8274,
      "మోతాదు": 8275,
      "సురు": 8276,
      "మరె": 8277,
      "స్కో": 8278,
      "పాటుగా": 8279,
      "కార్తీక్": 8280,
      "ఆడిన": 8281,
      "తులసి": 8282,
      "నేత్ర": 8283,
      "పువ్": 8284,
      "చూడు": 8285,
      "?'": 8286,
      "మయం": 8287,
      "వీల్": 8288,
      "ఎఫ్ఐ": 8289,
      "విపరీతంగా": 8290,
      "తెలుసుకో": 8291,
      "గుప్పి": 8292,
      "పక్కనే": 8293,
      "ఆవిర్": 8294,
      "ంటిక్": 8295,
      "పరీక్షల": 8296,
      "వాడిని": 8297,
      "ఎంఐ": 8298,
      "చల్లని": 8299,
      "ఆరోగ్యంగా": 8300,
      "సందీ": 8301,
      "విజయవంతంగా": 8302,
      "దేశంలోనే": 8303,
      "వచ్చాక": 8304,
      "గ్రఫీ": 8305,
      "సంతోషి": 8306,
      "ఎద్": 8307,
      "ఉపయోగించే": 8308,
      "ఇలాగే": 8309,
      "కాత్మక": 8310,
      "కలిగించే": 8311,
      "రెట్లు": 8312,
      "ఇప్పుడే": 8313,
      "సనా": 8314,
      "వేలాది": 8315,
      "పోతు": 8316,
      "లక్షణం": 8317,
      "కేజ": 8318,
      "గెలవ": 8319,
      "పెండింగ్": 8320,
      "బ్బా": 8321,
      "స్పందిస్తూ": 8322,
      "మొనర్": 8323,
      "జీహెచ్": 8324,
      "ప్రాంతాలు": 8325,
      "ఆశీర్": 8326,
      "ఏంటో": 8327,
      "కేవల": 8328,
      "మార్కులు": 8329,
      "అలానే": 8330,
      "స్పష్టత": 8331,
      "అనుష్క": 8332,
      "కల్యాణ": 8333,
      "అందాల": 8334,
      "గుమ్మ": 8335,
      "మగును": 8336,
      "పరిణామాలు": 8337,
      "ంచుకుంటూ": 8338,
      "అభిప్రాయపడ్డారు": 8339,
      "వివాదాస్పద": 8340,
      "ఆసక్తికరంగా": 8341,
      "అందం": 8342,
      "దోపి": 8343,
      "రజి": 8344,
      "కాశ్మీర్": 8345,
      "ంపబడిన": 8346,
      "చెప్పండి": 8347,
      "భాను": 8348,
      "వ్యయం": 8349,
      "వల్లి": 8350,
      "పోకుండా": 8351,
      "నాగ్": 8352,
      "స్థలానికి": 8353,
      "ప్రకాశి": 8354,
      "అకాడ": 8355,
      "వృత్త": 8356,
      "సంతోషం": 8357,
      "అనూహ్య": 8358,
      "కింగ్స్": 8359,
      "ప్రభ": 8360,
      "యిన్స్": 8361,
      "వెళ్తున్న": 8362,
      "యది": 8363,
      "వస్తువుల": 8364,
      "సూచిస్తుంది": 8365,
      "టాన్ని": 8366,
      "నిషేధం": 8367,
      "అనుభ": 8368,
      "లవు": 8369,
      "కట్టే": 8370,
      "విశ్లేషణ": 8371,
      "నంటూ": 8372,
      "దన్నారు": 8373,
      "నెమ్మదిగా": 8374,
      "ప్రిన్సి": 8375,
      "బోయ": 8376,
      "బ్రిటిష్": 8377,
      "కమల": 8378,
      "తలపై": 8379,
      "అగర్వాల్": 8380,
      "పడం": 8381,
      "తక్షణమే": 8382,
      "జీవనం": 8383,
      "భరణ": 8384,
      "పాలనా": 8385,
      "నేమి": 8386,
      "ఇపుడు": 8387,
      "అర్బన్": 8388,
      "ంచుకునేందుకు": 8389,
      "దురదృష్ట": 8390,
      "దాం": 8391,
      "ఐతే": 8392,
      "అభిరు": 8393,
      "ఎదుట": 8394,
      "మూలం": 8395,
      "250": 8396,
      "చెపు": 8397,
      "ఉపయోగించడానికి": 8398,
      "కుటుంబంలో": 8399,
      "ఉక్కు": 8400,
      "రావి": 8401,
      "విశే": 8402,
      "వేడుకలు": 8403,
      "ఆంక్షలు": 8404,
      "పర్యవేక్షి": 8405,
      "చేయాలనుకు": 8406,
      "తెప్పి": 8407,
      "గోరు": 8408,
      "త్వంలోని": 8409,
      "రెడ్డిని": 8410,
      "నిందితు": 8411,
      "నిరాకరి": 8412,
      "కురిపి": 8413,
      "పడుతున్నాయి": 8414,
      "ఫెడ": 8415,
      "స్వీయ": 8416,
      "సుకుని": 8417,
      "వదలి": 8418,
      "పోరాడు": 8419,
      "ప్రకృ": 8420,
      "వాసం": 8421,
      "లేడు": 8422,
      "జయి": 8423,
      "త్రో": 8424,
      "పొందా": 8425,
      "ఁక": 8426,
      "రాజీవ్": 8427,
      "ఇమేజ్": 8428,
      "రెస్పా": 8429,
      "నాటు": 8430,
      "పక్కా": 8431,
      "సూర్యా": 8432,
      "టంలో": 8433,
      "కుంఠ": 8434,
      "సిపిఎం": 8435,
      "ఆరోగ్యకరమైన": 8436,
      "మారుతుంది": 8437,
      "విగ్రహం": 8438,
      "సుమ": 8439,
      "కేర్": 8440,
      "సొసై": 8441,
      "పొరుగు": 8442,
      "ష్యు": 8443,
      "హర్ష": 8444,
      "మిస్టర్": 8445,
      "పల్లవి": 8446,
      "యంత్ర": 8447,
      "తనతో": 8448,
      "చేరుకుని": 8449,
      "లేకుండానే": 8450,
      "కాలమున": 8451,
      "వస్తువులను": 8452,
      "యూత్": 8453,
      "ట్రెండ్": 8454,
      "హనుమం": 8455,
      "సోదరుడు": 8456,
      "అదృష్టం": 8457,
      "వసతి": 8458,
      "పర్యాట": 8459,
      "ఫోన్లు": 8460,
      "నన్నారు": 8461,
      "పుట్టినరోజు": 8462,
      "బోయి": 8463,
      "థు": 8464,
      "ఏర్పడి": 8465,
      "సముచిత": 8466,
      "బాణ": 8467,
      "సమృ": 8468,
      "చమురు": 8469,
      "చేసాడు": 8470,
      "లేరని": 8471,
      "సెలబ్రిటీ": 8472,
      "గందర": 8473,
      "భార్యా": 8474,
      "వయసులో": 8475,
      "భీమ": 8476,
      "ఒక్కటే": 8477,
      "తగు": 8478,
      "ఇళ్లు": 8479,
      "సచిన్": 8480,
      "విధానంలో": 8481,
      "అభిమానులకు": 8482,
      "చేస్తున్నామని": 8483,
      "తీవ్రత": 8484,
      "వైవి": 8485,
      "తీసుకెళ్లి": 8486,
      "జనుల": 8487,
      "శీతా": 8488,
      "నిధుల": 8489,
      "గోపి": 8490,
      "అండర్": 8491,
      "ప్రతీకాత్మక": 8492,
      "జర్మ": 8493,
      "కన్పి": 8494,
      "సమాజా": 8495,
      "ముం": 8496,
      "సహాయంతో": 8497,
      "తత్త్వ": 8498,
      "డాక్యు": 8499,
      "మావోయి": 8500,
      "వాదనలు": 8501,
      "కరిగి": 8502,
      "యుండెను": 8503,
      "చెప్పినా": 8504,
      "సూచించింది": 8505,
      "ఎంపీలు": 8506,
      "టిట్యూ": 8507,
      "వేసుకుని": 8508,
      "పథకాన్ని": 8509,
      "అంశాన్ని": 8510,
      "లేము": 8511,
      "88": 8512,
      "కనిపిస్తాయి": 8513,
      "గేషన్": 8514,
      "దప": 8515,
      "కుదర": 8516,
      "పాలెం": 8517,
      "పర్యవేక్షణ": 8518,
      "జబర్": 8519,
      "సమయాన్ని": 8520,
      "భాగంగానే": 8521,
      "అదీ": 8522,
      "తలుపు": 8523,
      "ప్రాతిపది": 8524,
      "హూ": 8525,
      "దానిలో": 8526,
      "కులా": 8527,
      "అంతరి": 8528,
      "ఆకర్షణ": 8529,
      "నిరం": 8530,
      "రంగాల్లో": 8531,
      "నిండు": 8532,
      "కక్ష": 8533,
      "67": 8534,
      "త్రై": 8535,
      "పోగొ": 8536,
      "అశ్విన్": 8537,
      "కొట్టుకు": 8538,
      "టరు": 8539,
      "స్పోర్ట్స్": 8540,
      "కొనియా": 8541,
      "డాక్టర్లు": 8542,
      "జేడీ": 8543,
      "మేల్": 8544,
      "లేకపోయినా": 8545,
      "పరిపూర్ణ": 8546,
      "వేలకు": 8547,
      "విడిగా": 8548,
      "ఏకా": 8549,
      "జ్యం": 8550,
      "గణనీయంగా": 8551,
      "స్వర్గ": 8552,
      "సంయుక్": 8553,
      "క్వి": 8554,
      "ఎద్దేవా": 8555,
      "ఆరుగు": 8556,
      "కప్ప": 8557,
      "ందరు": 8558,
      "చేతుల్లో": 8559,
      "మచ్చ": 8560,
      "వనే": 8561,
      "ాన": 8562,
      "ఙ్గ": 8563,
      "బియా": 8564,
      "చిత్రంతో": 8565,
      "ధనం": 8566,
      "ంపక": 8567,
      "స్టల్": 8568,
      "ులుగా": 8569,
      "అందరికి": 8570,
      "రెండేళ్ల": 8571,
      "అనిపించింది": 8572,
      "నియమ": 8573,
      "వాళ్లను": 8574,
      "అందిస్తున్న": 8575,
      "ంపులకు": 8576,
      "పనిచేసిన": 8577,
      "ందేమో": 8578,
      "ప్రచారంలో": 8579,
      "గెస్ట్": 8580,
      "ఖర్చులు": 8581,
      "మేధా": 8582,
      "జులు": 8583,
      "ఉంటుందో": 8584,
      "నివ్వ": 8585,
      "శ్యామ్": 8586,
      "తులైన": 8587,
      "__": 8588,
      "రౌండ్": 8589,
      "స్ఫు": 8590,
      "మనసులో": 8591,
      "ఇక్కడే": 8592,
      "యడం": 8593,
      "న్నట్లు": 8594,
      "నచ్చిన": 8595,
      "మహిళల్లో": 8596,
      "విద్యాశాఖ": 8597,
      "కొనసాగుతున్న": 8598,
      "మహేశ్": 8599,
      "చేయడమే": 8600,
      "నిలబె": 8601,
      "పాన": 8602,
      "సమాధి": 8603,
      "లోటు": 8604,
      "చేస్తారని": 8605,
      "గడ్": 8606,
      "టేషన్": 8607,
      "ంచనుంది": 8608,
      "చినను": 8609,
      "...?": 8610,
      "పానీ": 8611,
      "చెప్పినట్లు": 8612,
      "శ్రేష్ఠ": 8613,
      "కట్టుకు": 8614,
      "ఫీల్": 8615,
      "పాము": 8616,
      "ఇప్పటికి": 8617,
      "దత్త": 8618,
      "యాల్సి": 8619,
      "అడిగితే": 8620,
      "యమ్": 8621,
      "సారం": 8622,
      "తీసుకుంటున్న": 8623,
      "లాబాద్": 8624,
      "జారు": 8625,
      "శ్రి": 8626,
      "హడా": 8627,
      "కిషోర్": 8628,
      "ఫుట్": 8629,
      "బాగుంది": 8630,
      "క్టరు": 8631,
      "కలలో": 8632,
      "మూత": 8633,
      "శ్రీదేవి": 8634,
      "వర్గానికి": 8635,
      "తివి": 8636,
      "మేడ": 8637,
      "సందేహ": 8638,
      "మెచ్చు": 8639,
      "తెలివి": 8640,
      "తమన్నా": 8641,
      "పాతం": 8642,
      "పోసి": 8643,
      "కవ": 8644,
      "శాలి": 8645,
      "తగ": 8646,
      "పాపు": 8647,
      "విశ్వాస": 8648,
      "త్తె": 8649,
      "2000": 8650,
      "పరామర్": 8651,
      "నిందితుడు": 8652,
      "కారును": 8653,
      "మీరూ": 8654,
      "అబ్దు": 8655,
      "ఆపిల్": 8656,
      "పాయింట్లు": 8657,
      "తీసుకున్నా": 8658,
      "ఆవిష్కరణ": 8659,
      "ర్వ": 8660,
      "ప్రవ": 8661,
      "సంఘటనలు": 8662,
      "కాకినాడ": 8663,
      "ద్వై": 8664,
      "కిం": 8665,
      "రహి": 8666,
      "ఎలాగ": 8667,
      "సులను": 8668,
      "బరిలో": 8669,
      "ఆసక్తిగా": 8670,
      "పుష్కలంగా": 8671,
      "తుఁడు": 8672,
      "సానికి": 8673,
      "ందిగా": 8674,
      "ఇతరులు": 8675,
      "టిఆర్ఎస్": 8676,
      "అవకాశాన్ని": 8677,
      "నపుడు": 8678,
      "సమాధాన": 8679,
      "మెంటరీ": 8680,
      "రాజకీయంగా": 8681,
      "వైఎస్ఆర్": 8682,
      "పిలవ": 8683,
      "ఇస్తున్నారు": 8684,
      "కొరియా": 8685,
      "శ్రీశై": 8686,
      "దినోత్సవం": 8687,
      "జొన్న": 8688,
      "రాఘవ": 8689,
      "పీల్": 8690,
      "సందీప్": 8691,
      "95": 8692,
      "ంచబడ్డాయి": 8693,
      "లాయి": 8694,
      "విషాద": 8695,
      "ఫీల్డ్": 8696,
      "నవా": 8697,
      "జ్యూ": 8698,
      "ఛార్జ్": 8699,
      "మారే": 8700,
      "వహించిన": 8701,
      "ఆధిప": 8702,
      "్రాబాద్": 8703,
      "మృతదేహాన్ని": 8704,
      "రిపోర్టు": 8705,
      "గిరీ": 8706,
      "చెబుతోంది": 8707,
      "గానూ": 8708,
      "నిర్మిస్తున్న": 8709,
      "గడ్డి": 8710,
      "వార్షిక": 8711,
      "నక్క": 8712,
      "వున్నా": 8713,
      "లండన్": 8714,
      "మాత": 8715,
      "పొట్ట": 8716,
      "డైరెక్ట్": 8717,
      "సొమ్ము": 8718,
      "మాదిరిగా": 8719,
      "ఒలిం": 8720,
      "దశాబ్ద": 8721,
      "పాడ": 8722,
      "దనే": 8723,
      "గారూ": 8724,
      "మ్యాన్": 8725,
      "నికల్": 8726,
      "మొదట్లో": 8727,
      "మంటలు": 8728,
      "స్కోర్": 8729,
      "వివరాల్లోకి": 8730,
      "ఁగఁ": 8731,
      "వంతుడు": 8732,
      "ఎస్సై": 8733,
      "దాదాపుగా": 8734,
      "ంచనున్న": 8735,
      "ఫైబర్": 8736,
      "తస్య": 8737,
      "స్తులను": 8738,
      "ంతము": 8739,
      "చడం": 8740,
      "2012": 8741,
      "సొసైటీ": 8742,
      "సమీక్షలు": 8743,
      "కిడ్నా": 8744,
      "చికెన్": 8745,
      "డ్రామా": 8746,
      "రైతులను": 8747,
      "డితో": 8748,
      "తార్": 8749,
      "లైతే": 8750,
      "అభ్యర్": 8751,
      "క్కడే": 8752,
      "అదర": 8753,
      "పాఠకుల": 8754,
      "ణ్ణ": 8755,
      "క్రాన్": 8756,
      "ఘట్ట": 8757,
      "ఢ్": 8758,
      "నాఁడు": 8759,
      "సురక్షితంగా": 8760,
      "మెన్స్": 8761,
      "ందాన్ని": 8762,
      "రిలయన్స్": 8763,
      "టాస్క్": 8764,
      "పట్టుకొని": 8765,
      "కోరింది": 8766,
      "హస్త": 8767,
      "తుఫా": 8768,
      "600": 8769,
      "మలయాళ": 8770,
      "ఖాయ": 8771,
      "చేస్తుంటారు": 8772,
      "జాక్": 8773,
      "జుల": 8774,
      "బంగ్లాదేశ్": 8775,
      "హారిక": 8776,
      "నీస్": 8777,
      "మరా": 8778,
      "స్థానానికి": 8779,
      "కుశ": 8780,
      "వైకుంఠ": 8781,
      "ఎప్పటికీ": 8782,
      "చక": 8783,
      "ముట్ట": 8784,
      "ంపుల్": 8785,
      "కష్టపడి": 8786,
      "డాలర్ల": 8787,
      "వేట": 8788,
      "స్పందించిన": 8789,
      "ఐసీ": 8790,
      "డును": 8791,
      "స్థానాలు": 8792,
      "వాలే": 8793,
      "ధులతో": 8794,
      "హాలీవుడ్": 8795,
      "68": 8796,
      "వ్యవసా": 8797,
      "జరగనుంది": 8798,
      "షాం": 8799,
      "ముఖ్యమంత్రిగా": 8800,
      "ఇతరుల": 8801,
      "నటించి": 8802,
      "సెమీ": 8803,
      "ఫలా": 8804,
      "తోడ": 8805,
      "దోపిడీ": 8806,
      "గంజాయి": 8807,
      "గట్టు": 8808,
      "సమన్వయ": 8809,
      "తున్నామని": 8810,
      "ఆచరణ": 8811,
      "శారీరక": 8812,
      "ప్రార్థి": 8813,
      "గమనికః": 8814,
      "గ్రూపు": 8815,
      "గాదు": 8816,
      "దూసుకె": 8817,
      "తాత్కాలిక": 8818,
      "సాంఘిక": 8819,
      "కంపై": 8820,
      "తెచ్చిన": 8821,
      "చేయటానికి": 8822,
      "ప్రక్రియను": 8823,
      "సభ్యులతో": 8824,
      "సంస్థలకు": 8825,
      "ఇంతలో": 8826,
      "1000": 8827,
      "ఇప్పి": 8828,
      "మద": 8829,
      "రాష్ట్రీయ": 8830,
      "నమః": 8831,
      "పట్టణంలో": 8832,
      "కళ్లు": 8833,
      ".\\\"": 8834,
      "కాశీ": 8835,
      "షియన్": 8836,
      "ఐశ్వర్": 8837,
      "తట్టుకో": 8838,
      "క్షమాపణ": 8839,
      "గానికి": 8840,
      "నేన": 8841,
      "టూర్": 8842,
      "చేతికి": 8843,
      "ుఁ": 8844,
      "వీలైనంత": 8845,
      "దుర్గ": 8846,
      "యోజన": 8847,
      "2011": 8848,
      "శ్రేణి": 8849,
      "లోనికి": 8850,
      "్రే": 8851,
      "శిల్ప": 8852,
      "డ్యు": 8853,
      "మీదకు": 8854,
      "నటిస్తోంది": 8855,
      "77": 8856,
      "మిది": 8857,
      "మంత్రుల": 8858,
      "ఐఫోన్": 8859,
      "ర్వా": 8860,
      "ఇవ్వడానికి": 8861,
      "కాబో": 8862,
      "ప్రఖ్యా": 8863,
      "గాయాలు": 8864,
      "ఆధారాలు": 8865,
      "దేవతా": 8866,
      "పొడ": 8867,
      "పేందుకు": 8868,
      "రెచ్చ": 8869,
      "స్వర్ణ": 8870,
      "ద్దే": 8871,
      "ఎట్టి": 8872,
      "వీడియోలో": 8873,
      "వాచ్": 8874,
      "కమీ": 8875,
      "వేర": 8876,
      "విభే": 8877,
      "రుజు": 8878,
      "పీడ": 8879,
      "ఉపాధ్యాయులు": 8880,
      "భిషే": 8881,
      "ప్రామాణి": 8882,
      "లియో": 8883,
      "ధర్మం": 8884,
      "కోణంలో": 8885,
      "మరమ్మ": 8886,
      "వరకే": 8887,
      "పాఠకులు": 8888,
      "పిండ": 8889,
      "సైన్య": 8890,
      "పాలను": 8891,
      "మురళీ": 8892,
      "పునరుద్ధరి": 8893,
      "తెలీ": 8894,
      "ధర్మాస": 8895,
      "ఫ్రంట్": 8896,
      "శాస": 8897,
      "నీటితో": 8898,
      "నిఖి": 8899,
      "సాగుతోంది": 8900,
      "పోవడానికి": 8901,
      "నాగేశ్వరరావు": 8902,
      "శ్రీవారి": 8903,
      "సన్నాహాలు": 8904,
      "భోగ": 8905,
      "శ్రీకారం": 8906,
      "యజమా": 8907,
      "తుం": 8908,
      "కమలా": 8909,
      "మీకి": 8910,
      "చేతన": 8911,
      "నిర్మాణంలో": 8912,
      "ప్రేమలో": 8913,
      "గ్యాప్": 8914,
      "రచనలు": 8915,
      "నేతలకు": 8916,
      "సరళ": 8917,
      "ంచమని": 8918,
      "కూరగాయలు": 8919,
      "ఎదుర్కొంటున్న": 8920,
      "వ్యం": 8921,
      "అంతరా": 8922,
      "ంచాల": 8923,
      "నిర్వాహకులు": 8924,
      "అంటాడు": 8925,
      "ముచ్చ": 8926,
      "కారుడు": 8927,
      "తీర్మానం": 8928,
      "క్రాస్": 8929,
      "గెలిపి": 8930,
      "ఫిలిం": 8931,
      "త్యర్థ": 8932,
      "శ్వరుని": 8933,
      "రాక్": 8934,
      "డౌన్లోడ్": 8935,
      "నయ": 8936,
      "తిన్న": 8937,
      "సాధు": 8938,
      "కేజ్రీ": 8939,
      "ముఖి": 8940,
      "సమయంలోనే": 8941,
      "ఇస్తారు": 8942,
      "కోణం": 8943,
      "చవి": 8944,
      "ద్దరు": 8945,
      "విచారణలో": 8946,
      "మ్యు": 8947,
      "లక్షణాలను": 8948,
      "చూడటానికి": 8949,
      "ఆరంభ": 8950,
      "రాదని": 8951,
      "ఫరెన్స్": 8952,
      "వర్కింగ్": 8953,
      "చేస్తాడు": 8954,
      "కెన": 8955,
      "వసం": 8956,
      "భార్యను": 8957,
      "సః": 8958,
      "తనికి": 8959,
      "పరిరక్షణ": 8960,
      "వ్యక్తమవు": 8961,
      "లనే": 8962,
      "చిలు": 8963,
      "కొట్టు": 8964,
      "సంచి": 8965,
      "చతుర్": 8966,
      "జామున": 8967,
      "దక్షిణాఫ్రికా": 8968,
      "జవాబు": 8969,
      "హన్": 8970,
      "బాధపడుతున్న": 8971,
      "ప్రపంచంలోనే": 8972,
      "తోటి": 8973,
      "వామ": 8974,
      "నమోదైంది": 8975,
      "రీసెంట్": 8976,
      "భారతదేశ": 8977,
      "సెంటి": 8978,
      "నవ్వి": 8979,
      "దుంప": 8980,
      "గ్యాంగ్": 8981,
      "మార్గదర్శ": 8982,
      "శృతి": 8983,
      "సికింద్రాబాద్": 8984,
      "కరెంట్": 8985,
      "పారే": 8986,
      "సీఎస్": 8987,
      "ఫ్టీ": 8988,
      "జంటగా": 8989,
      "నిధులను": 8990,
      "రెట్టి": 8991,
      "ఉద్దేశించి": 8992,
      "అంగుళ": 8993,
      "ధులకు": 8994,
      "అతనిని": 8995,
      "ఆందోళనకు": 8996,
      "కేట్": 8997,
      "అట్లు": 8998,
      "ప్టర్": 8999,
      "ఏర్పడ": 9000,
      "స్పేస్": 9001,
      "జికల్": 9002,
      "వుల్లో": 9003,
      "నమస్తే": 9004,
      "కోవడంతో": 9005,
      "మార్చుకు": 9006,
      "కలిసిన": 9007,
      "హాయి": 9008,
      "శ్రీహరి": 9009,
      "లోత": 9010,
      "అర్ధరాత్రి": 9011,
      "గోధు": 9012,
      "ఒడిశా": 9013,
      "బితే": 9014,
      "జిన్": 9015,
      "చేయని": 9016,
      "వెంకయ్య": 9017,
      "మొట్టమొదటి": 9018,
      "లకుండా": 9019,
      "చేశాం": 9020,
      "చెబుతారు": 9021,
      "సృష్టించిన": 9022,
      "గాడి": 9023,
      "దును": 9024,
      "సెన్స్": 9025,
      "కంబు": 9026,
      "రాశు": 9027,
      "నమోదయ్యాయి": 9028,
      "సైజ్": 9029,
      "ముగాఁ": 9030,
      "చెబుతున్న": 9031,
      "తరహాలో": 9032,
      "సమస్యలపై": 9033,
      "పరువు": 9034,
      "పెరిగాయి": 9035,
      "బోర్డ్": 9036,
      "ఉద్ధ": 9037,
      "72": 9038,
      "బుర": 9039,
      "థీ": 9040,
      "మడ": 9041,
      "సమి": 9042,
      "సెలె": 9043,
      "కులం": 9044,
      "అన్నింటి": 9045,
      "విలేక": 9046,
      "శైలిలో": 9047,
      "అన్వే": 9048,
      "జారా": 9049,
      "లాద": 9050,
      "ఆదేశాల": 9051,
      "డవైన": 9052,
      "భూకం": 9053,
      "యత్ని": 9054,
      "దన్న": 9055,
      "విరుద్ధంగా": 9056,
      "ఉత్కంఠ": 9057,
      "బగు": 9058,
      "ఆధారి": 9059,
      "ప్రయత్నించండి": 9060,
      "ఉమా": 9061,
      "కంత": 9062,
      "ఖైదీ": 9063,
      "కనే": 9064,
      "గన్న": 9065,
      "కుది": 9066,
      "..!!": 9067,
      "యుండుట": 9068,
      "ప్రతిరోజూ": 9069,
      "ఆడియన్స్": 9070,
      "జర్మనీ": 9071,
      "వినియోగదారులకు": 9072,
      "ష్ర్": 9073,
      "నిపుణుల": 9074,
      "పెద్దల": 9075,
      "ద్యు": 9076,
      "టైగర్": 9077,
      "లేకపోయింది": 9078,
      "కట్టుబడి": 9079,
      "ఫోకస్": 9080,
      "ఆకర్ష": 9081,
      "సమావేశానికి": 9082,
      "ఆదిలాబాద్": 9083,
      "చెందింది": 9084,
      "చర్చనీయాంశ": 9085,
      "ఇస్తూ": 9086,
      "అలంకరి": 9087,
      "మున్నగు": 9088,
      "ఆంధ్రా": 9089,
      "వాఁడ": 9090,
      "భావించారు": 9091,
      "స్తామన్నారు": 9092,
      "విజయనగరం": 9093,
      "జడ్పీ": 9094,
      "అత్యాచారం": 9095,
      "ఇన్ఫె": 9096,
      "చేయనున్న": 9097,
      "కంపెనీల": 9098,
      "చెబితే": 9099,
      "భారతి": 9100,
      "తెచ్చుకున్న": 9101,
      "న్యాన్ని": 9102,
      "ప్రసార": 9103,
      "దిల్లీ": 9104,
      "ప్రభువు": 9105,
      "గింది": 9106,
      "అనుమతులు": 9107,
      "ప్రశ్నలకు": 9108,
      "క్రైస్త": 9109,
      "అమర": 9110,
      "సివిల్": 9111,
      "కొరటాల": 9112,
      "మార్కెటింగ్": 9113,
      "ాలిటీ": 9114,
      "రాత": 9115,
      "బౌద్ధ": 9116,
      "ప్రయాణికులు": 9117,
      "పరిగణన": 9118,
      "దేవతలు": 9119,
      "ట్మెంట్": 9120,
      "రెస్టారెంట్": 9121,
      "దేశాలలో": 9122,
      "చెట్లు": 9123,
      "సత్వ": 9124,
      "లోఁ": 9125,
      "వెళ్లింది": 9126,
      "కోమటి": 9127,
      "ందరో": 9128,
      "వున్నారు": 9129,
      "గాడ్": 9130,
      "విండో": 9131,
      "కేట": 9132,
      "చెప్పడంతో": 9133,
      "గుంట": 9134,
      "అస్సలు": 9135,
      "అవసరమైతే": 9136,
      "లోపలికి": 9137,
      "వాయిస్": 9138,
      "పింఛ": 9139,
      "కేజ్రీవాల్": 9140,
      "గాయం": 9141,
      "బ్యాలె": 9142,
      "క్షీణి": 9143,
      "ఆశ్చర్యం": 9144,
      "నాళ": 9145,
      "ములయందు": 9146,
      "డాలర్లు": 9147,
      "అట్లా": 9148,
      "రాబో": 9149,
      "ఇష్టమైన": 9150,
      "స్టూడియో": 9151,
      "ఒకటే": 9152,
      "రెస్పాన్స్": 9153,
      "షర": 9154,
      "//": 9155,
      "భువన": 9156,
      "ారూ": 9157,
      "ప్రజాదరణ": 9158,
      "మెదక్": 9159,
      "ఈఓ": 9160,
      "విజయవంతం": 9161,
      "విడుదలకు": 9162,
      "ఉల్లంఘి": 9163,
      "పనిష": 9164,
      "టాస్": 9165,
      "యుద్ధా": 9166,
      "పరిణ": 9167,
      "కుల్": 9168,
      "శరీరానికి": 9169,
      "రంధ": 9170,
      "సాధించ": 9171,
      "నిది": 9172,
      "చేసుకొ": 9173,
      "కరుణా": 9174,
      "యాజమా": 9175,
      "స్పూన్": 9176,
      "అభిప్రాయాలు": 9177,
      "రాజకీయం": 9178,
      "పేదల": 9179,
      "ఆర్డీ": 9180,
      "మద్దతుగా": 9181,
      "ఎన్డీ": 9182,
      "తెలియక": 9183,
      "లాంగ్": 9184,
      "భరత్": 9185,
      "ఉపాధ్యక్ష": 9186,
      "చేయాలో": 9187,
      "చేపట్టాలని": 9188,
      "పూర్తయిన": 9189,
      "వీటికి": 9190,
      "ఉపశమనం": 9191,
      "ఇస్తున్న": 9192,
      "వేగంతో": 9193,
      "రమ్య": 9194,
      "శాసనసభ": 9195,
      "తప్పులు": 9196,
      "విచ్": 9197,
      "రంగులు": 9198,
      "్యాల": 9199,
      "లిజెన్స్": 9200,
      "కాయలు": 9201,
      "కోన": 9202,
      "వేంకటే": 9203,
      "కలలు": 9204,
      "పరిచే": 9205,
      "గలిగే": 9206,
      "నెలకొల్": 9207,
      "నేపథ్యంలోనే": 9208,
      "శిష్యు": 9209,
      "ప్రదేశం": 9210,
      "బస్సులు": 9211,
      "యావ": 9212,
      "కూర్చొ": 9213,
      "వెన్ను": 9214,
      "డెడ్": 9215,
      "ప్రపంచంలోని": 9216,
      "గాన్": 9217,
      "విత్తన": 9218,
      "తీసుకుంటామని": 9219,
      "లాగు": 9220,
      "షన": 9221,
      "సేల్": 9222,
      "ండెంట్": 9223,
      "మేధస్సు": 9224,
      "బొగ్గు": 9225,
      "దేశాల్లోని": 9226,
      "విశ్వస": 9227,
      "తమిళంలో": 9228,
      "సుం": 9229,
      "జబర్ద": 9230,
      "చెబుతున్నాయి": 9231,
      "కల్పించాలని": 9232,
      "ఆఫీసు": 9233,
      "గాయని": 9234,
      "ష్యం": 9235,
      "మేక": 9236,
      "పోలీసులను": 9237,
      "విశ్లేషి": 9238,
      "కూర్పు": 9239,
      "పడిపోయింది": 9240,
      "మాటా": 9241,
      "నొక్కి": 9242,
      "తీసుకెళ్": 9243,
      "సమై": 9244,
      "తిరుమ": 9245,
      "కార్మికులకు": 9246,
      "జడ్జి": 9247,
      "విస్తృతంగా": 9248,
      "ఆకులు": 9249,
      "రెసి": 9250,
      "ఇంధన": 9251,
      "అత్యుత్తమ": 9252,
      "సౌర": 9253,
      "న్నర్": 9254,
      "సింధు": 9255,
      "గద్ద": 9256,
      "గాం": 9257,
      "కంతో": 9258,
      "వను": 9259,
      "యిది": 9260,
      "చుండును": 9261,
      "కీర్తన": 9262,
      "బాటి": 9263,
      "వెన్న": 9264,
      "ంచబడ": 9265,
      "సబ్సి": 9266,
      "మాస్క్": 9267,
      "చూసేందుకు": 9268,
      "ఉత్సవ": 9269,
      "ఇంగ్లీష్": 9270,
      "కాల్పులు": 9271,
      "ఇదీ": 9272,
      "అపో": 9273,
      "ణో": 9274,
      "నారాయ": 9275,
      "దృష్ట్యా": 9276,
      "ఏర్పాటుకు": 9277,
      "పెడుతున్నారు": 9278,
      "క్రిస్": 9279,
      "120": 9280,
      "అశ్వ": 9281,
      "వశా": 9282,
      "టను": 9283,
      "అమృ": 9284,
      "అంజ": 9285,
      "కథలో": 9286,
      "అభ్యంతరం": 9287,
      "స్ధా": 9288,
      "ప్రద": 9289,
      "దీపావళి": 9290,
      "మార్లు": 9291,
      "ముహూర్": 9292,
      "మీఁద": 9293,
      "అభిమాని": 9294,
      "దవాఖా": 9295,
      "ఆశలు": 9296,
      "కన్వీ": 9297,
      "రేణి": 9298,
      "సినిమాలను": 9299,
      "అనుకుంటున్న": 9300,
      "ప్రభుత్వంలో": 9301,
      "ందును": 9302,
      "సీఈవో": 9303,
      "అభ్యర్థుల": 9304,
      "కిని": 9305,
      "పలా": 9306,
      "ఫ్ల": 9307,
      "ఉండవు": 9308,
      "భీష్": 9309,
      "చెప్పుకో": 9310,
      "ప్రత్యుత్త": 9311,
      "బిన్": 9312,
      "సిడ్": 9313,
      "దురా": 9314,
      "వైనా": 9315,
      "చేయక": 9316,
      "ఆయుధ": 9317,
      "అగ్రి": 9318,
      "వెళ్ళే": 9319,
      "కదిలి": 9320,
      "వాం": 9321,
      "కార్డులు": 9322,
      "దృశ్యం": 9323,
      "ంచన": 9324,
      "దివ్యా": 9325,
      "కార్ల": 9326,
      "పర్యటనలో": 9327,
      "తిప్పి": 9328,
      "దొరుకు": 9329,
      "పరిమితి": 9330,
      "మళ్లి": 9331,
      "ఆడే": 9332,
      "శివు": 9333,
      "థం": 9334,
      "షారు": 9335,
      "ఎంఎస్": 9336,
      "మ్ర": 9337,
      "యట": 9338,
      "జట్టుకు": 9339,
      "వీర్": 9340,
      "దత్": 9341,
      "అకాడమీ": 9342,
      "కియా": 9343,
      "రజ": 9344,
      "యాలని": 9345,
      "ప్రత్యేకత": 9346,
      "మజ్": 9347,
      "సంవత్సరాలుగా": 9348,
      "జగన్మోహన్రెడ్డి": 9349,
      "నివాస": 9350,
      "అందరు": 9351,
      "మైందని": 9352,
      "అవకాశ": 9353,
      "లెక్కలు": 9354,
      "మినహాయింపు": 9355,
      "ంగాన్ని": 9356,
      "ఎంపీపీ": 9357,
      "బలవంతంగా": 9358,
      "మార్కెట్లు": 9359,
      "విధించింది": 9360,
      "రాష్ట్రవ్యాప్తంగా": 9361,
      "ంచేశారు": 9362,
      "అప్పులు": 9363,
      "పద్మా": 9364,
      "అనుకుంటే": 9365,
      "మన్ని": 9366,
      "సిబి": 9367,
      "ఇప్ప": 9368,
      "నోట్": 9369,
      "అతడికి": 9370,
      "ప్పె": 9371,
      "సెక్": 9372,
      "మరచి": 9373,
      "సహస్ర": 9374,
      "గలను": 9375,
      "బకాయి": 9376,
      "ంగీ": 9377,
      "కమ్యూనికేషన్": 9378,
      "బూర్": 9379,
      "జీహెచ్ఎంసీ": 9380,
      "అమాయ": 9381,
      "రాయల్": 9382,
      "రాకపో": 9383,
      "సహాయక": 9384,
      "జీఎస్టీ": 9385,
      "జబర్దస్త్": 9386,
      "ఇంజన్": 9387,
      "అంటుంది": 9388,
      "నిర్వహించడానికి": 9389,
      "ప్రకాశ్": 9390,
      "కేంద్రాలు": 9391,
      "నాఁ": 9392,
      "నిర్వర్తి": 9393,
      "ఎద": 9394,
      "క్రీస్తు": 9395,
      "జమ్మూ": 9396,
      "వసి": 9397,
      "దుండ": 9398,
      "వాడీ": 9399,
      "జీల": 9400,
      "లావ": 9401,
      "భారత్కు": 9402,
      "విధముగా": 9403,
      "పూర్వం": 9404,
      "తల్లిదండ్రుల": 9405,
      "తరవాత": 9406,
      "యాదా": 9407,
      "నడుమ": 9408,
      "అనీ": 9409,
      "డోర్": 9410,
      "ఉత్సా": 9411,
      "లేష్": 9412,
      "శ్రేణులు": 9413,
      "ఉప్ప": 9414,
      "దుష్ట": 9415,
      "వశ": 9416,
      "సాహిత్యం": 9417,
      "...\\": 9418,
      "కృత్య": 9419,
      "క్కిరి": 9420,
      "పార్కు": 9421,
      "ఆయనే": 9422,
      "చంద్రబాబుకు": 9423,
      "విజయసాయి": 9424,
      "కనిపిస్తున్నాయి": 9425,
      "ఆశించిన": 9426,
      "భయా": 9427,
      "రాధ": 9428,
      "నిలిచారు": 9429,
      "98": 9430,
      "నకుఁ": 9431,
      "నయం": 9432,
      "పాక్షి": 9433,
      "రాష్ర్": 9434,
      "గఢ్": 9435,
      "ఎయి": 9436,
      "అగు": 9437,
      "కనక": 9438,
      "డైరెక్షన్": 9439,
      "క్వాలి": 9440,
      "వెద": 9441,
      "తగ్గుతుంది": 9442,
      "సుధాకర్": 9443,
      "హైకోర్టులో": 9444,
      "లక్ష్యంతో": 9445,
      "మందలి": 9446,
      "ఆవరణ": 9447,
      "అడిగారు": 9448,
      "తాత్పర్": 9449,
      "అందించాలని": 9450,
      "్రాలు": 9451,
      "ప్రాప్తి": 9452,
      "ధర్మాసనం": 9453,
      "ఆవిష్కరి": 9454,
      "చర్ల": 9455,
      "గాంచి": 9456,
      "తిరుగుబాటు": 9457,
      "సంస్థకు": 9458,
      "చేసుకుంటే": 9459,
      "వేయు": 9460,
      "అండ": 9461,
      "మాఫీ": 9462,
      "ట్టకే": 9463,
      "వీక్షి": 9464,
[...]
